<unk>	0
<s>	0
</s>	0
,	-3.36766
.	-3.46314
▁và	-4.38792
▁của	-4.46052
▁có	-4.61594
▁là	-4.72773
▁một	-4.84191
▁không	-4.95001
▁"	-4.958
▁được	-4.96057
▁các	-4.96372
▁trong	-5.15918
▁với	-5.23503
▁tôi	-5.28722
▁đã	-5.28768
▁người	-5.2909
▁cho	-5.29998
▁thể	-5.4715
▁định	-5.49989
▁những	-5.53527
▁này	-5.53537
▁đó	-5.61704
▁để	-5.64946
)	-5.65268
▁về	-5.69936
▁ta	-5.70073
▁ở	-5.71628
▁khi	-5.74581
▁ra	-5.76443
▁năm	-5.77333
▁sẽ	-5.78565
▁vào	-5.786
▁công	-5.78629
▁bạn	-5.81187
▁phải	-5.82616
▁đến	-5.83702
▁(	-5.84321
?	-5.84629
-	-5.86361
▁làm	-5.86483
▁như	-5.87385
;	-5.92771
▁quan	-5.92787
▁chúng	-5.9282
▁theo	-5.95203
▁từ	-5.95784
▁đầu	-5.95979
▁việc	-5.96993
▁sự	-5.98256
n	-6.00706
▁lại	-6.01808
▁tại	-6.02077
▁anh	-6.0558
▁số	-6.06396
▁hiện	-6.08143
▁-	-6.08858
▁động	-6.09095
▁hợp	-6.10497
▁thành	-6.11408
▁thực	-6.13547
▁nước	-6.14843
▁nói	-6.15245
▁nhà	-6.15677
▁quy	-6.16056
▁hành	-6.16287
▁bị	-6.16813
▁cơ	-6.1714
▁dụng	-6.1766
▁điều	-6.18942
▁ngày	-6.19045
▁	-6.1925
▁nó	-6.21378
▁mà	-6.21545
▁chính	-6.2211
▁trên	-6.22124
y	-6.22587
▁hoặc	-6.22894
i	-6.24002
▁đi	-6.27185
▁lý	-6.27961
m	-6.3019
▁khác	-6.30296
▁nhân	-6.30869
:	-6.31117
t	-6.31313
▁chỉ	-6.31698
▁con	-6.33517
s	-6.33956
▁gì	-6.34135
▁Tôi	-6.35025
▁hàng	-6.36269
▁thế	-6.3742
▁sau	-6.38122
▁ông	-6.3835
▁họ	-6.40092
▁hơn	-6.41174
▁cô	-6.41679
▁cũng	-6.41832
▁chức	-6.42126
o	-6.42932
▁cả	-6.45441
▁nhận	-6.45536
ng	-6.46027
▁mình	-6.46313
▁đang	-6.46465
▁tư	-6.47547
▁biết	-6.4767
▁học	-6.48313
▁đồng	-6.48629
▁thì	-6.48918
▁thời	-6.50054
▁Điều	-6.50208
▁gia	-6.51261
▁tháng	-6.51283
▁thấy	-6.52157
u	-6.52941
▁trình	-6.53527
▁vụ	-6.53649
▁cấp	-6.54422
▁thông	-6.54519
▁cách	-6.55226
▁sản	-6.5546
▁đối	-6.57143
▁nhất	-6.57443
▁rằng	-6.58275
▁sử	-6.58592
▁bản	-6.58689
▁trường	-6.60081
▁bảo	-6.60486
▁đây	-6.60538
▁nào	-6.61569
▁phát	-6.61609
▁pháp	-6.6259
▁nhưng	-6.62801
▁nhiều	-6.63462
▁nghiệp	-6.64531
a	-6.64574
▁xuất	-6.67051
▁bằng	-6.6896
▁ấy	-6.69221
▁tin	-6.72214
▁1	-6.72235
▁quyền	-6.72937
▁vì	-6.73749
▁trước	-6.75868
▁bộ	-6.76718
▁còn	-6.7682
▁tổ	-6.77469
▁hình	-6.77567
▁giá	-6.77952
c	-6.78827
▁tế	-6.78904
▁lên	-6.79191
▁'	-6.79219
▁do	-6.79472
▁cái	-6.80218
▁kết	-6.8061
▁tự	-6.813
▁cần	-6.82442
▁muốn	-6.82612
▁viên	-6.83134
▁b	-6.85423
▁tài	-6.86319
▁kinh	-6.87107
▁doanh	-6.8843
▁qua	-6.8891
...	-6.8942
▁thứ	-6.89608
▁hai	-6.90324
▁đề	-6.90758
▁cùng	-6.90946
▁Bộ	-6.91881
▁tiếp	-6.9216
▁dân	-6.92274
▁rồi	-6.92403
▁hội	-6.92995
▁Anh	-6.93458
▁liên	-6.93761
▁sao	-6.94209
p	-6.94482
▁nên	-6.9461
▁hoạt	-6.95104
▁sinh	-6.96273
▁rất	-6.96904
▁bao	-6.97521
▁quyết	-6.97957
▁phần	-6.98003
▁lượng	-6.98373
▁tính	-6.98855
▁B	-6.98921
▁quản	-6.98957
▁án	-6.99009
▁báo	-6.993
▁thường	-6.99904
▁giờ	-7.00217
▁vi	-7.00222
▁em	-7.0048
▁nghĩ	-7.00923
▁vị	-7.00983
▁độ	-7.01069
▁nhiệm	-7.01141
▁năng	-7.01492
▁S	-7.01565
▁cuộc	-7.02569
▁chứng	-7.02908
▁C	-7.03041
▁tạo	-7.03068
▁dự	-7.03097
e	-7.03637
▁lập	-7.03766
▁toàn	-7.0404
▁sở	-7.04076
▁điểm	-7.04082
▁đổi	-7.04487
▁nếu	-7.04616
▁trở	-7.04773
/	-7.05767
▁ý	-7.06536
▁quá	-7.06695
g	-7.06889
▁dịch	-7.07027
▁trị	-7.0704
▁vậy	-7.07206
▁tiền	-7.07696
▁cầu	-7.07806
!	-7.08349
▁chủ	-7.08971
▁mới	-7.09297
▁hay	-7.09644
▁ngoài	-7.09875
▁quốc	-7.09878
▁kiểm	-7.10071
▁thu	-7.10735
▁:	-7.10769
▁phương	-7.10877
▁giải	-7.11168
▁gian	-7.11307
▁a	-7.11795
▁tới	-7.11896
▁giới	-7.12606
▁vật	-7.12619
▁mặt	-7.1277
▁phòng	-7.13201
▁luật	-7.13518
▁T	-7.1371
▁chuyện	-7.13721
▁tác	-7.13894
▁chất	-7.13926
▁bắt	-7.13968
▁chuyển	-7.14355
▁hệ	-7.15205
▁2	-7.15466
▁hạn	-7.15891
▁thống	-7.15892
▁thức	-7.1608
▁loại	-7.16965
▁tra	-7.17167
▁cảm	-7.17742
▁Và	-7.18147
▁triển	-7.18227
▁thuộc	-7.18798
▁liệu	-7.18972
▁ban	-7.19423
▁Các	-7.19461
▁lực	-7.19774
h	-7.20605
▁A	-7.20996
▁chế	-7.21213
▁cao	-7.21334
▁thiết	-7.21382
▁đại	-7.21499
▁lớn	-7.21634
▁đường	-7.2215
▁c	-7.22434
▁tìm	-7.2248
▁quả	-7.22589
▁dựng	-7.228
▁hiệu	-7.2324
▁đơn	-7.23364
▁bên	-7.24079
▁yêu	-7.24944
▁khoản	-7.24972
▁điện	-7.25285
▁sách	-7.25774
▁giao	-7.26074
▁đất	-7.26374
▁ký	-7.26403
▁Nam	-7.26465
▁tiêu	-7.26895
▁bởi	-7.27985
▁địa	-7.28098
▁lần	-7.28429
▁cậu	-7.28436
▁khu	-7.28905
▁xác	-7.28938
▁Nếu	-7.29046
▁văn	-7.29288
▁sống	-7.29473
▁thay	-7.3026
▁nhiên	-7.30731
▁máy	-7.30789
▁cá	-7.30807
▁trung	-7.30809
▁chi	-7.30864
▁phẩm	-7.30957
▁mọi	-7.31534
C	-7.31544
▁toán	-7.31564
▁tay	-7.31735
▁nữa	-7.31814
▁kế	-7.32444
▁Chúng	-7.32743
▁tập	-7.33578
▁tên	-7.33671
▁hóa	-7.34313
▁nơi	-7.35042
▁phạm	-7.35294
▁Trong	-7.35373
nh	-7.35844
▁nhau	-7.36393
▁tâm	-7.36433
▁phủ	-7.36581
▁nhập	-7.36673
▁19	-7.36851
▁s	-7.3734
▁nhìn	-7.37345
▁Không	-7.37351
▁vẫn	-7.37397
▁xây	-7.37445
▁bà	-7.37825
▁tình	-7.38122
▁tiên	-7.3827
▁bất	-7.38878
▁Nhưng	-7.38887
▁3	-7.38901
▁trọng	-7.38982
▁phí	-7.39067
▁dẫn	-7.39119
T	-7.39739
▁gọi	-7.40226
▁1.	-7.4037
▁Có	-7.40381
▁phép	-7.40538
▁chưa	-7.40977
▁2.	-7.41218
▁cứ	-7.41751
▁ứng	-7.41927
▁Một	-7.42232
▁bệnh	-7.4233
▁phân	-7.42538
▁giúp	-7.42821
▁thích	-7.42843
▁tốt	-7.4305
▁sát	-7.43215
▁thị	-7.44451
▁cứu	-7.44652
▁vực	-7.4542
I	-7.45556
▁cáo	-7.45772
▁tiếng	-7.45834
▁gồm	-7.46035
b	-7.4733
▁Việt	-7.47402
▁hoàn	-7.47432
▁xem	-7.47473
▁ăn	-7.47502
▁dùng	-7.47615
r	-7.48005
▁vấn	-7.48013
▁tất	-7.48256
N	-7.48349
▁thuế	-7.48783
▁tục	-7.49326
d	-7.49682
▁hoạch	-7.50101
▁thật	-7.5035
▁kỳ	-7.50947
▁chiến	-7.51142
▁trưởng	-7.51164
A	-7.51333
▁ty	-7.51417
▁nghĩa	-7.51499
▁bán	-7.52664
▁sơ	-7.52709
▁khai	-7.52833
▁an	-7.53052
▁ai	-7.53531
▁thuật	-7.53595
▁bố	-7.5372
▁đưa	-7.53793
▁hướng	-7.53883
▁5	-7.54361
▁thẩm	-7.54393
▁cố	-7.54477
▁khẩu	-7.54649
▁biệt	-7.54975
ch	-7.55015
▁đánh	-7.55244
▁từng	-7.554
▁đủ	-7.55694
▁mục	-7.55866
▁D	-7.57153
▁M	-7.57227
▁thi	-7.57788
▁kiện	-7.57877
▁bỏ	-7.58184
▁hỏi	-7.58286
▁trợ	-7.58675
▁thương	-7.58935
▁trả	-7.59733
▁hết	-7.59793
▁lời	-7.59816
l	-7.60115
▁ảnh	-7.60143
▁trách	-7.6023
▁\'	-7.60266
▁giáo	-7.60447
▁Chính	-7.60462
▁mức	-7.60486
▁giữa	-7.60674
▁xử	-7.60701
▁lúc	-7.60951
S	-7.60956
▁tham	-7.6123
▁L	-7.61273
▁xe	-7.61413
▁kể	-7.61591
▁thanh	-7.61628
▁xã	-7.61766
▁nguyên	-7.61886
▁Nó	-7.61889
▁đâu	-7.61904
▁thủ	-7.63214
▁trí	-7.635
▁phía	-7.63906
▁d	-7.63949
▁đều	-7.64313
▁biến	-7.6442
▁đúng	-7.64658
le	-7.64839
▁vệ	-7.64972
▁sĩ	-7.64987
ra	-7.64991
▁hồ	-7.65329
▁dưới	-7.65348
▁tương	-7.65491
▁Cô	-7.65851
▁đặc	-7.66201
▁thuốc	-7.66331
▁nội	-7.66369
▁tăng	-7.66519
▁m	-7.6655
▁10	-7.68535
▁câu	-7.68614
▁phụ	-7.68647
▁n	-7.68833
▁4	-7.68937
▁vốn	-7.69358
▁H	-7.6961
▁Quốc	-7.6963
▁sáng	-7.70087
▁nghệ	-7.70225
▁phục	-7.70567
▁chọn	-7.70632
▁nhỏ	-7.70906
re	-7.70949
▁Nhà	-7.71765
▁đặt	-7.71804
▁G	-7.71855
▁phố	-7.71896
▁nghị	-7.71939
▁Khi	-7.72044
▁I	-7.72534
▁Trung	-7.72862
▁g	-7.7314
▁khỏi	-7.73201
k	-7.73335
▁cổ	-7.73559
la	-7.73591
▁tiến	-7.73595
▁ngay	-7.73956
M	-7.74062
▁ba	-7.74117
▁r	-7.74263
▁lệ	-7.74588
"	-7.74598
▁nghe	-7.74848
▁thân	-7.74934
▁Bạn	-7.75238
▁Ông	-7.75269
▁đảm	-7.75494
▁K	-7.75511
▁tượng	-7.75556
in	-7.7567
▁quân	-7.75941
▁diện	-7.76028
▁kiến	-7.76194
▁Thông	-7.76421
▁6	-7.76462
▁hoá	-7.76547
P	-7.76853
▁bình	-7.77
er	-7.77058
▁3.	-7.77204
▁mua	-7.77378
▁cửa	-7.77555
▁Công	-7.77984
▁đạo	-7.78433
▁tử	-7.78552
▁khoảng	-7.78603
▁cung	-7.78832
▁mất	-7.78962
▁đăng	-7.79116
▁gần	-7.79136
on	-7.79144
▁tranh	-7.79338
▁lấy	-7.7979
).	-7.80122
▁cuối	-7.80552
▁trực	-7.80723
▁N	-7.80844
▁chiếc	-7.80887
▁chết	-7.8095
en	-7.80983
▁vận	-7.81129
▁truyền	-7.81216
▁dung	-7.81292
▁mẹ	-7.81584
▁xuống	-7.8217
▁diễn	-7.82189
▁áp	-7.82189
▁hiểu	-7.82477
▁giữ	-7.82969
▁giống	-7.8306
▁hãy	-7.83356
▁gặp	-7.83477
▁gây	-7.83584
4	-7.83629
▁chuẩn	-7.8402
▁nghiệm	-7.84549
2	-7.84645
▁V	-7.84971
▁P	-7.85197
▁tối	-7.8526
▁tích	-7.85281
th	-7.85861
▁tỉnh	-7.85878
▁l	-7.86027
▁nguồn	-7.86233
▁cảnh	-7.86441
▁mở	-7.86668
▁E	-7.8686
▁Nghị	-7.86895
▁đ	-7.86979
▁mỗi	-7.87125
▁đấy	-7.87443
al	-7.87786
▁tưởng	-7.88014
▁trang	-7.8815
▁chuyên	-7.88381
▁hắn	-7.88565
▁giảm	-7.8867
▁mạnh	-7.88731
▁khả	-7.88841
▁7	-7.88871
▁trẻ	-7.89007
D	-7.89337
▁rõ	-7.89676
▁thêm	-7.89734
▁lợi	-7.90325
▁hiểm	-7.90563
▁vùng	-7.90659
▁chơi	-7.90681
▁nữ	-7.90784
▁y	-7.91044
▁bổ	-7.91157
▁danh	-7.9119
5	-7.9127
ro	-7.91362
▁lao	-7.91511
▁nay	-7.91539
▁F	-7.91701
▁tổng	-7.91713
▁chịu	-7.92385
ri	-7.92436
▁Đ	-7.92442
3	-7.93148
▁giấy	-7.93206
▁hữu	-7.93212
▁vài	-7.93467
B	-7.93749
▁dù	-7.93793
▁sức	-7.9383
▁bài	-7.93841
▁đồ	-7.94216
▁thôi	-7.94395
an	-7.94407
el	-7.94456
▁bay	-7.94484
%	-7.94496
▁vô	-7.94528
▁mô	-7.9507
▁kỹ	-7.951
▁chẳng	-7.95198
▁mắt	-7.95889
▁Những	-7.96263
▁ngân	-7.96431
▁ít	-7.96536
▁Người	-7.96618
O	-7.96687
▁mang	-7.96806
▁O	-7.97008
▁ghi	-7.97202
▁minh	-7.97233
▁tàu	-7.97291
▁chương	-7.97712
▁khí	-7.97728
▁dài	-7.97782
▁khó	-7.97903
▁ngành	-7.97962
▁bàn	-7.98211
us	-7.98392
▁12	-7.98442
▁nhóm	-7.98509
▁xét	-7.98704
▁dục	-7.99289
▁khách	-7.99378
▁lưu	-7.99421
6	-7.99573
▁khoa	-7.99611
▁đình	-7.99722
▁Sau	-7.99876
▁nghiên	-7.99884
▁đội	-8.0049
▁đấu	-8.01026
▁chí	-8.01066
▁Ta	-8.01221
1	-8.01791
ta	-8.01832
x	-8.02738
▁xảy	-8.03029
▁thư	-8.03312
▁khiến	-8.0349
▁cụ	-8.03544
▁8	-8.03622
▁viết	-8.0421
▁Ba	-8.04218
▁h	-8.04356
▁cây	-8.04645
▁v	-8.04945
▁gửi	-8.05628
na	-8.05746
▁hưởng	-8.05892
▁yếu	-8.05952
▁hộ	-8.06129
▁Em	-8.06935
▁môi	-8.07073
▁trò	-8.07279
▁chấp	-8.07452
▁nh	-8.08236
L	-8.08831
▁tuổi	-8.0921
lo	-8.0922
▁tinh	-8.09849
▁tiết	-8.09918
▁biểu	-8.10095
▁giám	-8.10343
▁đô	-8.10773
ma	-8.11011
▁chung	-8.11023
▁luôn	-8.11082
▁9	-8.11644
▁di	-8.11747
▁đáng	-8.11821
▁lịch	-8.11954
▁chứ	-8.12242
▁R	-8.12339
▁ch	-8.12341
▁),	-8.12406
or	-8.13412
▁Mỹ	-8.1352
▁Đó	-8.13617
▁chống	-8.13667
▁bé	-8.13961
▁biển	-8.14025
▁phản	-8.14359
▁duy	-8.1446
▁đóng	-8.1459
▁thần	-8.1463
▁đời	-8.14707
▁đầy	-8.15207
▁Luật	-8.153
▁phù	-8.15302
▁vừa	-8.15304
H	-8.15338
▁so	-8.15345
▁nộp	-8.15871
▁chắc	-8.1619
▁trái	-8.1668
▁Con	-8.16718
▁màu	-8.1679
▁quay	-8.17504
z	-8.17601
▁nhớ	-8.17688
▁lẽ	-8.18159
▁cộng	-8.18233
▁chú	-8.18556
▁tín	-8.18569
▁sung	-8.18845
▁Ch	-8.18847
▁Hội	-8.18965
▁cập	-8.19217
▁nằm	-8.19354
▁lãnh	-8.19487
▁hồi	-8.19835
E	-8.20322
▁hỗ	-8.20645
▁phá	-8.20894
▁lo	-8.20982
▁Họ	-8.21339
▁phim	-8.21598
▁viện	-8.2161
▁kẻ	-8.21869
▁đứng	-8.21925
▁triệu	-8.22049
▁mạng	-8.22202
▁âm	-8.22478
▁thuận	-8.22864
▁giả	-8.22993
▁11	-8.22997
8	-8.23258
▁Đây	-8.23262
▁x	-8.23482
▁nhanh	-8.2376
▁4.	-8.23952
▁gái	-8.23991
▁cư	-8.24048
▁vẻ	-8.24201
▁to	-8.24202
▁da	-8.24238
▁dụ	-8.24257
▁Trường	-8.24397
▁Hãy	-8.2507
7	-8.25208
▁xa	-8.25453
▁X	-8.25514
▁Thủ	-8.25896
▁nổi	-8.26091
f	-8.26123
▁Ma	-8.26408
9	-8.26468
▁phê	-8.26576
▁ngoại	-8.26867
▁18	-8.26917
▁15	-8.26926
▁chỗ	-8.27025
▁thử	-8.27615
▁t	-8.27751
▁chân	-8.27826
'	-8.2811
▁đoạn	-8.28201
▁hải	-8.28262
▁Vậy	-8.28304
U	-8.28313
▁rộng	-8.28475
▁soát	-8.28838
▁đa	-8.29347
▁mẫu	-8.29493
li	-8.29974
es	-8.30062
▁bước	-8.30219
▁độc	-8.30586
▁trừ	-8.30635
▁tố	-8.30639
▁trì	-8.30732
▁cha	-8.3098
▁luận	-8.31185
▁dễ	-8.31243
▁phối	-8.3128
▁riêng	-8.31693
▁Tổng	-8.3194
▁nhạc	-8.31992
▁Ban	-8.32199
v	-8.32465
▁sư	-8.32693
▁đạt	-8.32915
á	-8.33063
▁thuê	-8.33095
ạ	-8.33169
▁căn	-8.33275
▁th	-8.33307
▁in	-8.33454
▁sửa	-8.33474
▁ng	-8.33598
▁suy	-8.33608
ư	-8.34094
▁Đối	-8.34362
▁lâu	-8.34802
▁bác	-8.34911
▁đoàn	-8.35142
▁dạng	-8.35353
▁Do	-8.35413
to	-8.35515
▁nghề	-8.36051
▁Chủ	-8.36165
▁lòng	-8.3622
▁20	-8.36244
ed	-8.36363
ne	-8.36485
▁giết	-8.36937
ar	-8.37042
ên	-8.37083
▁hại	-8.3733
▁mặc	-8.38109
▁Tổ	-8.38143
▁tr	-8.38154
▁đàn	-8.38159
▁Tuy	-8.3817
▁trạng	-8.38248
▁dữ	-8.3833
▁Tài	-8.38433
▁chạy	-8.38654
▁đông	-8.38699
▁Việc	-8.38817
▁tiện	-8.38919
▁La	-8.39205
V	-8.39233
ol	-8.39275
G	-8.39352
▁đôi	-8.39623
▁lỗi	-8.39655
▁dấu	-8.39932
▁U	-8.39954
▁Năm	-8.40162
▁duyệt	-8.4017
▁quanh	-8.40222
▁kỷ	-8.40232
▁xin	-8.40249
te	-8.40563
▁thuyết	-8.4063
▁mối	-8.40888
▁Đại	-8.40981
▁tuần	-8.41387
▁Giấy	-8.41582
R	-8.41897
▁trai	-8.41932
▁thúc	-8.41936
il	-8.42086
▁Th	-8.42198
▁đốc	-8.42505
▁tải	-8.42758
▁Vì	-8.4299
▁Hoa	-8.43607
▁à	-8.43657
▁chỉnh	-8.44059
ce	-8.44083
▁sang	-8.44123
▁Cơ	-8.44194
▁thú	-8.44571
▁ngữ	-8.44694
▁lĩnh	-8.44791
▁đáp	-8.44802
▁bóng	-8.44954
▁chia	-8.45142
▁Cậu	-8.45154
▁tịch	-8.45293
▁kiếm	-8.45376
▁dành	-8.45596
▁vọng	-8.45675
▁ca	-8.45906
▁vai	-8.46067
▁nông	-8.46088
▁loài	-8.4624
▁Vào	-8.4625
▁tỷ	-8.46381
▁kia	-8.46462
▁nguy	-8.46619
▁cực	-8.46621
▁đau	-8.46674
▁Chỉ	-8.46728
▁càng	-8.46857
ả	-8.46909
▁cười	-8.47182
▁cạnh	-8.47199
▁hạ	-8.47314
▁thầu	-8.47479
▁đá	-8.47616
▁cấu	-8.47767
▁chút	-8.47853
▁mại	-8.47927
▁vòng	-8.48027
▁thác	-8.48197
▁đào	-8.48793
▁e	-8.48991
▁phiếu	-8.49038
é	-8.49098
▁cử	-8.49149
CP	-8.49252
▁giác	-8.49562
ô	-8.49714
F	-8.50069
▁lạc	-8.50129
▁ma	-8.50422
▁W	-8.50957
▁tuyệt	-8.51229
▁sợ	-8.51315
▁vũ	-8.51458
▁Ủ	-8.51539
▁Y	-8.5199
K	-8.52347
ia	-8.52788
ur	-8.52959
▁ích	-8.53508
st	-8.54011
▁ngồi	-8.54115
ck	-8.54624
▁^	-8.54646
▁tội	-8.54887
▁kèm	-8.55479
▁dầu	-8.55852
à	-8.55868
▁tướng	-8.55888
▁Bà	-8.56025
man	-8.56061
▁Kỳ	-8.5613
▁ngủ	-8.56362
▁biên	-8.56533
▁sai	-8.56761
▁kích	-8.56762
▁chữa	-8.56763
▁gắng	-8.56858
ơ	-8.56909
▁phạt	-8.57328
▁trời	-8.5739
▁the	-8.57444
▁thoại	-8.57808
▁buộc	-8.57825
ka	-8.58012
▁bức	-8.58055
▁chị	-8.58059
▁tệ	-8.58127
▁lá	-8.58179
▁mật	-8.58351
▁khăn	-8.5885
▁vui	-8.58902
▁30	-8.59044
▁Ngân	-8.59132
▁phút	-8.59163
▁kéo	-8.59369
▁kê	-8.59642
▁thiên	-8.59658
▁áo	-8.59781
da	-8.5984
▁tồn	-8.60042
▁tờ	-8.60364
▁tái	-8.60456
▁ánh	-8.60653
▁xúc	-8.60663
▁trận	-8.60856
▁nền	-8.6117
▁cháu	-8.61422
▁đẹp	-8.61466
▁lớp	-8.61802
▁đứa	-8.6189
▁biện	-8.6194
▁Lan	-8.62154
▁of	-8.62157
▁uống	-8.62323
▁vay	-8.62794
▁ô	-8.6302
▁sẵn	-8.63091
▁cải	-8.6318
▁Tr	-8.63183
▁p	-8.63225
▁ngôi	-8.63249
▁tức	-8.63255
▁suất	-8.63284
▁la	-8.63295
▁Để	-8.63375
▁lệnh	-8.63592
▁đảo	-8.6372
▁tuyến	-8.63941
▁mấy	-8.64301
ad	-8.64399
is	-8.64827
▁ương	-8.64923
de	-8.65097
▁Quyết	-8.65257
▁nợ	-8.65366
▁bọn	-8.65392
▁mày	-8.65779
▁phi	-8.66228
▁lựa	-8.66238
▁tầng	-8.66421
▁Chi	-8.66555
et	-8.6684
▁tớ	-8.66974
▁đích	-8.6699
▁nuôi	-8.66999
▁tạm	-8.66999
son	-8.67191
▁sâu	-8.67378
ó	-8.67459
▁hôn	-8.67482
▁hơi	-8.6755
▁quỹ	-8.67589
▁tả	-8.67622
▁Quy	-8.67755
▁nhiễm	-8.67896
▁Thế	-8.68105
▁Bản	-8.68178
▁hôm	-8.68266
▁lục	-8.68411
▁đêm	-8.68549
un	-8.68687
▁tấn	-8.687
▁buổi	-8.6891
▁phổ	-8.68979
▁đọc	-8.69431
▁xếp	-8.69531
▁ơn	-8.69545
▁cánh	-8.69628
▁Khoản	-8.69717
▁thái	-8.69764
▁chứa	-8.69962
▁thất	-8.70001
▁máu	-8.70027
▁ước	-8.7004
▁hậu	-8.70086
▁5.	-8.70165
▁lắm	-8.70239
▁huy	-8.70391
▁nạn	-8.70411
▁chắn	-8.7048
▁du	-8.70922
▁f	-8.71244
▁thiện	-8.71267
ti	-8.71381
ic	-8.71438
▁)	-8.7146
▁rừng	-8.71589
▁Pháp	-8.71706
▁thủy	-8.71712
▁thấp	-8.71808
ine	-8.72314
đ	-8.72416
▁đoán	-8.72537
ê	-8.72566
▁coi	-8.7317
▁Re	-8.73242
▁thẳng	-8.73613
▁Đức	-8.73625
▁lộ	-8.73713
▁gốc	-8.73751
▁tắc	-8.73926
▁nam	-8.74233
se	-8.74436
NĐ	-8.74607
▁tai	-8.74833
▁vượt	-8.74933
▁chữ	-8.75082
ton	-8.75144
▁châu	-8.7523
ệ	-8.75307
id	-8.75326
▁trụ	-8.75468
▁ưu	-8.7556
▁Tây	-8.75612
ba	-8.75718
▁+	-8.75745
▁ngăn	-8.75778
--	-8.759
ga	-8.75978
▁hầu	-8.75982
sa	-8.76028
▁môn	-8.7604
ter	-8.76068
ke	-8.76111
▁Mi	-8.76201
▁khá	-8.76319
▁hát	-8.76345
▁nhằm	-8.76351
▁mùa	-8.76871
▁Ro	-8.76916
vi	-8.77174
▁xuyên	-8.77382
▁tiểu	-8.77523
▁hạt	-8.77606
▁The	-8.77826
▁01	-8.77951
▁ràng	-8.78039
w	-8.78156
▁kiểu	-8.78479
▁tránh	-8.78526
▁Theo	-8.78733
▁góp	-8.78887
▁thiếu	-8.78979
▁cuốn	-8.79319
▁17	-8.7937
000	-8.79375
▁sắc	-8.79604
▁nối	-8.79666
▁Căn	-8.79828
▁Ra	-8.79888
▁sắp	-8.79986
▁16	-8.8
▁Liên	-8.80015
▁Sa	-8.80038
▁khoán	-8.80475
▁sân	-8.80679
▁Cục	-8.80835
▁14	-8.80933
▁trông	-8.81025
▁bây	-8.81112
▁phong	-8.81151
▁dưỡng	-8.81245
▁hoa	-8.81329
ss	-8.81366
▁miễn	-8.81436
at	-8.81738
ặ	-8.8198
NG	-8.82104
▁chó	-8.82139
▁bầu	-8.8217
ie	-8.82355
▁tóc	-8.82538
ul	-8.82735
co	-8.83163
▁Ho	-8.83237
▁thưởng	-8.83493
▁Chúa	-8.8365
▁dòng	-8.83706
▁tuyên	-8.83779
▁thảo	-8.83876
ing	-8.83928
▁suốt	-8.84065
▁giản	-8.84095
▁13	-8.84104
▁quý	-8.84309
do	-8.8459
▁de	-8.84779
▁khám	-8.84813
as	-8.84826
▁Phi	-8.84887
▁New	-8.85215
▁An	-8.8553
▁giai	-8.858
▁dựa	-8.85927
▁ổn	-8.86339
▁cục	-8.86565
▁cân	-8.86659
▁thụ	-8.86683
▁nâng	-8.86816
▁nhiệt	-8.86915
í	-8.87278
▁k	-8.87281
▁rời	-8.87412
êu	-8.87514
▁nghiêm	-8.8762
va	-8.87648
▁sàng	-8.87875
▁Mo	-8.87987
▁đẩy	-8.88014
▁Al	-8.88058
▁De	-8.88313
▁thắng	-8.88317
▁mã	-8.8838
▁Li	-8.88583
▁Thực	-8.8862
▁gi	-8.88672
▁sổ	-8.88711
▁Bo	-8.8883
ca	-8.88887
▁Vi	-8.88911
▁ngươi	-8.88984
▁nghi	-8.89006
▁băng	-8.89069
▁chàng	-8.89246
▁Tại	-8.89368
wa	-8.89473
▁/	-8.89623
▁Được	-8.89653
▁quần	-8.89901
os	-8.90097
▁Ở	-8.90142
▁khắc	-8.90178
▁khối	-8.90215
▁Na	-8.90293
▁xung	-8.9035
ho	-8.90542
go	-8.90809
▁nàng	-8.90832
▁hạng	-8.90919
▁dạy	-8.91053
ì	-8.91159
▁Mar	-8.91214
gi	-8.91386
▁hòa	-8.91388
▁bào	-8.91424
▁Truy	-8.9144
▁cắt	-8.91577
▁thải	-8.91663
it	-8.91771
▁Nhật	-8.92003
▁kho	-8.92097
▁thậm	-8.92238
▁Bắc	-8.92371
▁ro	-8.92491
▁Sự	-8.92638
ir	-8.92658
▁chiếu	-8.92674
▁Se	-8.92725
▁đừng	-8.928
▁tộc	-8.92861
▁lai	-8.92935
▁Ca	-8.93054
▁nhu	-8.9306
▁luyện	-8.9308
▁Ng	-8.93135
▁Văn	-8.93336
▁khởi	-8.93431
▁thập	-8.93432
▁đột	-8.93498
▁thoát	-8.93735
▁trải	-8.93906
▁phiên	-8.94155
▁bí	-8.942
me	-8.94483
di	-8.9468
▁Từ	-8.94759
▁ngôn	-8.94765
ya	-8.94937
ông	-8.95079
▁đen	-8.95121
▁vợ	-8.95121
▁lương	-8.95291
▁ngài	-8.95387
▁Cho	-8.95441
▁nặng	-8.95663
▁phóng	-8.95711
ki	-8.95771
▁nghỉ	-8.95924
▁hoàng	-8.96029
▁Le	-8.96066
ộ	-8.9611
▁Đừng	-8.9653
▁niên	-8.96579
▁Tất	-8.96834
▁dây	-8.9707
Đ	-8.97101
▁dõi	-8.972
▁Ngày	-8.97301
▁cũ	-8.97609
▁Ka	-8.97727
▁đo	-8.97915
▁qu	-8.97982
ry	-8.98148
▁Cha	-8.98165
no	-8.98187
▁chiều	-8.98337
ph	-8.98406
▁Hải	-8.98567
▁ví	-8.98787
▁trao	-8.99145
▁i	-8.9933
▁sông	-8.99621
▁Su	-8.99795
▁bang	-8.99856
TT	-9.0002
▁bốn	-9.00339
▁Ý	-9.00377
ớ	-9.00509
▁Co	-9.00574
▁Á	-9.00677
▁nhẹ	-9.00736
▁w	-9.00741
▁chăm	-9.00882
▁trữ	-9.00943
▁tạp	-9.0109
▁Di	-9.01162
▁ngang	-9.01283
▁chờ	-9.01457
▁nhắc	-9.01655
▁ngắn	-9.02231
▁vàng	-9.02328
ly	-9.02538
▁Ph	-9.02552
▁quen	-9.02646
▁đổ	-9.02704
am	-9.02771
▁tim	-9.02815
▁Me	-9.02885
▁bồi	-9.02894
ết	-9.03003
▁lạ	-9.03012
▁Sở	-9.03038
▁25	-9.03062
▁Pa	-9.03289
▁mắc	-9.03362
▁tôn	-9.03441
▁tốc	-9.03471
▁Sao	-9.03565
▁Ha	-9.03591
▁hoà	-9.03942
ò	-9.03988
ất	-9.04027
è	-9.0408
▁lắng	-9.04085
▁phận	-9.04096
▁tao	-9.04378
ni	-9.04411
ú	-9.04467
▁binh	-9.04532
▁In	-9.04687
▁cháy	-9.04689
▁Ai	-9.05124
ến	-9.05407
pe	-9.0546
▁trắng	-9.05578
▁trúc	-9.05757
▁Si	-9.05808
▁xấu	-9.05947
▁gã	-9.06208
▁đám	-9.06335
▁họp	-9.06388
▁and	-9.06462
▁nhánh	-9.06709
▁Phụ	-9.068
▁bánh	-9.06852
▁chuyến	-9.06926
ent	-9.06968
ổ	-9.07114
▁lễ	-9.07142
▁phán	-9.07147
▁6.	-9.0723
▁chiếm	-9.07572
▁vết	-9.07584
▁Làm	-9.07593
ân	-9.07646
▁Ja	-9.07659
▁thỏa	-9.07787
▁đợi	-9.07832
▁St	-9.07895
▁nhật	-9.0803
▁bại	-9.08113
▁rối	-9.08125
▁nhé	-9.08195
▁gắn	-9.08294
▁xanh	-9.08311
▁kính	-9.08316
▁Ví	-9.08509
▁mong	-9.08512
▁thăm	-9.08518
hi	-9.0862
▁cận	-9.08725
▁trú	-9.09086
sh	-9.09221
▁khỏe	-9.09256
);	-9.09307
▁sớm	-9.0937
ền	-9.09511
▁thừa	-9.09855
▁trồng	-9.09881
▁ngờ	-9.1008
▁24	-9.10094
▁não	-9.10163
▁thí	-9.10263
bo	-9.10333
▁Âu	-9.10371
0.000	-9.10401
▁lược	-9.1065
▁đỏ	-9.10663
▁ninh	-9.10925
▁thằng	-9.11105
0	-9.11151
▁bắc	-9.11302
ợ	-9.11336
▁cường	-9.11395
um	-9.11402
▁chậm	-9.11628
ci	-9.1172
▁trùng	-9.11786
▁lạnh	-9.11827
mo	-9.12
▁khủng	-9.12051
▁Hai	-9.1224
▁J	-9.12331
▁sạch	-9.12373
▁nổ	-9.12626
▁mời	-9.12933
▁nêu	-9.13094
và	-9.13174
▁hút	-9.13302
▁nỗi	-9.13442
▁niệm	-9.13478
▁Kiểm	-9.13656
ow	-9.13917
▁lửa	-9.13921
▁Đông	-9.1412
ỉ	-9.14261
▁nửa	-9.14266
▁dừng	-9.1427
▁giọng	-9.14281
▁dần	-9.1471
▁món	-9.14811
▁rút	-9.14827
▁Ar	-9.14831
▁Độ	-9.14886
▁Hắn	-9.1517
▁Bảo	-9.15242
▁trăm	-9.15405
▁đương	-9.15544
ard	-9.15645
▁kh	-9.15654
▁kháng	-9.15671
▁bắn	-9.15815
▁tây	-9.15869
▁Jo	-9.15872
▁dậy	-9.16062
▁cảng	-9.16249
▁bảng	-9.16265
▁rượu	-9.1638
▁hủy	-9.16471
▁Đầu	-9.16487
▁mái	-9.16741
▁vời	-9.1681
▁cầm	-9.17001
▁hề	-9.17052
▁Phát	-9.17198
X	-9.17218
▁cơn	-9.17254
lin	-9.17319
▁Cái	-9.17323
ot	-9.17447
▁Thời	-9.17448
▁thiểu	-9.17546
▁miền	-9.17617
▁ủy	-9.17964
ủ	-9.18003
ọ	-9.18188
ru	-9.1826
▁thù	-9.18262
▁vua	-9.18337
za	-9.18412
▁chu	-9.18426
▁Hồ	-9.18571
▁So	-9.18875
▁Gi	-9.18934
▁tắt	-9.18965
▁tầm	-9.18996
▁Da	-9.19112
▁nhờ	-9.19115
▁sóc	-9.19135
▁xu	-9.1923
▁mười	-9.19305
▁chồng	-9.19306
▁thở	-9.19421
W	-9.1962
▁He	-9.19647
▁tù	-9.19977
▁dàng	-9.20097
▁súng	-9.20267
em	-9.20327
▁bày	-9.20641
nếu	-9.20672
▁Nội	-9.2093
▁u	-9.2106
▁núi	-9.2108
op	-9.21091
▁Mặc	-9.2124
ut	-9.21273
ăng	-9.21486
▁bạc	-9.21509
▁%	-9.21566
ẹ	-9.21577
▁Nh	-9.21627
▁nóng	-9.21907
Y	-9.22034
▁Tớ	-9.22059
▁II	-9.22066
▁đỡ	-9.22089
▁To	-9.22228
▁tỏ	-9.22426
bi	-9.22542
▁ngừng	-9.22547
ha	-9.22697
▁truy	-9.22722
▁0	-9.22772
▁mềm	-9.22789
▁ngược	-9.22875
ụ	-9.22945
▁huyện	-9.23038
▁2010	-9.23087
▁lâm	-9.23123
ỏ	-9.23125
̣	-9.23527
▁tấm	-9.23568
tt	-9.23602
pa	-9.23692
ây	-9.23714
▁Quản	-9.23786
lu	-9.2379
▁Xây	-9.23843
▁nắm	-9.23845
▁Po	-9.23913
ff	-9.23927
be	-9.23932
eo	-9.24028
▁Giờ	-9.24064
▁khắp	-9.24284
▁cà	-9.24321
▁Là	-9.24323
▁thao	-9.24336
▁chặt	-9.24396
▁Như	-9.24446
00	-9.24482
▁o	-9.24585
▁Giám	-9.24877
▁Với	-9.25015
▁miệng	-9.25026
▁khảo	-9.25176
▁2011	-9.25179
▁màn	-9.25245
▁Mẹ	-9.25246
▁khoẻ	-9.25337
ở	-9.25352
▁ph	-9.25368
▁khuyến	-9.2551
▁phúc	-9.25702
▁chóng	-9.25777
▁sóng	-9.25778
▁loạn	-9.25888
tr	-9.25956
▁linh	-9.26049
▁may	-9.26067
▁tận	-9.26122
▁2012	-9.26144
▁khích	-9.26154
▁chấm	-9.26193
▁Phải	-9.26272
▁thầy	-9.26601
▁đem	-9.26634
▁tuyển	-9.2674
▁hy	-9.27035
▁nhiêu	-9.27147
▁hi	-9.2716
▁quảng	-9.27303
ù	-9.27475
ian	-9.27954
▁quên	-9.28049
▁chối	-9.28105
▁tô	-9.28218
20	-9.28295
▁Kế	-9.28336
▁trấn	-9.2853
and	-9.28687
▁kim	-9.28759
▁buồn	-9.28807
̀	-9.2888
▁chặn	-9.29002
▁tu	-9.29149
▁hả	-9.29293
▁Giáo	-9.29457
▁22	-9.2948
▁2013	-9.29546
▁Be	-9.29552
▁Kh	-9.29662
▁mạch	-9.29755
▁thôn	-9.29756
▁thiệt	-9.29823
▁Ga	-9.30028
▁ga	-9.30376
▁21	-9.30487
▁giành	-9.30893
▁2014	-9.30982
▁kì	-9.31038
od	-9.31241
▁Thương	-9.3155
ster	-9.31575
▁Còn	-9.31698
án	-9.31702
â	-9.31707
▁Cộng	-9.31804
mi	-9.31901
1.	-9.32034
▁thận	-9.32044
▁thơ	-9.32065
ã	-9.32109
▁Ngoài	-9.32142
▁Lo	-9.32272
▁lái	-9.32286
2.	-9.32475
▁đài	-9.32479
ver	-9.32584
▁Thật	-9.32653
▁chào	-9.32655
▁TH	-9.32876
▁bè	-9.32909
shi	-9.32936
▁thịt	-9.33053
▁hấp	-9.33075
ko	-9.33076
ốc	-9.33125
10	-9.33209
ation	-9.33262
ts	-9.33422
▁ngựa	-9.33563
▁).	-9.33754
▁tổn	-9.33863
▁Số	-9.33962
▁Trước	-9.33975
land	-9.34031
▁tòa	-9.34054
▁bữa	-9.34061
▁Khu	-9.34144
▁50	-9.34184
▁sa	-9.34186
mon	-9.34189
▁Thành	-9.34192
▁tường	-9.34237
one	-9.34258
́	-9.34451
▁mươi	-9.34473
▁Chương	-9.34663
si	-9.34871
ờ	-9.34946
▁vẽ	-9.3504
▁Điểm	-9.35189
ự	-9.35293
▁dương	-9.35382
ần	-9.35475
▁Mục	-9.35488
▁sáu	-9.35558
ve	-9.3561
▁Thái	-9.35611
▁xong	-9.35632
▁2016	-9.3594
▁rơi	-9.35965
▁sắt	-9.36004
▁cam	-9.36075
ron	-9.36555
▁mi	-9.36687
▁Nga	-9.36815
................	-9.37013
wi	-9.37091
▁#	-9.37274
ate	-9.37305
▁100	-9.37308
▁hạnh	-9.37531
▁thuyền	-9.37838
▁khiển	-9.37889
▁thiệu	-9.37914
ran	-9.37944
ill	-9.37977
▁Uỷ	-9.37998
▁Danh	-9.38046
▁ấn	-9.3813
▁mơ	-9.38208
▁Go	-9.3822
ương	-9.38221
▁kịp	-9.38255
▁Mọi	-9.38502
▁sẻ	-9.3852
▁cán	-9.38592
▁thả	-9.3872
▁tách	-9.38759
▁Nha	-9.38785
▁Tư	-9.389
▁John	-9.39375
▁–	-9.39504
▁chảy	-9.39597
▁phó	-9.3967
▁ly	-9.39692
▁Rồi	-9.39789
▁trích	-9.39887
▁già	-9.40069
ế	-9.40261
▁ẩn	-9.40346
▁hô	-9.40376
▁ống	-9.40379
lan	-9.40379
▁Hà	-9.40411
▁Bố	-9.40493
▁Dự	-9.40689
▁túi	-9.40867
▁Bên	-9.40869
▁Tên	-9.40934
▁Ni	-9.4095
ị	-9.4101
▁ủng	-9.41085
▁dứt	-9.41298
▁=	-9.41339
▁Ju	-9.41369
▁xạ	-9.41601
▁7.	-9.41856
▁27	-9.42001
▁rủi	-9.42007
▁phức	-9.42174
▁đĩa	-9.42185
ắt	-9.4227
▁thưa	-9.42353
▁hẳn	-9.42393
mp	-9.42423
▁bật	-9.42461
▁ạ	-9.4253
▁trại	-9.42541
▁cấm	-9.42599
pp	-9.42601
▁co	-9.42614
▁Harry	-9.42648
▁No	-9.42683
▁Ri	-9.42902
ôn	-9.42988
ạc	-9.43171
▁dư	-9.43187
▁hộp	-9.43191
ấy	-9.43407
▁liền	-9.43468
▁can	-9.43476
▁bờ	-9.43495
▁viễn	-9.43537
▁căng	-9.43622
▁lẫn	-9.43708
▁bãi	-9.43896
ầm	-9.44042
200	-9.44051
▁li	-9.44086
om	-9.44137
▁lũ	-9.44295
▁huấn	-9.44424
▁lãi	-9.44435
ell	-9.44589
▁giận	-9.4471
per	-9.44848
▁Quỹ	-9.4495
▁khóa	-9.45028
ứ	-9.45248
11	-9.45271
▁23	-9.45426
ức	-9.45483
▁giây	-9.45574
▁khô	-9.45642
les	-9.46078
▁hài	-9.46081
▁2008	-9.46089
▁va	-9.46284
▁nhảy	-9.46317
ley	-9.46326
▁thang	-9.46387
▁mèo	-9.4642
▁góc	-9.46471
▁thẻ	-9.46608
▁yên	-9.46714
▁kịch	-9.46816
▁nguyện	-9.46926
▁ngạc	-9.47053
▁đuổi	-9.47111
ẻ	-9.47148
▁Du	-9.47178
▁thờ	-9.47206
▁lối	-9.47219
ina	-9.47414
ah	-9.476
▁lưới	-9.47726
ai	-9.47857
▁CH	-9.47859
▁Qu	-9.47945
▁mũi	-9.4795
▁thuỷ	-9.48286
▁lỗ	-9.48577
▁tuân	-9.4862
▁Hu	-9.48674
▁thai	-9.48814
▁Pe	-9.489
Á	-9.48971
NH	-9.48995
▁Ấn	-9.49198
▁khoá	-9.49249
▁&	-9.49263
ừng	-9.49334
ạn	-9.49389
▁khiếu	-9.49492
tin	-9.49535
▁loạt	-9.49603
▁Nói	-9.49617
▁tán	-9.49655
▁thổ	-9.49679
▁hiệp	-9.49686
chi	-9.49695
▁San	-9.49864
50	-9.49975
▁Bu	-9.4999
▁Xin	-9.50049
▁tĩnh	-9.50284
▁Hợp	-9.50369
▁chạm	-9.50498
▁2009	-9.50538
▁cứng	-9.50661
ll	-9.50662
▁Giải	-9.50667
ung	-9.50797
ỗ	-9.50893
ấn	-9.50916
▁Hiệp	-9.50993
▁hư	-9.51041
một	-9.51139
▁Tu	-9.51184
▁Báo	-9.51231
▁siêu	-9.51274
▁sót	-9.51274
▁nhượng	-9.51382
▁ghế	-9.51598
▁2015	-9.51673
▁28	-9.51679
su	-9.51935
▁chụp	-9.52033
▁Mặt	-9.52055
▁điên	-9.52077
j	-9.52175
".	-9.5218
▁lưng	-9.52229
▁Ngài	-9.52238
▁Ne	-9.52465
▁xứ	-9.52488
ét	-9.52516
ập	-9.52578
▁mai	-9.52587
ể	-9.52716
ers	-9.52925
▁lẻ	-9.53146
▁đức	-9.535
▁Te	-9.53502
▁nại	-9.53523
▁cú	-9.53528
▁tá	-9.5358
all	-9.5359
▁lầm	-9.53633
▁đòi	-9.53747
▁York	-9.53927
▁trốn	-9.53983
▁khổ	-9.54035
▁Chiến	-9.54109
▁Je	-9.54115
▁chủng	-9.54402
ối	-9.54524
30	-9.5459
niềm	-9.54665
io	-9.54953
▁Dù	-9.55069
▁hứng	-9.55086
▁Z	-9.55098
ấu	-9.55172
▁xương	-9.55207
▁tri	-9.55305
ố	-9.55413
ide	-9.55443
▁nỗ	-9.55458
▁bạo	-9.55514
ục	-9.55528
▁lí	-9.55602
▁lặng	-9.55691
▁che	-9.55696
▁video	-9.55718
sau	-9.55781
ĩ	-9.55865
▁tước	-9.56238
art	-9.56412
▁26	-9.56518
▁2007	-9.56647
▁Hy	-9.56815
he	-9.56888
▁gói	-9.56905
▁Ko	-9.56944
bu	-9.56993
▁diệt	-9.56996
▁toà	-9.57036
▁Hi	-9.57132
▁Lu	-9.57466
▁lính	-9.57576
▁Pi	-9.57651
▁đãi	-9.57685
▁Doanh	-9.57771
▁làng	-9.57794
▁su	-9.57838
nes	-9.57849
▁Giao	-9.57958
▁răng	-9.57993
▁Phần	-9.58064
▁Thanh	-9.58091
▁Viện	-9.58102
▁xâm	-9.5812
▁Kinh	-9.58321
▁trưng	-9.58398
▁hàm	-9.58448
ái	-9.58675
▁Hàng	-9.58752
▁2006	-9.58773
▁vỡ	-9.58972
▁Phạt	-9.59131
̉	-9.59147
ze	-9.59176
▁song	-9.5923
ạt	-9.59235
▁pha	-9.59418
▁Nhiều	-9.59478
▁ho	-9.59523
▁đèn	-9.59736
▁Ki	-9.60101
▁Trái	-9.60101
▁khuôn	-9.60155
▁VÀ	-9.60173
▁tùy	-9.60283
êm	-9.60283
▁Đơn	-9.6032
▁2017	-9.60363
▁km	-9.60426
▁Nhân	-9.60455
▁40	-9.60481
▁Cả	-9.6054
ham	-9.60618
▁lành	-9.6065
dy	-9.60652
▁Giá	-9.60684
▁02	-9.60733
▁khuẩn	-9.60749
▁Bởi	-9.60819
▁quán	-9.60858
▁nhỉ	-9.60866
yl	-9.60913
▁mẽ	-9.60923
ốt	-9.60947
▁địch	-9.61141
▁bù	-9.61173
▁Đúng	-9.61285
▁Khoa	-9.61332
▁dường	-9.61509
▁kêu	-9.61687
tic	-9.61689
▁31	-9.61759
▁nhuận	-9.61829
▁Car	-9.61879
ễ	-9.62081
▁rửa	-9.62133
▁mùi	-9.6214
ồi	-9.62275
▁vững	-9.62304
▁ngón	-9.62445
▁mê	-9.62514
QĐ	-9.62723
▁khấu	-9.62727
ja	-9.62818
tu	-9.62873
▁dược	-9.62924
▁Hệ	-9.63213
▁đe	-9.63289
▁tàn	-9.63297
▁Chị	-9.63335
▁29	-9.63537
ường	-9.63566
▁hè	-9.63626
▁tuy	-9.63634
▁mỹ	-9.63832
ris	-9.63921
▁Tập	-9.63924
▁Wa	-9.63982
▁nhãn	-9.64024
▁nghèo	-9.64083
▁Thu	-9.64109
ud	-9.64125
▁Ngay	-9.64244
0.000.000	-9.64248
mer	-9.64479
▁huỷ	-9.64503
ber	-9.6451
▁bề	-9.64573
▁liệt	-9.64575
ầy	-9.6473
▁Trên	-9.64834
▁lông	-9.64929
▁huyết	-9.65076
▁lão	-9.65231
▁El	-9.65307
▁Phòng	-9.65404
▁huống	-9.65695
▁Gu	-9.65806
▁Thay	-9.65871
ải	-9.65909
▁hồn	-9.66073
▁mãi	-9.66253
po	-9.66263
▁Đi	-9.6628
▁Vụ	-9.66354
▁giàu	-9.66426
▁dị	-9.66447
▁Đến	-9.66492
▁mừng	-9.665
▁thước	-9.66619
▁lan	-9.66912
▁mộ	-9.66943
ger	-9.66959
pi	-9.67015
▁8.	-9.67024
ưu	-9.67109
▁gió	-9.67162
xã	-9.67216
ov	-9.67262
▁tỉ	-9.67287
▁Kết	-9.67322
▁Vâng	-9.67356
▁lắp	-9.67426
ler	-9.67635
res	-9.67642
▁ngại	-9.67712
3.	-9.67801
ge	-9.67841
▁hẹn	-9.67916
▁đảng	-9.67916
rin	-9.68062
▁Hoàng	-9.68078
▁Wi	-9.68122
▁đế	-9.68134
rk	-9.68185
▁Ke	-9.6838
60	-9.68434
âm	-9.68572
▁Châu	-9.68755
min	-9.69059
so	-9.69067
▁hoang	-9.69084
15	-9.69124
▁Mu	-9.69272
▁web	-9.69305
▁bậc	-9.69486
▁kém	-9.69512
▁giảng	-9.69586
▁re	-9.69603
▁chim	-9.69622
▁lang	-9.69703
our	-9.6974
▁al	-9.69843
ội	-9.69935
▁Bar	-9.69965
▁hứa	-9.6998
▁Về	-9.69984
▁giường	-9.69995
▁dối	-9.70036
▁03	-9.70068
ật	-9.70083
át	-9.70127
▁com	-9.70193
▁gà	-9.70221
mb	-9.70247
▁thoả	-9.70292
▁khoáng	-9.70506
▁Tòa	-9.70529
der	-9.70615
▁Chứng	-9.70634
▁ác	-9.70814
ner	-9.70919
ước	-9.70981
-1	-9.71306
▁Am	-9.71521
ấp	-9.71559
ara	-9.71752
▁Cách	-9.72056
▁tròn	-9.72193
Q	-9.72328
▁vầ	-9.72419
▁Phương	-9.72451
▁đập	-9.72507
▁chuột	-9.72522
▁đai	-9.72616
▁Ả	-9.72723
ồng	-9.72752
▁gỗ	-9.72889
est	-9.72893
▁phái	-9.72926
▁ngu	-9.72937
▁đựng	-9.72944
▁ư	-9.73
ăn	-9.73144
▁Chẳng	-9.73228
▁(19	-9.73292
▁bi	-9.73528
▁bảy	-9.73753
▁thách	-9.73839
▁ung	-9.73904
anh	-9.73928
▁trục	-9.74079
▁Mình	-9.74187
ana	-9.74258
▁Mỗi	-9.74678
▁ấm	-9.74716
▁Fa	-9.74802
▁phẫu	-9.74819
."	-9.74887
▁Cá	-9.74895
ox	-9.7491
ăm	-9.75061
ty	-9.75105
ừ	-9.75219
▁cặp	-9.75253
▁Lúc	-9.75306
▁hoảng	-9.75399
ren	-9.75477
ùng	-9.75516
▁nhấn	-9.75567
▁tặng	-9.75639
▁Cũng	-9.75666
▁2020	-9.75681
▁Chắc	-9.7569
▁dọc	-9.75761
▁ha	-9.75873
ria	-9.75927
▁album	-9.7597
▁Gia	-9.75978
▁trống	-9.76011
▁tiềm	-9.76423
▁Bình	-9.76525
ôi	-9.7658
▁CỦA	-9.76609
không	-9.76612
▁hoạ	-9.76638
▁Giê	-9.7667
im	-9.76676
▁Ðức	-9.76692
▁Chú	-9.76698
we	-9.76751
sk	-9.7681
sta	-9.76881
ếm	-9.76895
▁điển	-9.76919
tiếng	-9.76935
▁gấp	-9.76985
▁Nghe	-9.77016
▁hãi	-9.77044
19	-9.77051
▁Pro	-9.77076
▁phỏng	-9.77112
▁Cháu	-9.77168
▁gen	-9.77204
▁na	-9.77223
▁buôn	-9.77279
▁hổ	-9.77512
▁Mày	-9.77525
▁Đảng	-9.77595
▁đẳng	-9.77613
\	-9.77812
▁im	-9.7784
▁Mã	-9.77897
▁Bi	-9.78219
▁2018	-9.7843
óc	-9.78474
▁We	-9.78531
▁Đề	-9.78814
▁săn	-9.78821
▁họa	-9.78888
▁60	-9.79003
▁lô	-9.79084
▁tắm	-9.79214
ang	-9.79268
ới	-9.79292
kh	-9.79327
ab	-9.79375
▁giỏi	-9.79578
ử	-9.79885
▁Ti	-9.79941
12	-9.8009
▁cỏ	-9.80224
▁be	-9.80234
▁hiển	-9.80276
▁hà	-9.80448
17	-9.80572
òng	-9.80589
hoặc	-9.80615
Th	-9.80766
▁Fi	-9.8079
▁hương	-9.80839
▁quái	-9.80869
tor	-9.80925
▁sữa	-9.80931
las	-9.80943
ice	-9.81158
▁viêm	-9.81194
▁thoải	-9.81236
▁khung	-9.81248
▁tan	-9.81264
▁*	-9.81299
ku	-9.8139
▁Thống	-9.81449
ếu	-9.8157
tra	-9.81636
ữ	-9.81711
▁Cuối	-9.81812
▁PH	-9.81902
▁ơi	-9.81902
▁ức	-9.81956
ong	-9.82084
út	-9.82143
ắc	-9.82222
ica	-9.82418
ệ	-9.82436
ment	-9.82438
zi	-9.82458
▁hỏng	-9.82519
.000.000	-9.82529
nder	-9.82571
-19	-9.82725
ak	-9.82848
▁thảm	-9.82946
ộc	-9.82993
gh	-9.83008
▁cản	-9.83087
▁quận	-9.8309
▁mét	-9.83203
▁đốt	-9.8324
que	-9.83407
▁bụng	-9.8347
5%	-9.83553
▁mảnh	-9.83559
▁dày	-9.83559
tan	-9.83595
▁trầm	-9.83622
▁...	-9.83638
▁tha	-9.83678
▁giấc	-9.83682
▁(1	-9.83688
▁đỉnh	-9.83738
▁dò	-9.83813
▁cờ	-9.83819
▁for	-9.83869
▁Ru	-9.83886
▁Bọn	-9.83888
che	-9.84309
▁bò	-9.84365
▁hiếm	-9.84469
▁As	-9.84585
18	-9.84692
▁ngũ	-9.84905
▁ngàn	-9.84919
▁And	-9.84951
ũ	-9.85013
▁2005	-9.85157
▁tảng	-9.85188
▁sàn	-9.85321
lia	-9.8543
▁Trách	-9.85596
ách	-9.85618
▁mát	-9.85618
▁hối	-9.85665
▁hồng	-9.85679
▁lọc	-9.85722
▁Đất	-9.85812
ít	-9.85851
▁Sử	-9.85913
▁chợ	-9.85947
▁Đồng	-9.86034
▁hỗn	-9.86115
▁vương	-9.86296
▁2004	-9.86328
▁Thứ	-9.86357
▁(20	-9.86423
▁Trời	-9.86516
▁kênh	-9.86627
▁cất	-9.86664
▁Cuộc	-9.86683
ượng	-9.86744
fa	-9.86852
ld	-9.86923
▁cẩn	-9.86992
▁tàng	-9.87008
01	-9.8701
▁Man	-9.87107
▁vườn	-9.87133
xi	-9.87236
▁sánh	-9.8724
gu	-9.87273
▁05	-9.87386
fe	-9.87485
▁mãn	-9.8752
▁trứng	-9.8755
▁Tao	-9.87607
▁rác	-9.87662
▁tụ	-9.87674
▁Nghiên	-9.87736
rist	-9.87746
▁cốc	-9.87764
▁ép	-9.87931
▁cỡ	-9.88034
▁KH	-9.88106
▁trào	-9.88173
ời	-9.88356
ek	-9.88519
ther	-9.88519
-20	-9.88634
J	-9.88741
▁NG	-9.88766
Ch	-9.88814
▁nhắn	-9.88889
age	-9.88918
gen	-9.8898
▁tồi	-9.89023
▁bão	-9.89091
▁vĩ	-9.89098
ọc	-9.89119
ook	-9.8916
▁quyển	-9.89202
▁trà	-9.89216
▁chép	-9.89234
▁Sp	-9.8925
▁chuỗi	-9.89274
▁quang	-9.89371
▁Bâ	-9.89376
▁lồ	-9.89381
\/	-9.89396
wo	-9.89413
▁Tiếp	-9.89436
Ạ	-9.89525
ài	-9.89757
▁lệch	-9.89782
ế	-9.89805
▁bá	-9.9008
den	-9.90126
▁trạm	-9.90419
▁ám	-9.90604
▁khứ	-9.90707
▁Đã	-9.90857
▁Hạ	-9.90865
fi	-9.9088
▁rắn	-9.90894
by	-9.91004
▁bom	-9.91036
▁chúa	-9.91044
▁Nên	-9.91089
▁Câu	-9.91203
▁Phó	-9.91229
õ	-9.91268
▁miếng	-9.9148
▁mì	-9.91512
▁lặp	-9.91545
▁nút	-9.91627
▁Har	-9.91676
▁Này	-9.91739
tro	-9.91742
▁tuỳ	-9.91744
▁hào	-9.91793
▁cột	-9.91836
▁For	-9.91907
▁hằng	-9.92042
▁Nông	-9.92073
ino	-9.92094
▁III	-9.92115
ans	-9.92176
▁Xô	-9.92347
▁mắn	-9.92407
ua	-9.92464
▁tiệc	-9.92525
▁Ừ	-9.92527
cy	-9.9258
▁tiêm	-9.92755
▁Hình	-9.9288
Ế	-9.93099
▁sứ	-9.93125
▁muối	-9.93181
▁chừng	-9.9322
ric	-9.93265
▁thánh	-9.93307
}	-9.93331
\\/	-9.93385
▁9.	-9.93431
▁j	-9.93448
▁Ed	-9.93499
gan	-9.93529
▁móc	-9.93591
▁Đào	-9.9363
▁kín	-9.93801
▁khái	-9.93803
rd	-9.93841
ev	-9.93902
▁Toà	-9.93928
▁Nguyên	-9.93974
ight	-9.93975
▁cai	-9.94045
ẽ	-9.94069
▁hạch	-9.94126
▁ngừa	-9.94366
▁ngọn	-9.94366
▁Bác	-9.94421
ive	-9.94467
▁ghét	-9.94473
▁no	-9.94487
▁giấu	-9.9462
cho	-9.94648
▁Tri	-9.94655
▁Môi	-9.94681
ành	-9.94716
ey	-9.94721
tri	-9.94746
▁ngực	-9.94953
▁lu	-9.95109
▁dính	-9.95164
▁2000	-9.95176
ant	-9.95319
▁Ben	-9.95413
▁TR	-9.9551
ect	-9.95517
▁mo	-9.95534
▁mưa	-9.95537
▁trương	-9.95576
ề	-9.95654
▁khẩn	-9.95809
han	-9.9581
▁mỏ	-9.96135
ion	-9.96194
tch	-9.96287
▁đạn	-9.96378
▁Q	-9.96453
▁Dân	-9.96506
▁Lao	-9.96566
▁Internet	-9.9662
▁mực	-9.96627
▁Sha	-9.96734
▁À	-9.96764
▁me	-9.96833
Ư	-9.96847
▁rãi	-9.9687
▁đậu	-9.96916
▁Dương	-9.96984
▁Cảm	-9.96985
▁sợi	-9.97039
▁hầm	-9.9705
▁tật	-9.97166
▁khuyên	-9.97176
95	-9.97199
▁Mà	-9.97206
▁Cứ	-9.97229
▁Com	-9.97253
▁Gra	-9.97266
13	-9.97292
▁vỏ	-9.9754
▁đằng	-9.97714
có	-9.97828
▁giam	-9.97854
▁Thẩm	-9.97867
vo	-9.97895
▁lỏng	-9.97922
ói	-9.9798
▁chán	-9.98072
ast	-9.98104
▁ném	-9.98129
▁thượng	-9.98155
du	-9.98263
ep	-9.98422
▁Tìm	-9.98441
rea	-9.98538
▁điệu	-9.98615
▁se	-9.98615
▁giày	-9.98619
▁ngầm	-9.98654
tion	-9.98755
ầu	-9.98886
ig	-9.98984
ft	-9.99024
▁khổng	-9.99024
dd	-9.9911
▁cãi	-9.99219
▁hảo	-9.99241
rt	-9.99412
▁lò	-9.99536
BTC	-9.99558
ớ	-9.99606
▁cưỡng	-9.99675
▁ti	-9.99706
▁xăng	-9.99822
con	-9.99854
▁liều	-9.99944
iều	-9.99971
tes	-10.0021
▁hùng	-10.003
▁phiền	-10.003
▁2001	-10.003
▁đua	-10.003
▁Hàn	-10.0033
Ả	-10.0034
\\	-10.0034
▁dao	-10.0036
ống	-10.0048
ji	-10.0056
ướng	-10.0058
▁kiệm	-10.0065
▁chín	-10.0067
▁gương	-10.0069
▁Xã	-10.0081
tal	-10.0084
ý	-10.0084
▁cưới	-10.0086
▁lượt	-10.0098
▁pa	-10.0135
ác	-10.0143
▁vé	-10.0143
▁Per	-10.0146
▁quà	-10.0147
q	-10.0156
▁tám	-10.016
▁thói	-10.0163
▁đón	-10.0168
ích	-10.0168
▁ẩm	-10.0171
car	-10.0177
▁lãng	-10.0179
▁hãng	-10.0208
▁mệnh	-10.0208
̃	-10.0215
▁tụi	-10.0215
▁kiên	-10.0228
▁bột	-10.0234
▁khúc	-10.0241
end	-10.0243
▁rắc	-10.026
▁trật	-10.0261
ằng	-10.0271
▁lừa	-10.0283
▁bền	-10.0288
97	-10.03
âu	-10.0311
▁ki	-10.0319
▁Vương	-10.0338
ew	-10.035
▁ĐỊNH	-10.036
▁Hay	-10.0363
▁sốt	-10.0371
▁Quân	-10.0376
zo	-10.0381
▁kem	-10.0389
▁than	-10.0401
▁te	-10.0412
▁bối	-10.0412
▁Tiếng	-10.0426
▁Đôi	-10.0426
▁Chuyện	-10.0427
▁gợi	-10.0433
▁cụm	-10.0438
Ự	-10.044
▁VỀ	-10.0445
▁thăng	-10.0453
▁Cảnh	-10.0457
▁thiệp	-10.0466
▁dám	-10.0466
ens	-10.0469
▁Ồ	-10.0471
14	-10.048
▁khen	-10.0492
▁chai	-10.0517
lli	-10.0517
▁tủ	-10.0531
▁dọa	-10.0533
▁dáng	-10.0536
▁Hồi	-10.0544
▁chở	-10.055
16	-10.0556
ển	-10.0577
hen	-10.0578
▁đùa	-10.0584
zy	-10.0611
▁Nhìn	-10.0615
len	-10.0663
▁gỡ	-10.0674
ấm	-10.0676
▁Xác	-10.0679
▁Rất	-10.0713
▁Sản	-10.0715
line	-10.0727
ski	-10.073
▁ngốc	-10.0736
▁khóc	-10.0736
25	-10.0749
▁mưu	-10.075
0%	-10.076
85	-10.0771
sp	-10.0777
ec	-10.0783
▁Kho	-10.0808
▁chăn	-10.0822
▁$	-10.0847
ist	-10.086
▁Trưởng	-10.0873
▁2003	-10.0877
▁game	-10.0877
▁Ngoại	-10.088
▁bếp	-10.0898
▁bận	-10.09
▁Dùng	-10.0905
ực	-10.0912
▁Bệnh	-10.0915
▁on	-10.0916
▁nghiện	-10.0924
▁niêm	-10.0931
▁VI	-10.0941
▁tràn	-10.0946
lf	-10.0947
▁Hầu	-10.0951
▁truyện	-10.0954
▁nghìn	-10.0957
▁he	-10.0968
▁khốn	-10.0972
ép	-10.0978
\'	-10.0983
▁ảo	-10.0986
▁dinh	-10.0987
▁uỷ	-10.0997
▁Or	-10.0998
▁táo	-10.1
ẩy	-10.1002
dio	-10.1004
iệt	-10.1004
sse	-10.1005
hy	-10.1007
▁Tháng	-10.1008
dia	-10.1016
ame	-10.1016
ten	-10.1029
▁Lạp	-10.1034
▁xoay	-10.1035
wn	-10.1036
hu	-10.1049
▁cổng	-10.1059
cha	-10.1072
▁hiến	-10.1093
▁tuệ	-10.1093
▁bụi	-10.1098
▁giãn	-10.1121
▁đống	-10.1127
▁vải	-10.1127
▁Thiên	-10.1139
▁đeo	-10.1151
Ệ	-10.1157
ome	-10.1159
▁xoá	-10.1161
▁Ab	-10.1163
▁vong	-10.1166
ore	-10.1184
▁Shi	-10.1215
▁En	-10.123
▁ngon	-10.1246
▁Va	-10.1248
▁Cor	-10.1255
▁35	-10.126
▁xứng	-10.126
BC	-10.1265
▁Tom	-10.127
▁Sẽ	-10.1275
iện	-10.1285
mar	-10.1291
ase	-10.1303
▁Col	-10.1312
ẫ	-10.132
▁cài	-10.1324
▁Bất	-10.1339
▁mệt	-10.1344
▁pro	-10.1346
▁Thuế	-10.1354
▁trần	-10.1373
▁đàm	-10.1374
▁Lần	-10.1375
trong	-10.1377
ies	-10.138
▁mồ	-10.1382
nia	-10.1408
ven	-10.1412
ez	-10.1413
▁Bằng	-10.1414
▁45	-10.1419
▁tẩy	-10.142
▁xóa	-10.1425
▁treo	-10.1426
▁Đường	-10.1431
▁mũ	-10.1433
▁sạn	-10.1434
▁béo	-10.1443
yo	-10.1459
▁Định	-10.1462
van	-10.1464
▁mạo	-10.147
▁chìm	-10.1478
rs	-10.1484
éo	-10.1486
ius	-10.1495
-2	-10.1496
▁điệp	-10.1499
▁Tự	-10.152
▁dặm	-10.1523
ami	-10.1524
ker	-10.1534
Tôi	-10.1536
qu	-10.1539
▁Ad	-10.1543
▁Tra	-10.1544
ắn	-10.1557
▁Mẫu	-10.1559
ậy	-10.1566
▁soạn	-10.1583
ime	-10.1589
▁vang	-10.1601
▁bơi	-10.1603
ls	-10.1605
lic	-10.1606
old	-10.161
▁phấn	-10.1611
▁Hành	-10.1624
▁Trình	-10.1647
▁cướp	-10.1651
▁triều	-10.1654
▁Ôi	-10.1655
▁Minh	-10.1657
▁đói	-10.1659
▁Địa	-10.1659
▁khẳng	-10.1677
▁Mức	-10.1678
ếp	-10.1685
▁Hiện	-10.1698
▁mờ	-10.1701
▁bia	-10.1715
ear	-10.1716
▁gọn	-10.1719
▁Ber	-10.1727
▁nô	-10.1727
cia	-10.1728
▁má	-10.1732
là	-10.1735
ene	-10.1735
und	-10.1739
▁tốn	-10.1747
▁thuần	-10.1749
▁một	-10.1755
gg	-10.1773
▁thua	-10.1795
Ậ	-10.1802
▁Rập	-10.1803
rit	-10.1814
▁pháo	-10.182
▁ngã	-10.1825
▁Quan	-10.1827
▁ngập	-10.1836
▁há	-10.1837
▁Canada	-10.1844
hỉnh	-10.1861
▁tung	-10.1861
▁tiếc	-10.1866
▁lôi	-10.1878
▁tươi	-10.1886
ella	-10.1891
ble	-10.1895
ban	-10.1898
▁mu	-10.1901
▁nắng	-10.1901
stan	-10.1915
▁thầm	-10.1921
▁nhịp	-10.1925
▁Ku	-10.1937
AN	-10.1944
▁sắm	-10.1945
▁Wal	-10.1947
▁lát	-10.1957
▁gan	-10.196
ám	-10.1962
▁say	-10.1963
▁cựu	-10.1965
▁nhấp	-10.1972
ick	-10.198
ser	-10.1998
▁Mac	-10.2013
▁nhầm	-10.2021
▁túc	-10.2034
▁Sửa	-10.2045
▁Sam	-10.2047
▁Kể	-10.2049
sen	-10.2063
▁mạc	-10.2091
▁Mc	-10.2092
▁Ge	-10.2092
▁hò	-10.2096
ish	-10.2098
▁Học	-10.2115
▁dọn	-10.2119
▁muộn	-10.2132
ura	-10.2136
▁canh	-10.2144
Ấ	-10.2149
▁Mor	-10.2156
ex	-10.216
▁móng	-10.2165
▁dán	-10.2166
▁♪	-10.2168
▁SỐ	-10.218
▁tháo	-10.218
▁You	-10.2197
▁Thượng	-10.22
ston	-10.2226
▁thô	-10.2226
ất	-10.2228
▁Sta	-10.2233
▁thợ	-10.2235
ấy	-10.2241
▁Oh	-10.2245
▁Fe	-10.2245
▁David	-10.2245
▁90	-10.2252
▁USD	-10.2252
▁lọ	-10.2254
ugh	-10.2282
▁chấn	-10.2287
▁lắc	-10.2295
▁gián	-10.2301
▁2002	-10.2307
▁bạch	-10.231
▁ni	-10.2315
kin	-10.2315
▁Nhóm	-10.2321
▁Cập	-10.2325
TTg	-10.2337
▁dạ	-10.234
▁Paul	-10.235
▁Úc	-10.2352
ẳng	-10.2354
▁Kim	-10.2365
▁nhá	-10.237
▁hưu	-10.2373
▁hoại	-10.2378
▁xưa	-10.2383
ps	-10.2395
▁sáp	-10.2414
▁Hoặc	-10.2419
▁nhẫn	-10.2421
sinh	-10.2423
▁giáp	-10.2458
ney	-10.2461
▁Bài	-10.2467
▁Phân	-10.2476
ess	-10.2487
▁80	-10.249
har	-10.2493
▁Giống	-10.2497
tôi	-10.2514
▁Sch	-10.2529
▁chẽ	-10.2531
▁lây	-10.2532
▁ổ	-10.2535
▁bẩn	-10.2541
Ô	-10.2556
▁Quá	-10.2563
▁bớt	-10.2568
▁bọ	-10.2569
▁nhắm	-10.2579
đối	-10.2583
99	-10.2595
ồ	-10.2601
ện	-10.2602
▁trôi	-10.2603
▁chìa	-10.2611
75	-10.2614
az	-10.2615
▁trượt	-10.2624
▁Yêu	-10.2654
▁mù	-10.2663
burg	-10.2671
▁Ya	-10.2675
▁Edward	-10.2678
▁đếm	-10.2689
▁Xem	-10.269
▁vinh	-10.2692
ỷ	-10.2694
▁Tim	-10.2696
▁Thị	-10.2696
▁cốt	-10.2698
▁nồng	-10.2732
▁200	-10.2735
▁{	-10.2739
▁Tiêu	-10.274
▁ngọt	-10.2742
ros	-10.2743
▁nấu	-10.2761
▁thoảng	-10.2769
ửa	-10.2795
▁QUY	-10.2798
▁xà	-10.2798
▁thùng	-10.2801
▁chả	-10.2819
▁lường	-10.2824
▁bó	-10.2824
don	-10.286
▁Za	-10.2866
ō	-10.2868
▁đợt	-10.2868
▁Her	-10.2871
rus	-10.2872
▁Truyền	-10.2872
ón	-10.2875
▁Đả	-10.2889
ồn	-10.2901
ằn	-10.2902
▁Đội	-10.2911
bb	-10.2911
▁Khá	-10.2913
24	-10.2922
nny	-10.2935
▁Nước	-10.2937
▁bông	-10.294
jo	-10.2956
▁phe	-10.2958
▁ghép	-10.2973
▁protein	-10.2977
65	-10.2981
▁ổng	-10.2986
▁or	-10.2989
▁Tình	-10.2991
▁dã	-10.2999
ỡ	-10.3003
▁hòn	-10.3015
▁Quyền	-10.3015
▁chẩn	-10.3016
▁is	-10.3019
▁Can	-10.3019
▁ôm	-10.3021
if	-10.3025
rie	-10.3028
▁Mon	-10.3032
▁32	-10.3037
ốn	-10.3051
▁Tiên	-10.3056
▁George	-10.3057
▁thạch	-10.3057
▁tóm	-10.3057
ier	-10.3059
▁She	-10.307
▁70	-10.3088
▁Ron	-10.3094
▁NH	-10.3099
▁ngưỡng	-10.3101
▁cậy	-10.3128
▁1990	-10.3135
ỵ	-10.3137
như	-10.3139
ity	-10.3139
ium	-10.315
năm	-10.3153
▁gối	-10.3153
▁Windows	-10.3161
▁khớp	-10.3163
▁Paris	-10.3171
ận	-10.3173
▁xí	-10.318
▁po	-10.318
À	-10.3187
▁nhựa	-10.3187
▁kỉ	-10.3197
▁axit	-10.3202
lly	-10.3211
▁West	-10.3224
ett	-10.3226
▁Frank	-10.3226
▁Hướng	-10.3237
▁nhàng	-10.3255
▁nha	-10.3255
▁mỉm	-10.326
▁Thiết	-10.3261
▁óc	-10.3266
▁rào	-10.3269
▁trộn	-10.327
▁nhóc	-10.327
hấp	-10.3282
/2013	-10.3289
▁ruột	-10.3296
▁Han	-10.3326
▁tí	-10.3327
▁Lưu	-10.3333
▁sụp	-10.3339
▁tuyết	-10.3341
▁bo	-10.3342
▁Biên	-10.3343
▁tống	-10.3348
▁Đánh	-10.3353
▁2015.	-10.3361
▁Syria	-10.3363
ùa	-10.3369
▁06	-10.3379
ting	-10.3392
▁Thôi	-10.3396
▁Hôm	-10.3398
ắp	-10.3401
▁Emily	-10.3408
▁1999	-10.3424
▁Carl	-10.3424
▁tần	-10.3426
▁Bra	-10.3428
40	-10.3433
▁gật	-10.3446
▁nhạy	-10.3452
Tr	-10.346
▁trúng	-10.3462
▁Chà	-10.3464
▁Peter	-10.3471
ł	-10.3472
▁rau	-10.3477
▁Chu	-10.3482
▁xô	-10.3488
port	-10.3489
▁bến	-10.349
▁Chào	-10.3508
▁doạ	-10.3512
ix	-10.3521
▁mỏi	-10.354
▁thề	-10.3541
21	-10.3545
▁vội	-10.3548
▁nở	-10.3566
▁tia	-10.3572
▁Vị	-10.3582
▁dãy	-10.3588
▁dịu	-10.359
▁Tiến	-10.3591
▁le	-10.3598
▁trộm	-10.3608
▁triết	-10.361
▁bám	-10.3613
▁phổi	-10.3613
Ph	-10.3616
▁Sal	-10.3627
▁Hơn	-10.3628
▁trăng	-10.363
▁tháp	-10.3643
▁hét	-10.366
▁khiếp	-10.3664
▁nụ	-10.3664
▁Thậ	-10.3666
80	-10.367
▁Fu	-10.3683
ngày	-10.3689
68	-10.3692
▁2019	-10.3693
▁Thầy	-10.3729
▁Cam	-10.3753
▁My	-10.3754
▁Gre	-10.3763
▁Star	-10.3764
ini	-10.3778
▁phô	-10.3778
▁Bảng	-10.3802
zz	-10.3805
-3	-10.381
▁War	-10.3821
▁Tin	-10.3822
05	-10.3823
▁nhú	-10.3825
▁virus	-10.3837
ẩm	-10.3842
▁World	-10.3843
▁hoãn	-10.3848
nie	-10.3851
02	-10.3857
▁nướng	-10.3865
ite	-10.3869
▁Michael	-10.3879
▁Chí	-10.3885
47	-10.3893
người	-10.39
▁GTGT	-10.39
▁36	-10.3901
the	-10.3902
▁tụng	-10.3904
▁nạ	-10.3912
▁London	-10.3915
tha	-10.3924
▁non	-10.393
▁Cổ	-10.3933
iz	-10.3949
▁Phối	-10.3949
▁cương	-10.3956
▁mạn	-10.3974
TC	-10.3977
▁100%	-10.3983
▁Tối	-10.4007
▁Loại	-10.402
dge	-10.4031
▁trưa	-10.4041
▁đền	-10.4043
ress	-10.4044
▁Par	-10.4049
rr	-10.405
▁Thánh	-10.4057
▁chôn	-10.406
way	-10.4068
▁bội	-10.4079
▁mọc	-10.408
▁khuyết	-10.4089
▁leo	-10.4093
▁quỷ	-10.41
▁CÔNG	-10.4115
▁ong	-10.4119
▁dâm	-10.412
▁Mô	-10.413
▁đớn	-10.4131
NN	-10.4133
ă	-10.4133
▁Tính	-10.4139
▁Sinh	-10.4159
▁Cùng	-10.4169
▁khát	-10.4173
▁khán	-10.418
ãi	-10.418
▁William	-10.419
ính	-10.4204
▁CHÍNH	-10.4206
àn	-10.4213
▁đồn	-10.4216
ola	-10.4218
▁dĩ	-10.4239
▁tựa	-10.4243
▁vở	-10.4243
nhưng	-10.4245
▁lộn	-10.4247
▁Chánh	-10.4254
ứt	-10.4261
▁nho	-10.4263
▁nét	-10.4265
▁Nữ	-10.4273
▁lưỡi	-10.4276
▁vắng	-10.4277
▁HIV	-10.4281
▁Qua	-10.4286
hiếp	-10.4289
▁bắp	-10.4303
▁Hoạt	-10.4306
▁kìa	-10.431
▁khoan	-10.4311
bao	-10.4312
▁Lập	-10.4315
▁Ac	-10.4337
▁hít	-10.4341
tter	-10.4344
▁Xử	-10.4347
▁Hồng	-10.437
▁Google	-10.4379
▁Tiền	-10.4386
▁hẹp	-10.439
▁lồng	-10.4391
úc	-10.4397
▁sơn	-10.4407
▁bì	-10.4419
Cười	-10.4424
rac	-10.4424
▁giật	-10.4431
CH	-10.4433
▁James	-10.4433
▁vã	-10.4435
lie	-10.4439
vin	-10.444
▁\	-10.4441
▁đồi	-10.4443
▁Thưa	-10.4446
▁bút	-10.4447
▁HÀNH	-10.445
ance	-10.4456
▁Tham	-10.4465
sion	-10.4471
▁Liệu	-10.4477
men	-10.4479
▁trắc	-10.4487
▁Điện	-10.4488
▁Giả	-10.4493
bra	-10.4494
▁Min	-10.4497
▁xá	-10.4497
Ð	-10.4499
▁Ngươi	-10.4499
▁xả	-10.4518
rom	-10.4521
▁California	-10.4527
▁Tốt	-10.4529
▁Thường	-10.4532
▁Chọn	-10.4538
▁Máy	-10.4544
▁Robert	-10.4551
▁Mer	-10.4552
▁500	-10.4557
▁ngẫu	-10.4563
▁Val	-10.4564
bin	-10.4568
▁thám	-10.458
▁đạp	-10.458
▁bón	-10.4594
▁ko	-10.4598
ssa	-10.4603
▁người	-10.4605
▁qui	-10.4608
▁cát	-10.4632
▁lùng	-10.4634
67	-10.4637
▁Nor	-10.4642
▁lãm	-10.4644
net	-10.4644
▁Thư	-10.4664
-4	-10.4665
▁Đài	-10.4668
▁33	-10.4669
anda	-10.4673
▁1998	-10.4682
▁quát	-10.4701
▁tui	-10.4704
▁Cố	-10.4704
▁TK	-10.4711
▁Lý	-10.4719
▁Mary	-10.4721
▁nấm	-10.4724
▁quê	-10.4725
Thương	-10.4727
▁LÝ	-10.473
theo	-10.4749
▁Che	-10.4754
▁vân	-10.4755
▁xinh	-10.4759
▁rà	-10.4762
▁Tránh	-10.4762
ctor	-10.4764
▁(2	-10.4771
▁1980	-10.4775
▁Quảng	-10.4782
bằng	-10.479
▁bọc	-10.48
▁đâm	-10.4805
ậu	-10.4806
49	-10.4807
▁Đế	-10.481
sha	-10.481
row	-10.4812
▁Huy	-10.4818
berg	-10.4818
▁hu	-10.4835
▁04	-10.4841
ind	-10.4853
ence	-10.4858
▁chúc	-10.4859
▁Thuốc	-10.4861
▁TV	-10.4866
▁ru	-10.4875
▁Đưa	-10.4876
com	-10.4885
▁Triều	-10.4896
70	-10.4907
▁đắn	-10.491
▁Tăng	-10.491
▁ODA	-10.4914
▁hố	-10.4922
▁THU	-10.493
▁sỹ	-10.494
▁IV	-10.4941
▁chục	-10.4947
▁đáo	-10.4947
▁lấp	-10.4953
▁bỏng	-10.4956
▁email	-10.4963
▁bùng	-10.4963
76	-10.4965
77	-10.4967
▁đuôi	-10.4974
▁Yo	-10.4988
▁CÁC	-10.4992
▁Ver	-10.4993
▁khía	-10.4995
▁bồn	-10.5015
▁Alice	-10.5024
▁củng	-10.5029
▁Đặc	-10.5032
ound	-10.5033
▁Chế	-10.5044
▁°	-10.5051
▁xi	-10.5055
▁mượn	-10.5073
▁Khoảng	-10.5079
uyên	-10.5087
▁Luc	-10.5096
CN	-10.5111
▁Dar	-10.5111
vis	-10.5115
▁Cal	-10.5123
90	-10.5129
▁vây	-10.513
▁thắt	-10.5145
gue	-10.5147
▁khôi	-10.5148
▁Giữ	-10.5148
▁mòn	-10.5149
/2006	-10.5161
▁Cl	-10.5163
▁Tỷ	-10.5171
▁Eve	-10.5178
dor	-10.5182
ald	-10.5189
▁Win	-10.519
▁ưa	-10.519
▁nôn	-10.5201
▁chăng	-10.5203
▁luồng	-10.5204
www	-10.5209
▁Jack	-10.5215
▁("	-10.5222
▁vướng	-10.5226
▁tạ	-10.5241
07	-10.5249
nis	-10.5258
64	-10.5258
▁50%	-10.5269
▁Ex	-10.5276
▁túy	-10.5285
▁hôi	-10.5285
▁Bắt	-10.5295
▁mây	-10.5296
▁ngoan	-10.5298
ỹ	-10.5298
▁Pre	-10.53
▁lui	-10.5301
ward	-10.5306
pha	-10.5311
▁được	-10.5316
▁chằm	-10.5316
▁ướt	-10.5316
69	-10.5318
▁mò	-10.5319
▁Mont	-10.5322
▁âu	-10.5332
Tiếng	-10.5337
▁lợn	-10.534
▁Henry	-10.5352
wer	-10.5368
AR	-10.5371
▁cắp	-10.5373
▁chà	-10.5376
Ờ	-10.5382
▁vuông	-10.5382
89	-10.5385
▁US	-10.5386
▁Cung	-10.539
zu	-10.5407
ẫu	-10.5414
fer	-10.5444
DA	-10.5446
ví	-10.5458
▁07	-10.546
35	-10.5481
ỳ	-10.5484
▁chốt	-10.5486
▁trừng	-10.5493
Ê	-10.5495
▁lùi	-10.5503
OS	-10.5512
pho	-10.5512
▁Thử	-10.5514
▁rẻ	-10.5522
▁Gar	-10.5522
▁nát	-10.5526
▁May	-10.5527
▁yết	-10.5532
rian	-10.5542
bert	-10.5545
▁Park	-10.5549
▁nhạt	-10.5554
ash	-10.5582
▁cừu	-10.5595
▁kí	-10.5599
▁ĐỘNG	-10.5608
▁thép	-10.5611
▁Bồ	-10.5617
03	-10.5641
▁Dịch	-10.5643
▁bể	-10.5647
▁sếp	-10.5648
ạp	-10.565
▁chênh	-10.5651
ano	-10.5654
ờ	-10.5658
▁súc	-10.5664
del	-10.5665
lar	-10.5671
▁Alex	-10.5672
ằ	-10.5683
▁khôn	-10.5683
▁toa	-10.569
▁khoảnh	-10.5691
được	-10.57
▁miêu	-10.5711
▁cắm	-10.5712
vel	-10.5719
▁Đa	-10.572
▁Thể	-10.5725
ín	-10.5728
ire	-10.573
▁tân	-10.5732
▁Buộc	-10.5733
▁ngợi	-10.5744
▁kề	-10.5747
▁Đoàn	-10.575
▁Long	-10.5753
▁cưng	-10.5762
▁lạm	-10.5766
500	-10.5767
▁đới	-10.5777
▁dỡ	-10.5794
▁34	-10.5806
▁Mở	-10.5807
▁Washington	-10.5813
▁gõ	-10.5828
Z	-10.583
▁Chất	-10.5831
▁Biểu	-10.5832
▁38	-10.5833
45	-10.5841
▁Mexico	-10.5845
▁giơ	-10.5848
▁tuý	-10.5853
▁khói	-10.5857
▁ngư	-10.5871
▁uy	-10.5872
▁Ghi	-10.5874
▁phu	-10.5874
▁vú	-10.588
32	-10.5886
87	-10.5892
▁đáy	-10.5892
{	-10.5894
▁lau	-10.5899
▁Rachel	-10.5902
▁Bea	-10.5903
▁củ	-10.5903
▁run	-10.591
SA	-10.5929
▁NĂM	-10.5933
▁lăm	-10.5936
▁mụ	-10.5941
je	-10.5947
▁thèm	-10.5959
▁Thần	-10.5973
tta	-10.5984
gar	-10.5997
▁Vùng	-10.6019
▁1997	-10.6024
▁Bill	-10.6032
78	-10.6048
▁Hoàn	-10.6048
▁Đặt	-10.6049
▁37	-10.6053
Ộ	-10.6065
▁bốc	-10.6066
qua	-10.607
QH	-10.6078
ẫn	-10.6097
22	-10.6099
39	-10.6104
AS	-10.6112
▁bê	-10.6112
▁ả	-10.6119
ose	-10.6124
▁lề	-10.6133
▁ngơi	-10.6139
▁Cấp	-10.614
cô	-10.6141
▁kĩ	-10.6143
▁cởi	-10.6146
▁Mấy	-10.6156
▁oxy	-10.6159
33	-10.6161
úng	-10.6167
ết	-10.6176
▁xỉ	-10.6183
▁Kar	-10.6189
▁khơi	-10.6198
▁Đô	-10.62
▁Mal	-10.6205
▁thổi	-10.6205
▁hỏa	-10.6205
▁gác	-10.6206
▁đố	-10.6215
▁quét	-10.6228
▁1970	-10.6238
▁bát	-10.6248
ller	-10.6257
ction	-10.626
ling	-10.6274
cor	-10.6291
qui	-10.6296
▁thoái	-10.6297
via	-10.6302
▁mỏng	-10.6306
▁phế	-10.6308
▁Chiếc	-10.6325
▁Thổ	-10.6333
cin	-10.6334
▁cuộn	-10.6336
những	-10.6343
▁ven	-10.6343
sco	-10.6345
▁nghịch	-10.6352
▁Vấn	-10.6355
▁nhũng	-10.6356
▁NƯỚC	-10.6376
▁Bur	-10.6384
▁hung	-10.6385
▁tỏa	-10.6396
▁Bru	-10.6399
▁nạp	-10.6401
▁xoa	-10.6405
▁lật	-10.6413
▁Thi	-10.6425
▁mổ	-10.6425
▁78	-10.6428
/3	-10.6432
▁nảy	-10.6437
86	-10.6439
phi	-10.6449
can	-10.645
/2014	-10.6463
elle	-10.647
▁kẹt	-10.6477
48	-10.6485
▁Sĩ	-10.6497
ary	-10.6505
ợ	-10.6509
▁gãy	-10.6512
▁men	-10.652
act	-10.6521
ẩu	-10.6524
▁Lin	-10.654
uk	-10.6541
▁thâm	-10.6544
▁nâu	-10.6546
sky	-10.6554
36	-10.6564
▁39	-10.6574
ếch	-10.6583
▁Nguồn	-10.6599
▁dì	-10.6599
▁1,2	-10.6601
▁đê	-10.6604
▁Trang	-10.6609
▁QUẢN	-10.6626
ning	-10.6636
ign	-10.6638
▁Ly	-10.6641
▁ve	-10.6649
out	-10.665
rge	-10.6664
ding	-10.6673
=	-10.6674
▁Thụy	-10.6681
▁sưu	-10.6686
▁mỡ	-10.6687
▁Cup	-10.6689
06	-10.669
▁đạc	-10.6694
▁cắn	-10.6713
▁Pri	-10.6714
illa	-10.6718
▁Dan	-10.6719
▁big	-10.6731
▁Toàn	-10.6746
▁Nhiệm	-10.675
▁cạn	-10.6767
▁phà	-10.678
▁với	-10.6784
▁Đăng	-10.6785
▁Bán	-10.6791
38	-10.6797
Í	-10.6804
▁Thêm	-10.6811
ü	-10.6819
▁with	-10.6819
Ị	-10.6826
ture	-10.6832
▁Mag	-10.6855
▁1960	-10.6857
▁Israel	-10.6861
28	-10.6862
ida	-10.6865
ịch	-10.6871
▁Hiến	-10.6878
▁Charles	-10.6882
▁dàn	-10.6901
▁Vua	-10.6905
▁xích	-10.6908
▁dốc	-10.6914
▁cước	-10.6929
▁vỗ	-10.6934
▁trễ	-10.6937
▁pe	-10.6941
▁Langdon	-10.6952
▁Vũ	-10.6954
▁Điển	-10.6967
▁TƯ	-10.6968
29	-10.6978
▁nghiêng	-10.6987
▁rỗng	-10.7002
▁1992	-10.7002
▁Nghĩa	-10.7022
▁phun	-10.7027
..............	-10.7032
tis	-10.7033
▁Game	-10.7034
▁dạo	-10.7034
▁tị	-10.7034
dan	-10.704
▁Chưa	-10.7051
erry	-10.7058
▁cớ	-10.7065
tur	-10.707
▁Martin	-10.7072
▁cúi	-10.7084
▁thọ	-10.7085
▁League	-10.7087
▁ngục	-10.7091
▁pho	-10.7098
▁van	-10.71
▁giặt	-10.7101
▁Tác	-10.7104
▁hạm	-10.7104
23	-10.7109
hay	-10.7114
ford	-10.7115
▁Tha	-10.7116
pro	-10.7125
09	-10.7141
cker	-10.7143
27	-10.7144
▁Gã	-10.7145
par	-10.7146
▁Đạo	-10.7152
▁xơ	-10.7155
ể	-10.7158
▁lõi	-10.7166
▁thuẫn	-10.7168
▁tùng	-10.7169
04	-10.717
▁xám	-10.7201
▁tông	-10.7211
▁đà	-10.7213
▁nén	-10.7217
▁Áp	-10.7219
26	-10.7227
▁vớ	-10.7229
▁ngụ	-10.723
▁đỗ	-10.7244
▁ngột	-10.7253
▁1996	-10.7253
▁small	-10.7253
08	-10.7264
▁vĩnh	-10.7289
▁khoác	-10.7297
▁lăn	-10.7305
▁Nhận	-10.732
▁đẻ	-10.7332
ần	-10.7333
iềm	-10.7341
▁Tờ	-10.735
▁42	-10.7355
▁Lãnh	-10.7355
▁đụng	-10.7355
▁ốm	-10.7355
▁ván	-10.736
37	-10.7363
trừ	-10.7373
34	-10.7377
▁ngạch	-10.7411
▁Los	-10.7419
▁Fer	-10.7424
▁mến	-10.7424
▁sôi	-10.7452
▁Tàu	-10.7459
▁chua	-10.746
▁48	-10.7462
▁mốc	-10.747
31	-10.7474
▁300	-10.7487
▁mầm	-10.749
▁mồi	-10.7493
▁1994	-10.7496
▁Yu	-10.7497
▁san	-10.75
▁Chuyển	-10.7503
▁cuồng	-10.7503
▁pin	-10.7503
▁dắt	-10.7506
ves	-10.7507
▁Lấy	-10.7514
▁kiệt	-10.7521
▁hoan	-10.7523
▁lơ	-10.7527
1998	-10.7528
▁Van	-10.7535
▁rẽ	-10.7535
▁chinh	-10.7538
▁chọc	-10.754
▁những	-10.7541
▁huyền	-10.7542
▁Thì	-10.7554
mit	-10.7557
▁ngắm	-10.7558
▁Tương	-10.7572
IỆN	-10.7573
Ể	-10.7578
▁GIA	-10.7586
▁08	-10.7615
▁tò	-10.7617
gor	-10.7618
ƯƠNG	-10.7623
▁gạch	-10.7623
▁lũng	-10.7627
▁Steve	-10.7638
▁thỏ	-10.7643
▁rã	-10.7653
/12	-10.7664
/2015/	-10.7664
▁DỤNG	-10.7668
▁quãng	-10.7668
▁thể	-10.7671
ette	-10.7677
▁phẳng	-10.7678
▁1995	-10.7701
Ó	-10.7706
đã	-10.7708
▁Gen	-10.7709
▁Phí	-10.7716
▁43	-10.7719
▁Hỗ	-10.773
ữa	-10.7732
▁dịp	-10.7743
▁Biển	-10.7746
▁hao	-10.7751
▁vá	-10.7759
88	-10.7763
▁giọt	-10.7768
▁Ít	-10.7775
ave	-10.7779
▁Nơi	-10.7783
▁Ol	-10.7797
▁Trừ	-10.7798
▁xuân	-10.7804
để	-10.7806
▁phường	-10.7809
▁lê	-10.7809
ậ	-10.781
▁Cap	-10.7837
▁thấu	-10.7845
▁lờ	-10.7849
▁thoáng	-10.7852
▁xưởng	-10.7855
▁Mark	-10.7856
▁Khả	-10.7856
ów	-10.7858
▁lân	-10.7859
▁TỔ	-10.786
Ổ	-10.7875
off	-10.7886
▁Gmina	-10.7899
▁Gần	-10.7909
▁Apple	-10.7922
itz	-10.7925
ink	-10.7931
▁mụn	-10.7952
▁Hiệu	-10.7961
+	-10.7964
▁Lee	-10.7967
/2011	-10.7969
▁khử	-10.7987
▁rũ	-10.7995
▁bơ	-10.7999
▁lúa	-10.8009
lip	-10.802
rick	-10.8021
ington	-10.803
Ầ	-10.8142
ö	-10.8294
Ơ	-10.8366
Ã	-10.8473
ń	-10.9161
Ở	-10.939
Ồ	-10.9427
−	-10.9556
ñ	-10.9639
Ụ	-10.9737
Ợ	-11.0063
Ă	-11.0081
ẵ	-11.0297
Ớ	-11.0874
Ữ	-11.1269
Ử	-11.1315
Ề	-11.132
>	-11.1478
Ú	-11.1534
É	-11.1646
♫	-11.2754
@	-11.2779
]	-11.2919
×	-11.3432
ẳ	-11.3552
ū	-11.3581
<	-11.3664
ä	-11.3845
α	-11.3845
Ì	-11.3859
|	-11.4188
Ỉ	-11.4217
ā	-11.4364
ę	-11.4468
Ý	-11.4624
ç	-11.4695
­	-11.5508
Ừ	-11.552
ẩ	-11.5661
а	-11.5811
Ủ	-11.5875
Ù	-11.6177
°	-11.6228
(	-11.6281
′	-11.641
Ặ	-11.6465
о	-11.6483
Ĩ	-11.6575
ا	-11.6649
ś	-11.6894
Ọ	-11.7708
и	-11.7959
ầ	-11.7968
е	-11.7981
ć	-11.8594
ą	-11.9009
Ỹ	-11.9009
Ỗ	-11.92
н	-11.9443
»	-11.9542
β	-11.9641
«	-11.9768
~	-11.9844
^	-12.0269
ð	-12.0289
→	-12.0289
Ẩ	-12.0424
р	-12.0424
Ł	-12.0588
⁄	-12.0588
ż	-12.0644
μ	-12.1127
Ễ	-12.1362
Ẫ	-12.1482
ー	-12.1573
с	-12.1945
ل	-12.2041
Ś	-12.2137
š	-12.2234
ï	-12.2497
±	-12.3046
к	-12.3333
т	-12.359
Ò	-12.397
в	-12.4086
£	-12.4126
ي	-12.4126
Ỏ	-12.4526
ī	-12.4567
л	-12.4567
ر	-12.4609
ə	-12.4775
Ằ	-12.4775
č	-12.4944
ë	-12.5203
*	-12.5315
π	-12.538
ı	-12.556
م	-12.5697
ø	-12.5789
·	-12.5929
ن	-12.656
ン	-12.656
ắ	-12.6746
æ	-12.6918
–	-12.7002
Ẻ	-12.7181
Ỷ	-12.7234
ب	-12.7451
ο	-12.7561
و	-12.7842
ː	-12.8015
Ỡ	-12.8309
ź	-12.8369
ρ	-12.8369
$	-12.8469
τ	-12.8489
å	-12.8612
ς	-12.8736
の	-12.8736
д	-12.8861
♪	-12.9032
γ	-12.9052
у	-12.9117
ɪ	-12.9313
ル	-12.9379
■	-12.9513
σ	-12.958
ˈ	-12.9648
Ż	-12.9648
ß	-12.9996
□	-12.9996
د	-13.021
δ	-13.0282
λ	-13.0282
ν	-13.0282
÷	-13.0429
й	-13.0578
ε	-13.0805
θ	-13.0882
ι	-13.0882
이	-13.0959
イ	-13.0959
ラ	-13.1116
м	-13.1116
ş	-13.1195
€	-13.1275
≥	-13.1356
Ũ	-13.1437
`	-13.1602
Ö	-13.1685
⌘	-13.1769
ē	-13.194
Ỳ	-13.2113
ス	-13.2113
س	-13.2378
î	-13.2559
я	-13.2651
г	-13.2651
ト	-13.2931
∗	-13.2931
ة	-13.322
≤	-13.3417
È	-13.3618
ع	-13.3618
κ	-13.3618
ğ	-13.372
п	-13.3823
↵	-13.3823
ت	-13.4139
ŏ	-13.4576
η	-13.4917
リ	-13.4917
大	-13.5033
َ	-13.539
û	-13.5391
ấ	-13.544
า	-13.5512
ь	-13.5512
§	-13.5761
ア	-13.5888
ッ	-13.5888
ド	-13.5888
б	-13.6016
⊞	-13.6016
А	-13.6146
ク	-13.6146
Š	-13.641
ه	-13.641
ف	-13.6411
―	-13.6546
ž	-13.6546
С	-13.6683
√	-13.6683
━	-13.6683
日	-13.6821
일	-13.6822
대	-13.6822
子	-13.6822
Δ	-13.6962
」	-13.6962
ك	-13.7105
†	-13.725
「	-13.725
ɛ	-13.7397
з	-13.7397
ч	-13.7397
人	-13.7546
Å	-13.7546
ร	-13.7546
・	-13.7698
ί	-13.7698
ы	-13.7698
ی	-13.7698
ʊ	-13.7852
®	-13.7852
ș	-13.7852
ό	-13.8008
φ	-13.8167
⁠	-13.8328
아	-13.8328
ω	-13.8492
К	-13.8492
다	-13.8492
タ	-13.8492
#	-13.8638
ロ	-13.8659
ج	-13.8659
ジ	-13.8659
х	-13.8828
本	-13.9001
에	-13.9001
レ	-13.9001
©	-13.9176
¶	-13.9176
ش	-13.9176
사	-13.9176
스	-13.9176
ん	-13.9355
ɑ	-13.9536
王	-13.9536
Ç	-13.9536
Ẽ	-13.9722
ʻ	-13.991
В	-13.991
Õ	-13.991
国	-13.991
기	-13.991
М	-13.991
天	-13.991
서	-13.991
、	-13.991
ウ	-13.991
ˌ	-14.0103
に	-14.0103
น	-14.0299
い	-14.0299
동	-14.0299
中	-14.0499
О	-14.0499
리	-14.0499
き	-14.0499
フ	-14.0499
ブ	-14.0703
ُ	-14.0911
υ	-14.0911
ő	-14.0911
ά	-14.0911
カ	-14.0911
ム	-14.0911
一	-14.0911
∞	-14.1124
ṭ	-14.1124
시	-14.1124
Р	-14.1124
山	-14.1341
新	-14.1563
シ	-14.1791
マ	-14.1791
і	-14.1791
が	-14.1791
ě	-14.1791
会	-14.1791
원	-14.1791
女	-14.1791
ม	-14.1791
な	-14.1791
ط	-14.2023
⇧	-14.2023
∈	-14.2023
ř	-14.2023
年	-14.2261
海	-14.2261
주	-14.2261
ز	-14.2261
고	-14.2261
グ	-14.2261
バ	-14.2261
&	-14.2485
국	-14.2505
ŋ	-14.2505
プ	-14.2505
П	-14.2505
ق	-14.2505
만	-14.2755
ו	-14.2755
공	-14.2755
의	-14.2755
ш	-14.2755
し	-14.2755
ל	-14.3012
ِ	-14.3012
⋮	-14.3012
ィ	-14.3012
인	-14.3012
트	-14.3012
정	-14.3012
と	-14.3012
か	-14.3275
生	-14.3275
니	-14.3275
ŭ	-14.3275
어	-14.3275
¥	-14.3275
소	-14.3275
ה	-14.3275
지	-14.3275
キ	-14.3275
ส	-14.3545
ิ	-14.3545
로	-14.3545
Б	-14.3545
י	-14.3545
전	-14.3545
И	-14.3545
ダ	-14.3545
ʃ	-14.3823
ɡ	-14.3823
‒	-14.3823
氏	-14.3823
는	-14.3823
ț	-14.3823
χ	-14.3823
神	-14.3823
수	-14.3823
り	-14.3823
テ	-14.3823
ก	-14.4109
ั	-14.4109
개	-14.4109
た	-14.4109
三	-14.4403
İ	-14.4403
東	-14.4403
하	-14.4403
う	-14.4403
ζ	-14.4403
コ	-14.4403
ナ	-14.4403
ṣ	-14.4706
デ	-14.4706
上	-14.4706
國	-14.4706
的	-14.4706
ʿ	-14.4706
ж	-14.4706
ḥ	-14.4706
신	-14.4706
연	-14.4706
장	-14.4706
ص	-14.4706
상	-14.4706
한	-14.4706
公	-14.5018
Г	-14.5018
‘	-14.5018
⦾	-14.5018
世	-14.5018
도	-14.5018
¡	-14.5018
は	-14.5018
Н	-14.5018
社	-14.5018
¿	-14.5341
ǎ	-14.5341
Д	-14.5341
☃	-14.5341
요	-14.5341
ュ	-14.5341
•	-14.5654
ّ	-14.5674
Ž	-14.5674
Ü	-14.5674
‰	-14.5674
⟩	-14.5674
物	-14.5674
田	-14.5674
έ	-14.5674
⋅	-14.5674
나	-14.5674
さ	-14.5674
ф	-14.6019
ц	-14.6019
Ø	-14.6019
▶	-14.6019
❑	-14.6019
オ	-14.6019
가	-14.6019
선	-14.6019
위	-14.6019
أ	-14.6019
主	-14.6376
ή	-14.6376
ύ	-14.6376
⌥	-14.6376
오	-14.6376
ビ	-14.6376
♥	-14.6376
平	-14.6376
月	-14.6746
も	-14.6747
ガ	-14.6747
☉	-14.6747
ら	-14.6747
二	-14.6747
文	-14.6747
行	-14.6747
み	-14.6747
道	-14.6747
خ	-14.6747
お	-14.6747
エ	-14.6747
我	-14.6747
်	-14.6747
花	-14.7131
र	-14.7131
之	-14.7131
เ	-14.7131
小	-14.7131
드	-14.7131
월	-14.7131
Ş	-14.7131
구	-14.7131
화	-14.7131
อ	-14.7131
ハ	-14.7131
家	-14.7531
ミ	-14.7531
十	-14.7531
つ	-14.7531
พ	-14.7531
Ω	-14.7531
Т	-14.7531
ר	-14.7531
ツ	-14.7531
界	-14.7531
영	-14.7531
최	-14.7531
Л	-14.7531
美	-14.7531
代	-14.7531
ा	-14.7948
ɔ	-14.7948
メ	-14.7948
라	-14.7948
Σ	-14.7948
У	-14.7948
ล	-14.7948
光	-14.7948
현	-14.7948
る	-14.7948
ズ	-14.7948
明	-14.7948
最	-14.8383
サ	-14.8383
で	-14.8383
学	-14.8383
ա	-14.8383
内	-14.8383
비	-14.8383
ْ	-14.8383
⁡	-14.8383
原	-14.8383
合	-14.8383
마	-14.8383
미	-14.8383
자	-14.8383
ש	-14.8383
親	-14.8383
백	-14.8383
正	-14.8383
第	-14.8383
ニ	-14.8383
ง	-14.8383
を	-14.8837
記	-14.8837
金	-14.8837
א	-14.8837
מ	-14.8837
ע	-14.8837
有	-14.8837
ท	-14.8837
五	-14.8837
랑	-14.8837
세	-14.8837
チ	-14.8837
事	-14.8837
名	-14.8837
성	-14.8837
김	-14.8837
パ	-14.8837
式	-14.8837
『	-14.9313
』	-14.9313
元	-14.9313
民	-14.9313
部	-14.9313
부	-14.9313
유	-14.9313
제	-14.9313
크	-14.9313
해	-14.9313
ɒ	-14.9313
モ	-14.9313
城	-14.9313
그	-14.9313
ุ	-14.9313
여	-14.9313
く	-14.9313
戦	-14.9313
ک	-14.9813
ย	-14.9813
て	-14.9813
語	-14.9813
手	-14.9813
ψ	-14.9813
ė	-14.9813
ǐ	-14.9813
Α	-14.9813
„	-14.9813
太	-14.9813
定	-14.9813
法	-14.9813
단	-14.9813
래	-14.9813
보	-14.9813
차	-14.9813
方	-14.9813
男	-14.9813
너	-14.9813
宮	-14.9813
บ	-14.9813
ด	-15.034
ב	-15.034
出	-15.034
종	-15.034
ま	-15.034
場	-15.034
京	-15.034
北	-15.034
더	-15.034
방	-15.034
은	-15.034
호	-15.034
Κ	-15.034
ห	-15.034
ะ	-15.034
נ	-15.034
ネ	-15.034
ち	-15.034
ボ	-15.034
ョ	-15.034
้	-15.0895
ё	-15.0895
문	-15.0895
중	-15.0895
프	-15.0895
Ñ	-15.0895
غ	-15.0895
≡	-15.0895
⏎	-15.0895
あ	-15.0895
속	-15.0895
音	-15.0895
티	-15.0895
Ш	-15.0895
း	-15.0895
강	-15.0895
데	-15.0895
村	-15.0895
่	-15.0895
高	-15.0895
少	-15.0895
星	-15.0895
Þ	-15.1483
Μ	-15.1483
ю	-15.1483
우	-15.1483
ת	-15.1483
ـ	-15.1483
立	-15.1483
藤	-15.1483
長	-15.1483
무	-15.1483
민	-15.1483
승	-15.1483
운	-15.1483
년	-15.1483
포	-15.1483
ノ	-15.1483
조	-15.1483
仮	-15.1483
ァ	-15.1483
八	-15.1483
～	-15.1484
時	-15.1484
្	-15.2108
ว	-15.2108
者	-15.2108
士	-15.2108
ǒ	-15.2108
์	-15.2108
古	-15.2108
空	-15.2108
郎	-15.2108
재	-15.2108
ħ	-15.2108
Ṁ	-15.2108
會	-15.2108
武	-15.2108
발	-15.2108
회	-15.2108
З	-15.2108
♭	-15.2108
不	-15.2108
木	-15.2108
開	-15.2108
姫	-15.2108
力	-15.2108
李	-15.2108
울	-15.2108
ろ	-15.2108
作	-15.2108
真	-15.2108
全	-15.2108
よ	-15.2775
ต	-15.2775
南	-15.2775
こ	-15.2775
初	-15.2775
ी	-15.2775
்	-15.2775
ベ	-15.2775
Ä	-15.2775
∑	-15.2775
☆	-15.2775
司	-15.2775
和	-15.2775
焼	-15.2775
곡	-15.2775
과	-15.2775
명	-15.2775
예	-15.2775
川	-15.2775
華	-15.2775
集	-15.2775
을	-15.2775
진	-15.2775
す	-15.2775
安	-15.2775
成	-15.2775
雪	-15.2775
관	-15.2775
œ	-15.2775
จ	-15.2775
演	-15.2775
選	-15.2775
化	-15.2775
ช	-15.3489
्	-15.3489
ゲ	-15.3489
発	-15.3489
산	-15.3489
台	-15.3489
四	-15.3489
∆	-15.3489
ゼ	-15.3489
火	-15.3489
레	-15.3489
¬	-15.3489
Ë	-15.3489
Ć	-15.3489
Τ	-15.3489
া	-15.3489
ป	-15.3489
ṇ	-15.3489
∇	-15.3489
⊕	-15.3489
仁	-15.3489
水	-15.3489
英	-15.3489
돌	-15.3489
두	-15.3489
파	-15.3489
わ	-15.3489
교	-15.3489
버	-15.3489
석	-15.3489
ザ	-15.3489
野	-15.3489
ᵻ	-15.3489
島	-15.3489
ピ	-15.3489
Ф	-15.4259
港	-15.4259
မ	-15.4259
ក	-15.4259
科	-15.4259
ន	-15.4259
你	-15.4259
所	-15.4259
ĕ	-15.4259
Π	-15.4259
ى	-15.4259
豆	-15.4259
거	-15.4259
송	-15.4259
야	-15.4259
ň	-15.4259
Θ	-15.4259
پ	-15.4259
₩	-15.4259
信	-15.4259
心	-15.4259
青	-15.4259
계	-15.4259
표	-15.4259
ъ	-15.4259
ธ	-15.4259
រ	-15.4259
特	-15.4259
術	-15.4259
ῆ	-15.4259
地	-15.4259
位	-15.4259
員	-15.4259
回	-15.4259
隊	-15.4259
け	-15.4259
れ	-15.4259
त	-15.5092
ソ	-15.5092
先	-15.5092
無	-15.5092
魔	-15.5092
ր	-15.5092
【	-15.5092
好	-15.5092
皇	-15.5092
ี	-15.5092
前	-15.5092
史	-15.5092
樂	-15.5092
院	-15.5092
ǃ	-15.5092
˧	-15.5092
佳	-15.5092
外	-15.5092
반	-15.5092
Λ	-15.5092
ְ	-15.5092
∥	-15.5092
∫	-15.5092
军	-15.5092
御	-15.5092
육	-15.5092
음	-15.5092
입	-15.5092
출	-15.5092
賞	-15.5092
본	-15.5092
》	-15.5092
謝	-15.5092
ค	-15.5092
】	-15.5092
動	-15.5092
決	-15.5092
ʔ	-15.5092
白	-15.5092
セ	-15.5092
ゴ	-15.5092
品	-15.5092
ヒ	-15.5092
度	-15.5092
坂	-15.6001
市	-15.6001
ָ	-15.6001
軍	-15.6001
ɜ	-15.6001
ู	-15.6001
受	-15.6001
政	-15.6001
西	-15.6001
首	-15.6001
합	-15.6001
Ā	-15.6001
‐	-15.6001
路	-15.6001
˩	-15.6001
ס	-15.6001
‭	-15.6001
學	-15.6001
後	-15.6001
昭	-15.6001
次	-15.6001
衣	-15.6001
香	-15.6001
식	-15.6001
카	-15.6001
홍	-15.6001
ǝ	-15.6001
Е	-15.6001
ն	-15.6001
ַ	-15.6001
ח	-15.6001
ئ	-15.6001
ṛ	-15.6001
↓	-15.6001
∼	-15.6001
⊆	-15.6001
♯	-15.6001
曲	-15.6001
書	-15.6001
雄	-15.6001
격	-15.6001
뮤	-15.6001
있	-15.6001
핑	-15.6001
里	-15.6001
행	-15.6001
ʾ	-15.6001
န	-15.6001
ポ	-15.6001
박	-15.6001
번	-15.6001
ა	-15.6001
ギ	-15.6001
愛	-15.6001
理	-15.6001
超	-15.6001
바	-15.6001
間	-15.6001
面	-15.6001
《	-15.6001
ေ	-15.6001
画	-15.6001
ど	-15.6001
自	-15.7001
っ	-15.7001
風	-15.7001
ワ	-15.7001
ի	-15.7001
性	-15.7001
同	-15.7001
모	-15.7001
활	-15.7001
ʌ	-15.7001
ї	-15.7001
ט	-15.7001
ი	-15.7001
ケ	-15.7001
下	-15.7001
系	-15.7001
館	-15.7001
경	-15.7001
ǔ	-15.7001
Ψ	-15.7001
九	-15.7001
字	-15.7001
爱	-15.7001
色	-15.7001
온	-15.7001
타	-15.7001
터	-15.7001
ų	-15.7001
̂	-15.7001
万	-15.7001
号	-15.7001
君	-15.7001
情	-15.7001
放	-15.7001
絵	-15.7001
頭	-15.7001
남	-15.7001
ג	-15.7001
व	-15.7001
ម	-15.7001
え	-15.7001
ふ	-15.7001
校	-15.7001
義	-15.7001
良	-15.7001
워	-15.7001
ṃ	-15.7001
직	-15.7001
紅	-15.7001
め	-15.7001
期	-15.7001
直	-15.7001
身	-15.8112
प	-15.8112
念	-15.8112
ស	-15.8112
ា	-15.8112
韩	-15.8112
そ	-15.8112
洞	-15.8112
知	-15.8112
限	-15.8112
애	-15.8112
ּ	-15.8112
千	-15.8112
내	-15.8112
체	-15.8112
ɣ	-15.8112
ξ	-15.8112
แ	-15.8112
歌	-15.8112
版	-15.8112
球	-15.8112
門	-15.8112
黒	-15.8112
권	-15.8112
금	-15.8112
말	-15.8112
안	-15.8112
ո	-15.8112
‟	-15.8112
∘	-15.8112
≠	-15.8112
♠	-15.8112
園	-15.8112
楽	-15.8112
見	-15.8112
飯	-15.8112
감	-15.8112
매	-15.8112
생	-15.8112
작	-15.8112
	-15.8112
	-15.8112
ņ	-15.8112
Ḥ	-15.8112
始	-15.8112
江	-15.8112
玉	-15.8112
都	-15.8112
게	-15.8112
노	-15.8112
새	-15.8112
심	-15.8112
윤	-15.8112
코	-15.8112
ث	-15.8112
ἐ	-15.8112
目	-15.8112
足	-15.8112
별	-15.8112
천	-15.8112
ひ	-15.8112
夜	-15.8112
宗	-15.8112
起	-15.8112
車	-15.8112
Ч	-15.8112
業	-15.8112
ォ	-15.8112
教	-15.8112
ာ	-15.8112
〜	-15.9362
剣	-15.9362
स	-15.9362
六	-15.9362
聖	-15.9362
ษ	-15.9362
党	-15.9362
母	-15.9362
要	-15.9362
。	-15.9362
Х	-15.9362
य	-15.9362
ข	-15.9362
福	-15.9362
馬	-15.9362
क	-15.9362
ப	-15.9362
兵	-15.9362
未	-15.9362
ġ	-15.9362
כ	-15.9362
ह	-15.9362
ภ	-15.9362
ไ	-15.9362
吉	-15.9362
德	-15.9362
棋	-15.9362
竹	-15.9362
編	-15.9362
분	-15.9362
살	-15.9362
엔	-15.9362
피	-15.9362
	-15.9362
	-15.9362
Ц	-15.9362
ן	-15.9362
ަ	-15.9362
ं	-15.9362
ল	-15.9362
ṯ	-15.9362
げ	-15.9362
官	-15.9362
影	-15.9362
春	-15.9362
流	-15.9362
鳥	-15.9362
건	-15.9362
결	-15.9362
독	-15.9362
루	-15.9362
몰	-15.9362
물	-15.9362
배	-15.9362
범	-15.9362
역	-15.9362
치	-15.9362
특	-15.9362
ĭ	-15.9362
帝	-15.9362
灣	-15.9362
순	-15.9362
축	-15.9362
多	-15.9362
엑	-15.9362
ゃ	-15.9362
ヤ	-15.9362
鬼	-15.9362
橋	-15.9362
涼	-15.9362
ⴰ	-15.9362
由	-15.9362
突	-15.9362
勝	-15.9362
可	-15.9362
级	-15.9362
七	-15.9362
○	-16.0791
谷	-16.0791
¢	-16.0791
副	-16.0791
ผ	-16.0791
朝	-16.0791
յ	-16.0791
ศ	-16.0791
ญ	-16.0791
ヴ	-16.0791
华	-16.0791
ர	-16.0791
派	-16.0791
組	-16.0791
角	-16.0791
록	-16.0791
블	-16.0791
þ	-16.0791
ʼ	-16.0791
آ	-16.0791
喜	-16.0791
嘉	-16.0791
尾	-16.0791
師	-16.0791
柔	-16.0791
猫	-16.0791
赤	-16.0791
슈	-16.0791
	-16.0791
ÿ	-16.0791
ů	-16.0791
ǁ	-16.0791
Ι	-16.0791
ւ	-16.0791
ד	-16.0791
ז	-16.0791
ם	-16.0791
ض	-16.0791
ٌ	-16.0791
ާ	-16.0791
ल	-16.0791
โ	-16.0791
ွ	-16.0791
‡	-16.0791
⁝	-16.0791
⊂	-16.0791
⊙	-16.0791
久	-16.0791
味	-16.0791
妹	-16.0791
実	-16.0791
布	-16.0791
浦	-16.0791
源	-16.0791
牧	-16.0791
祭	-16.0791
秀	-16.0791
線	-16.0791
若	-16.0791
越	-16.0791
送	-16.0791
鋒	-16.0791
霆	-16.0791
광	-16.0791
든	-16.0791
들	-16.0791
디	-16.0791
복	-16.0791
앨	-16.0791
열	-16.0791
와	-16.0791
즈	-16.0791
집	-16.0791
촌	-16.0791
친	-16.0791
통	-16.0791
틴	-16.0791
판	-16.0791
편	-16.0791
히	-16.0791
𒀭	-16.0791
ो	-16.0791
ἀ	-16.0791
ῦ	-16.0791
保	-16.0791
在	-16.0791
守	-16.0791
徳	-16.0791
盛	-16.0791
군	-16.0791
工	-16.0791
张	-16.0791
战	-16.0791
破	-16.0791
連	-16.0791
马	-16.0791
삼	-16.0791
ⵏ	-16.0791
是	-16.0791
話	-16.0791
阿	-16.0791
飛	-16.0791
艦	-16.0791
တ	-16.0791
兄	-16.0791
想	-16.0791
相	-16.0791
映	-16.0791
熱	-16.2457
ᴅ	-16.2457
ង	-16.2457
尔	-16.2457
萬	-16.2457
ி	-16.2457
ែ	-16.2457
加	-16.2457
型	-16.2457
夢	-16.2457
思	-16.2457
じ	-16.2457
だ	-16.2457
业	-16.2457
宣	-16.2457
松	-16.2457
結	-16.2457
衛	-16.2457
表	-16.2457
த	-16.2457
才	-16.2457
横	-16.2457
省	-16.2457
앞	-16.2457
ִ	-16.2457
٩	-16.2457
ぎ	-16.2457
份	-16.2457
使	-16.2457
冠	-16.2457
半	-16.2457
宝	-16.2457
憲	-16.2457
早	-16.2457
死	-16.2457
河	-16.2457
甘	-16.2457
番	-16.2457
異	-16.2457
石	-16.2457
臺	-16.2457
草	-16.2457
輪	-16.2457
임	-16.2457
저	-16.2457
콘	-16.2457
택	-16.2457
ľ	-16.2457
ť	-16.2457
˥	-16.2457
न	-16.2457
ि	-16.2457
ি	-16.2457
≢	-16.2457
▪	-16.2457
び	-16.2457
や	-16.2457
ユ	-16.2457
也	-16.2457
井	-16.2457
倍	-16.2457
央	-16.2457
姓	-16.2457
娘	-16.2457
居	-16.2457
屋	-16.2457
建	-16.2457
打	-16.2457
智	-16.2457
百	-16.2457
着	-16.2457
紀	-16.2457
记	-16.2457
글	-16.2457
난	-16.2457
돈	-16.2457
딩	-16.2457
란	-16.2457
실	-16.2457
십	-16.2457
악	-16.2457
얼	-16.2457
용	-16.2457
잠	-16.2457
준	-16.2457
창	-16.2457
채	-16.2457
투	-16.2457
ώ	-16.2457
э	-16.2457
ड	-16.2457
ო	-16.2457
ḍ	-16.2457
亜	-16.2457
介	-16.2457
伊	-16.2457
侯	-16.2457
區	-16.2457
场	-16.2457
堂	-16.2457
如	-16.2457
婚	-16.2457
技	-16.2457
林	-16.2457
終	-16.2457
解	-16.2457
議	-16.2457
運	-16.2457
鹿	-16.2457
麻	-16.2457
듀	-16.2457
목	-16.2457
법	-16.2457
봉	-16.2457
Β	-16.2457
寿	-16.2457
洋	-16.2457
炊	-16.2457
귀	-16.2457
태	-16.2457
ნ	-16.2457
崎	-16.2457
命	-16.2457
奈	-16.2458
機	-16.2458
ပ	-16.2458
役	-16.2458
関	-16.2458
ទ	-16.4457
博	-16.4457
哈	-16.4457
团	-16.4457
恋	-16.4457
纪	-16.4457
乐	-16.4457
與	-16.4457
ត	-16.4457
報	-16.4457
登	-16.4457
血	-16.4457
賢	-16.4457
ज	-16.4457
制	-16.4457
弦	-16.4457
束	-16.4457
総	-16.4457
赵	-16.4457
ե	-16.4457
մ	-16.4457
龙	-16.4457
탄	-16.4457
Û	-16.4457
共	-16.4457
別	-16.4457
峇	-16.4457
忠	-16.4457
永	-16.4457
골	-16.4457
Ж	-16.4457
Я	-16.4457
қ	-16.4457
ө	-16.4457
佐	-16.4457
体	-16.4457
変	-16.4457
婆	-16.4457
席	-16.4457
羅	-16.4457
舞	-16.4457
郭	-16.4457
闘	-16.4457
베	-16.4457
쇼	-16.4457
엘	-16.4457
ű	-16.4457
̈	-16.4457
͘	-16.4457
ظ	-16.4457
ہ	-16.4457
ރ	-16.4457
ދ	-16.4457
ण	-16.4457
ब	-16.4457
Ḁ	-16.4457
ὐ	-16.4457
ὰ	-16.4457
ῶ	-16.4457
‚	-16.4457
∓	-16.4457
⎙	-16.4457
々	-16.4457
ず	-16.4457
了	-16.4457
亞	-16.4457
催	-16.4457
刀	-16.4457
列	-16.4457
友	-16.4457
园	-16.4457
夫	-16.4457
奇	-16.4457
嬪	-16.4457
孫	-16.4457
宋	-16.4457
宿	-16.4457
寺	-16.4457
州	-16.4457
康	-16.4457
弾	-16.4457
报	-16.4457
揚	-16.4457
改	-16.4457
时	-16.4457
更	-16.4457
来	-16.4457
構	-16.4457
沢	-16.4457
点	-16.4457
用	-16.4457
电	-16.4457
級	-16.4457
臣	-16.4457
茶	-16.4457
观	-16.4457
課	-16.4457
護	-16.4457
豪	-16.4457
通	-16.4457
造	-16.4457
達	-16.4457
酒	-16.4457
鍋	-16.4457
陳	-16.4457
離	-16.4457
雲	-16.4457
電	-16.4457
간	-16.4457
까	-16.4457
논	-16.4457
당	-16.4457
등	-16.4457
력	-16.4457
령	-16.4457
맨	-16.4457
병	-16.4457
솔	-16.4457
씨	-16.4457
약	-16.4457
양	-16.4457
왕	-16.4457
잡	-16.4457
즌	-16.4457
첩	-16.4457
키	-16.4457
토	-16.4457
틀	-16.4457
팅	-16.4457
팬	-16.4457
페	-16.4457
ǧ	-16.4457
ǫ	-16.4457
Φ	-16.4457
Э	-16.4457
च	-16.4457
ご	-16.4457
ば	-16.4457
入	-16.4457
再	-16.4457
創	-16.4457
密	-16.4457
杯	-16.4457
森	-16.4457
红	-16.4457
각	-16.4457
훈	-16.4457
善	-16.4457
零	-16.4457
ယ	-16.4457
ῖ	-16.4457
せ	-16.4457
将	-16.4457
开	-16.4457
瀬	-16.4458
局	-16.4458
ု	-16.4458
ὑ	-16.6957
分	-16.6957
速	-16.6957
Ο	-16.6957
他	-16.6957
戀	-16.6957
狂	-16.6957
程	-16.6957
网	-16.6957
葉	-16.6957
诗	-16.6957
म	-16.6957
ु	-16.6957
常	-16.6957
精	-16.6957
ˁ	-16.6957
տ	-16.6957
ק	-16.6957
ؤ	-16.6957
ா	-16.6957
利	-16.6957
巴	-16.6957
族	-16.6957
油	-16.6957
漫	-16.6957
索	-16.6957
諸	-16.6957
陽	-16.6957
았	-16.6957
클	-16.6957
Ε	-16.6957
ܣ	-16.6957
ܪ	-16.6957
ग	-16.6957
★	-16.6957
べ	-16.6957
干	-16.6957
志	-16.6957
戸	-16.6957
授	-16.6957
昌	-16.6957
机	-16.6957
染	-16.6957
渡	-16.6957
琶	-16.6957
菜	-16.6957
落	-16.6957
重	-16.6957
龍	-16.6957
녕	-16.6957
변	-16.6957
북	-16.6957
색	-16.6957
습	-16.6957
텔	-16.6957
평	-16.6957
右	-16.6957
土	-16.6957
孟	-16.6957
希	-16.6957
張	-16.6957
拂	-16.6957
津	-16.6957
禹	-16.6957
肖	-16.6957
街	-16.6957
黄	-16.6957
불	-16.6957
충	-16.6957
	-16.6957
Ľ	-16.6957
ɦ	-16.6957
̆	-16.6957
̌	-16.6957
Η	-16.6957
ӣ	-16.6957
گ	-16.6957
ނ	-16.6957
द	-16.6957
ე	-16.6957
თ	-16.6957
რ	-16.6957
ᾶ	-16.6957
›	-16.6957
∀	-16.6957
∣	-16.6957
∨	-16.6957
∩	-16.6957
⌊	-16.6957
⑆	-16.6957
ざ	-16.6957
乡	-16.6957
令	-16.6957
任	-16.6957
伝	-16.6957
传	-16.6957
務	-16.6957
協	-16.6957
吃	-16.6957
夏	-16.6957
妙	-16.6957
寄	-16.6957
富	-16.6957
対	-16.6957
尊	-16.6957
尹	-16.6957
岁	-16.6957
峰	-16.6957
帯	-16.6957
府	-16.6957
弟	-16.6957
承	-16.6957
振	-16.6957
数	-16.6957
普	-16.6957
梨	-16.6957
検	-16.6957
橙	-16.6957
沙	-16.6957
活	-16.6957
清	-16.6957
甲	-16.6957
病	-16.6957
矢	-16.6957
站	-16.6957
節	-16.6957
納	-16.6957
腐	-16.6957
興	-16.6957
芦	-16.6957
蔵	-16.6957
藍	-16.6957
計	-16.6957
近	-16.6957
鋼	-16.6957
长	-16.6957
雷	-16.6957
領	-16.6957
魏	-16.6957
걸	-16.6957
것	-16.6957
득	-16.6957
또	-16.6957
러	-16.6957
봐	-16.6957
브	-16.6957
빈	-16.6957
빛	-16.6957
손	-16.6957
억	-16.6957
욱	-16.6957
으	-16.6957
익	-16.6957
죤	-16.6957
참	-16.6957
처	-16.6957
추	-16.6957
측	-16.6957
했	-16.6957
형	-16.6957
혼	-16.6957
후	-16.6957
	-16.6957
ɯ	-16.6957
単	-16.6957
后	-16.6957
団	-16.6957
岐	-16.6957
強	-16.6957
支	-16.6957
混	-16.6957
漢	-16.6957
煮	-16.6957
紫	-16.6957
録	-16.6957
꽃	-16.6957
빼	-16.6957
잖	-16.6957
찾	-16.6957
ҳ	-16.6957
ް	-16.6957
័	-16.6957
吾	-16.6957
探	-16.6957
藝	-16.6957
規	-16.6957
迎	-16.6957
進	-16.6957
銀	-16.6957
际	-16.6957
규	-16.6957
량	-16.6957
써	-16.6957
勢	-16.6957
幻	-16.6957
秘	-16.6957
等	-16.6957
遊	-16.6957
ခ	-16.6957
朱	-16.6957
榜	-16.6957
考	-16.6957
恩	-16.6957
現	-16.6957
ရ	-16.6958
へ	-16.6958
言	-16.6958
殺	-16.6958
週	-16.6958
片	-16.6958
泉	-16.6958
背	-16.6958
続	-16.6958
秋	-17.029
薇	-17.029
າ	-17.029
ំ	-17.029
县	-17.029
投	-17.029
车	-17.029
队	-17.029
ី	-17.0291
丽	-17.0291
素	-17.0291
失	-17.0291
ய	-17.0291
ณ	-17.0291
ს	-17.0291
់	-17.0291
戏	-17.0291
极	-17.0291
榮	-17.0291
秦	-17.0291
蒼	-17.0291
警	-17.0291
调	-17.0291
过	-17.0291
際	-17.0291
吸	-17.0291
ம	-17.0291
ถ	-17.0291
ゥ	-17.0291
温	-17.0291
隆	-17.0291
ս	-17.0291
ட	-17.0291
劇	-17.0291
歳	-17.0291
段	-17.0291
汉	-17.0291
注	-17.0291
澤	-17.0291
灵	-17.0291
黑	-17.0291
ɨ	-17.0291
ẓ	-17.0291
ゅ	-17.0291
잔	-17.0291
̨	-17.0291
ذ	-17.0291
ډ	-17.0291
东	-17.0291
伏	-17.0291
众	-17.0291
個	-17.0291
冷	-17.0291
口	-17.0291
商	-17.0291
孝	-17.0291
帽	-17.0291
彦	-17.0291
曹	-17.0291
条	-17.0291
権	-17.0291
樹	-17.0291
求	-17.0291
浴	-17.0291
游	-17.0291
潘	-17.0291
珍	-17.0291
祇	-17.0291
祖	-17.0291
离	-17.0291
粉	-17.0291
習	-17.0291
聯	-17.0291
菅	-17.0291
蘭	-17.0291
誕	-17.0291
賀	-17.0291
鄭	-17.0291
덕	-17.0291
콜	-17.0291
함	-17.0291
ȁ	-17.0291
ɸ	-17.0291
Υ	-17.0291
ў	-17.0291
ә	-17.0291
զ	-17.0291
հ	-17.0291
ً	-17.0291
٣	-17.0291
٤	-17.0291
چ	-17.0291
ܐ	-17.0291
ܬ	-17.0291
ހ	-17.0291
އ	-17.0291
ި	-17.0291
ީ	-17.0291
ठ	-17.0291
भ	-17.0291
े	-17.0291
ট	-17.0291
্	-17.0291
ை	-17.0291
ི	-17.0291
ထ	-17.0291
በ	-17.0291
Ꭲ	-17.0291
Ꭺ	-17.0291
យ	-17.0291
ῷ	-17.0291
‹	-17.0291
↑	-17.0291
∖	-17.0291
∝	-17.0291
⊇	-17.0291
⊗	-17.0291
▼	-17.0291
ⵓ	-17.0291
ⵜ	-17.0291
乳	-17.0291
予	-17.0291
于	-17.0291
伯	-17.0291
來	-17.0291
修	-17.0291
倪	-17.0291
優	-17.0291
儿	-17.0291
兒	-17.0291
典	-17.0291
写	-17.0291
到	-17.0291
剧	-17.0291
劍	-17.0291
功	-17.0291
动	-17.0291
区	-17.0291
午	-17.0291
向	-17.0291
周	-17.0291
唐	-17.0291
圓	-17.0291
妻	-17.0291
完	-17.0291
对	-17.0291
巻	-17.0291
廠	-17.0291
彬	-17.0291
律	-17.0291
得	-17.0291
快	-17.0291
惹	-17.0291
感	-17.0291
慶	-17.0291
指	-17.0291
掌	-17.0291
晴	-17.0291
暴	-17.0291
札	-17.0291
杉	-17.0291
档	-17.0291
欢	-17.0291
歡	-17.0291
殿	-17.0291
烈	-17.0291
熊	-17.0291
狐	-17.0291
狗	-17.0291
瑟	-17.0291
県	-17.0291
礼	-17.0291
禍	-17.0291
米	-17.0291
經	-17.0291
聲	-17.0291
肉	-17.0291
芳	-17.0291
荣	-17.0291
蒲	-17.0291
蘆	-17.0291
衫	-17.0291
装	-17.0291
談	-17.0291
辣	-17.0291
迷	-17.0291
郡	-17.0291
鏡	-17.0291
钟	-17.0291
铁	-17.0291
门	-17.0291
陵	-17.0291
階	-17.0291
雜	-17.0291
风	-17.0291
駅	-17.0291
麈	-17.0291
꿈	-17.0291
낙	-17.0291
날	-17.0291
널	-17.0291
누	-17.0291
능	-17.0291
달	-17.0291
담	-17.0291
랙	-17.0291
랜	-17.0291
럼	-17.0291
료	-17.0291
류	-17.0291
를	-17.0291
립	-17.0291
벌	-17.0291
뷰	-17.0291
숭	-17.0291
싱	-17.0291
암	-17.0291
엽	-17.0291
외	-17.0291
응	-17.0291
칠	-17.0291
칭	-17.0291
캐	-17.0291
팝	-17.0291
혁	-17.0291
홉	-17.0291
효	-17.0291
흡	-17.0291
희	-17.0291
	-17.0291
ļ	-17.0291
ध	-17.0291
₹	-17.0291
克	-17.0291
厚	-17.0291
呼	-17.0291
坡	-17.0291
壱	-17.0291
庄	-17.0291
柱	-17.0291
湯	-17.0291
町	-17.0291
稲	-17.0291
錦	-17.0291
鍾	-17.0291
셔	-17.0291
ব	-17.0291
ম	-17.0291
ぱ	-17.0291
丸	-17.0291
乗	-17.0291
亭	-17.0291
其	-17.0291
岡	-17.0291
広	-17.0291
座	-17.0291
望	-17.0291
果	-17.0291
波	-17.0291
现	-17.0291
純	-17.0291
細	-17.0291
虎	-17.0291
防	-17.0291
雾	-17.0291
體	-17.0291
鳳	-17.0291
옥	-17.0291
잘	-17.0291
청	-17.0291
패	-17.0291
향	-17.0291
환	-17.0291
ɲ	-17.0291
ֶ	-17.0291
ֹ	-17.0291
ვ	-17.0291
უ	-17.0291
ព	-17.0291
ុ	-17.0291
景	-17.0291
杨	-17.0291
比	-17.0291
羽	-17.0291
能	-17.0291
获	-17.0291
雅	-17.0291
雨	-17.0291
革	-17.0291
權	-17.0291
浜	-17.0291
ে	-17.0291
導	-17.0291
独	-17.0291
풍	-17.0291
ׁ	-17.0291
က	-17.0291
ိ	-17.0291
伟	-17.0291
别	-17.0291
取	-17.0291
客	-17.0291
幕	-17.0291
微	-17.0291
查	-17.0291
歴	-17.0291
洲	-17.0291
縄	-17.0291
鱼	-17.0291
僕	-17.0291
ゆ	-17.0291
何	-17.0291
観	-17.0291
ほ	-17.0291
む	-17.0291
今	-17.0291
砲	-17.0291
須	-17.0291
竜	-17.529
ច	-17.529
េ	-17.529
俺	-17.529
怒	-17.529
泣	-17.529
爭	-17.529
詩	-17.529
被	-17.529
ນ	-17.5291
ຫ	-17.5291
ဝ	-17.5291
产	-17.5291
復	-17.5291
欅	-17.5291
漳	-17.5291
监	-17.5291
脑	-17.5291
視	-17.5291
陈	-17.5291
往	-17.5291
ฟ	-17.5291
க	-17.5291
វ	-17.5291
刑	-17.5291
创	-17.5291
务	-17.5291
告	-17.5291
哥	-17.5291
單	-17.5291
姉	-17.5291
尼	-17.5291
杀	-17.5291
棒	-17.5291
此	-17.5291
盧	-17.5291
絶	-17.5291
终	-17.5291
翼	-17.5291
耶	-17.5291
荘	-17.5291
誓	-17.5291
辺	-17.5291
遣	-17.5291
震	-17.5291
책	-17.5291
鯨	-17.5291
때	-17.5291
Ɔ	-17.5291
ѕ	-17.5291
դ	-17.5291
့	-17.5291
Ῥ	-17.5291
╯	-17.5291
侘	-17.5291
倭	-17.5291
傳	-17.5291
吴	-17.5291
奥	-17.5291
斯	-17.5291
格	-17.5291
梁	-17.5291
涉	-17.5291
痛	-17.5291
競	-17.5291
算	-17.5291
聞	-17.5291
踊	-17.5291
還	-17.5291
邪	-17.5291
鄉	-17.5291
錢	-17.5291
關	-17.5291
霊	-17.5291
頼	-17.5291
鴨	-17.5291
견	-17.5291
케	-17.5291
ʹ	-17.5291
乱	-17.5291
呉	-17.5291
姚	-17.5291
徽	-17.5291
摄	-17.5291
斎	-17.5291
犬	-17.5291
猎	-17.5291
管	-17.5291
貴	-17.5291
走	-17.5291
辛	-17.5291
运	-17.5291
钉	-17.5291
霸	-17.5291
밀	-17.5291
볼	-17.5291
	-17.5291
ĸ	-17.5291
ǰ	-17.5291
˦	-17.5291
ˮ	-17.5291
̱	-17.5291
Ξ	-17.5291
є	-17.5291
ң	-17.5291
ұ	-17.5291
ҷ	-17.5291
ծ	-17.5291
־	-17.5291
ٍ	-17.5291
ڠ	-17.5291
ۇ	-17.5291
۱	-17.5291
ܠ	-17.5291
ܢ	-17.5291
ސ	-17.5291
ै	-17.5291
ং	-17.5291
দ	-17.5291
ভ	-17.5291
র	-17.5291
৳	-17.5291
ல	-17.5291
പ	-17.5291
ර	-17.5291
ා	-17.5291
ฒ	-17.5291
ึ	-17.5291
་	-17.5291
ཨ	-17.5291
ဖ	-17.5291
ီ	-17.5291
္	-17.5291
ბ	-17.5291
ና	-17.5291
Ḏ	-17.5291
ḳ	-17.5291
ṉ	-17.5291
ἱ	-17.5291
ὁ	-17.5291
ὄ	-17.5291
ὶ	-17.5291
ὸ	-17.5291
‪	-17.5291
‬	-17.5291
℞	-17.5291
↦	-17.5291
⇀	-17.5291
⇩	-17.5291
∏	-17.5291
∙	-17.5291
≅	-17.5291
≪	-17.5291
⋆	-17.5291
▴	-17.5291
♂	-17.5291
♮	-17.5291
✳	-17.5291
➝	-17.5291
ⴷ	-17.5291
ぁ	-17.5291
づ	-17.5291
ね	-17.5291
ぴ	-17.5291
ヘ	-17.5291
ヨ	-17.5291
串	-17.5291
丼	-17.5291
乃	-17.5291
互	-17.5291
交	-17.5291
亮	-17.5291
亿	-17.5291
仕	-17.5291
住	-17.5291
健	-17.5291
內	-17.5291
关	-17.5291
兴	-17.5291
养	-17.5291
况	-17.5291
凡	-17.5291
剛	-17.5291
及	-17.5291
反	-17.5291
发	-17.5291
叶	-17.5291
問	-17.5291
图	-17.5291
垣	-17.5291
塩	-17.5291
头	-17.5291
奏	-17.5291
姐	-17.5291
姗	-17.5291
威	-17.5291
存	-17.5291
宇	-17.5291
宏	-17.5291
实	-17.5291
寛	-17.5291
导	-17.5291
專	-17.5291
尚	-17.5291
尺	-17.5291
展	-17.5291
属	-17.5291
崇	-17.5291
嶽	-17.5291
左	-17.5291
巨	-17.5291
巳	-17.5291
巾	-17.5291
幽	-17.5291
广	-17.5291
延	-17.5291
弓	-17.5291
弥	-17.5291
当	-17.5291
录	-17.5291
彼	-17.5291
忘	-17.5291
怎	-17.5291
总	-17.5291
恵	-17.5291
悪	-17.5291
意	-17.5291
應	-17.5291
折	-17.5291
披	-17.5291
挙	-17.5291
搭	-17.5291
敬	-17.5291
料	-17.5291
施	-17.5291
旅	-17.5291
旋	-17.5291
无	-17.5291
昆	-17.5291
昊	-17.5291
曉	-17.5291
曽	-17.5291
朽	-17.5291
权	-17.5291
柑	-17.5291
样	-17.5291
核	-17.5291
桑	-17.5291
桥	-17.5291
梅	-17.5291
概	-17.5291
標	-17.5291
橘	-17.5291
池	-17.5291
沒	-17.5291
泰	-17.5291
洁	-17.5291
洪	-17.5291
浮	-17.5291
深	-17.5291
湾	-17.5291
漬	-17.5291
潔	-17.5291
災	-17.5291
炎	-17.5291
热	-17.5291
照	-17.5291
爾	-17.5291
牢	-17.5291
獎	-17.5291
琴	-17.5291
盆	-17.5291
眼	-17.5291
砂	-17.5291
磨	-17.5291
禁	-17.5291
禄	-17.5291
禮	-17.5291
秒	-17.5291
穴	-17.5291
粵	-17.5291
維	-17.5291
網	-17.5291
约	-17.5291
结	-17.5291
缘	-17.5291
罗	-17.5291
老	-17.5291
聚	-17.5291
育	-17.5291
舟	-17.5291
节	-17.5291
芬	-17.5291
苗	-17.5291
荒	-17.5291
菱	-17.5291
萧	-17.5291
蓮	-17.5291
薩	-17.5291
蘇	-17.5291
號	-17.5291
蚊	-17.5291
蛇	-17.5291
蜀	-17.5291
袅	-17.5291
裏	-17.5291
裙	-17.5291
評	-17.5291
調	-17.5291
論	-17.5291
计	-17.5291
论	-17.5291
说	-17.5291
谢	-17.5291
象	-17.5291
貓	-17.5291
賽	-17.5291
趣	-17.5291
蹴	-17.5291
輝	-17.5291
轉	-17.5291
返	-17.5291
述	-17.5291
选	-17.5291
逢	-17.5291
邑	-17.5291
郁	-17.5291
郷	-17.5291
鈔	-17.5291
鑑	-17.5291
锁	-17.5291
锺	-17.5291
镇	-17.5291
陁	-17.5291
陰	-17.5291
隠	-17.5291
难	-17.5291
雁	-17.5291
霖	-17.5291
露	-17.5291
非	-17.5291
鞍	-17.5291
順	-17.5291
題	-17.5291
額	-17.5291
领	-17.5291
食	-17.5291
駿	-17.5291
魚	-17.5291
魯	-17.5291
鲁	-17.5291
鳴	-17.5291
鶴	-17.5291
鹏	-17.5291
黎	-17.5291
點	-17.5291
Ꜣ	-17.5291
ꠤ	-17.5291
겠	-17.5291
곤	-17.5291
굴	-17.5291
귤	-17.5291
극	-17.5291
급	-17.5291
길	-17.5291
깡	-17.5291
꾸	-17.5291
꾼	-17.5291
넷	-17.5291
녹	-17.5291
답	-17.5291
됐	-17.5291
된	-17.5291
떠	-17.5291
뛰	-17.5291
락	-17.5291
랄	-17.5291
람	-17.5291
른	-17.5291
린	-17.5291
림	-17.5291
맛	-17.5291
먹	-17.5291
멱	-17.5291
면	-17.5291
붐	-17.5291
빵	-17.5291
뿜	-17.5291
섯	-17.5291
섹	-17.5291
술	-17.5291
슬	-17.5291
쓰	-17.5291
앉	-17.5291
얀	-17.5291
었	-17.5291
완	-17.5291
웹	-17.5291
쟁	-17.5291
적	-17.5291
점	-17.5291
졌	-17.5291
족	-17.5291
죠	-17.5291
찜	-17.5291
쳐	-17.5291
큰	-17.5291
툰	-17.5291
팀	-17.5291
펑	-17.5291
플	-17.5291
핏	-17.5291
헌	-17.5291
혜	-17.5291
	-17.5291
	-17.5291
￼	-17.5291
𐰤	-17.5291
𒂊	-17.5291
𡦂	-17.5291
ḏ	-17.5291
↔	-17.5291
┻	-17.5291
咲	-17.5291
宫	-17.5291
幸	-17.5291
汗	-17.5291
泥	-17.5291
端	-17.5291
責	-17.5291
転	-17.5291
鉄	-17.5291
餅	-17.5291
깨	-17.5291
잊	-17.5291
철	-17.5291
테	-17.5291
Ī	-17.5291
Ɛ	-17.5291
Ν	-17.5291
կ	-17.5291
ܓ	-17.5291
ढ	-17.5291
ू	-17.5291
ள	-17.5291
ἰ	-17.5291
厅	-17.5291
各	-17.5291
姑	-17.5291
徒	-17.5291
忍	-17.5291
搶	-17.5291
済	-17.5291
湖	-17.5291
滝	-17.5291
激	-17.5291
猿	-17.5291
蝶	-17.5291
衢	-17.5291
讃	-17.5291
那	-17.5291
酢	-17.5291
静	-17.5291
룡	-17.5291
밤	-17.5291
삽	-17.5291
질	-17.5291
︢	-17.5291
ү	-17.5291
ហ	-17.5291
争	-17.5291
休	-17.5291
凰	-17.5291
奪	-17.5291
底	-17.5291
於	-17.5291
晚	-17.5291
步	-17.5291
盤	-17.5291
紹	-17.5291
纸	-17.5291
纾	-17.5291
翻	-17.5291
艺	-17.5291
译	-17.5291
边	-17.5291
閃	-17.5291
접	-17.5291
폭	-17.5291
휘	-17.5291
浪	-17.5291
胡	-17.5291
汁	-17.5291
ょ	-17.5291
ヶ	-17.5291
云	-17.5291
具	-17.5291
师	-17.5291
强	-17.5291
曝	-17.5291
章	-17.5291
赛	-17.5291
躍	-17.5291
囂	-17.5291
室	-17.5291
届	-17.5291
岸	-17.5291
植	-17.5291
為	-17.5291
抜	-17.5291
産	-17.5292
追	-17.5292
𒍪	-18.4985
𒂗	-18.4986
황	-18.4987
확	-18.4988
헤	-18.4989
퍼	-18.499
팥	-18.4991
퇴	-18.4992
탈	-18.4993
큼	-18.4994
침	-18.4995
츠	-18.4996
취	-18.4997
초	-18.4998
찍	-18.4999
쩔	-18.5
짝	-18.5001
줄	-18.5002
웬	-18.5003
올	-18.5004
엠	-18.5005
언	-18.5006
싸	-18.5007
싫	-18.5008
센	-18.5009
벗	-18.501
받	-18.5011
머	-18.5012
맹	-18.5013
막	-18.5014
릿	-18.5015
런	-18.5016
뜨	-18.5017
뚜	-18.5018
될	-18.5019
델	-18.502
닝	-18.5021
낭	-18.5022
騎	-18.5023
题	-18.5024
隣	-18.5025
険	-18.5026
鎮	-18.5027
過	-18.5028
资	-18.5029
詳	-18.503
蛮	-18.5031
菓	-18.5032
紊	-18.5033
签	-18.5034
禅	-18.5035
祎	-18.5036
磊	-18.5037
確	-18.5038
監	-18.5039
父	-18.504
爪	-18.5041
燒	-18.5042
熟	-18.5043
沖	-18.5044
様	-18.5045
棠	-18.5046
梦	-18.5047
桜	-18.5048
暗	-18.5049
昂	-18.505
旗	-18.5051
斗	-18.5052
挑	-18.5053
拉	-18.5054
惡	-18.5055
幹	-18.5056
孩	-18.5057
姻	-18.5058
奄	-18.5059
坊	-18.506
哪	-18.5061
労	-18.5062
劃	-18.5063
剌	-18.5064
刘	-18.5065
冰	-18.5066
儀	-18.5067
偉	-18.5068
优	-18.5069
们	-18.507
ぐ	-18.5071
ⵙ	-18.5072
∪	-18.5073
⇒	-18.5074
↯	-18.5075
₽	-18.5076
₱	-18.5077
Ὑ	-18.5078
ἶ	-18.5079
Ἡ	-18.508
Ἐ	-18.5081
ἑ	-18.5082
ṷ	-18.5083
Ṭ	-18.5084
ḫ	-18.5085
ួ	-18.5086
ូ	-18.5087
ល	-18.5088
ှ	-18.5089
ျ	-18.509
ဲ	-18.5091
အ	-18.5092
လ	-18.5093
ฐ	-18.5094
ত	-18.5095
ও	-18.5096
ঁ	-18.5097
ौ	-18.5098
़	-18.5099
ष	-18.51
थ	-18.5101
ޚ	-18.5102
ޖ	-18.5103
ܘ	-18.5104
ێ	-18.5105
ڕ	-18.5106
ׂ	-18.5107
ֵ	-18.5108
թ	-18.5109
Հ	-18.511
Թ	-18.5111
ћ	-18.5112
І	-18.5113
Ѕ	-18.5114
ϸ	-18.5115
ɹ	-18.5116
	-18.5117
팔	-18.5118
촬	-18.5119
째	-18.512
짓	-18.5121
젝	-18.5122
앙	-18.5123
빠	-18.5124
빌	-18.5125
귈	-18.5126
겨	-18.5127
麦	-18.5128
鞠	-18.5129
錬	-18.513
轅	-18.5131
軒	-18.5132
販	-18.5133
视	-18.5134
蕎	-18.5135
般	-18.5136
舉	-18.5137
脱	-18.5138
股	-18.5139
環	-18.514
琵	-18.5141
湣	-18.5142
楊	-18.5143
柯	-18.5144
婧	-18.5145
企	-18.5146
₤	-18.5147
ῥ	-18.5148
Ṣ	-18.5149
ḷ	-18.515
ქ	-18.5151
გ	-18.5152
ฎ	-18.5153
գ	-18.5154
Ա	-18.5155
Є	-18.5156
Χ	-18.5157
̥	-18.5158
˨	-18.5159
Ū	-18.516
ŕ	-18.5161
Ġ	-18.5162
Ğ	-18.5163
탑	-18.5164
퀴	-18.5165
벳	-18.5166
벨	-18.5167
못	-18.5168
같	-18.5169
鈴	-18.517
蔡	-18.5171
至	-18.5172
約	-18.5173
研	-18.5174
督	-18.5175
珠	-18.5176
気	-18.5177
ホ	-18.5178
◦	-18.5179
⌋	-18.518
∅	-18.5181
※	-18.5182
ḿ	-18.5183
៉	-18.5184
ြ	-18.5185
စ	-18.5186
ํ	-18.5187
ื	-18.5188
ச	-18.5189
ެ	-18.519
վ	-18.5191
ј	-18.5192
👁	-18.5193
설	-18.5194
룸	-18.5195
눈	-18.5196
네	-18.5197
込	-18.5198
製	-18.5199
袁	-18.52
欧	-18.5201
Ἑ	-18.5202
ះ	-18.5203
ံ	-18.5204
ன	-18.5205
স	-18.5206
ǵ	-18.5207
븐	-18.5208
닛	-18.5209
韓	-18.521
葫	-18.5211
航	-18.5212
糖	-18.5213
究	-18.5214
執	-18.5215
ヌ	-18.5216
ぼ	-18.5217
✓	-18.5218
△	-18.5219
ლ	-18.522
ǂ	-18.5221
좋	-18.5222
빅	-18.5223
멤	-18.5224
룹	-18.5225
唱	-18.5226
ペ	-18.5227
∂	-18.5228
ṅ	-18.5229
ោ	-18.523
็	-18.5231
١	-18.5232
צ	-18.5233
ǀ	-18.5234
학	-18.5235
治	-18.5236
委	-18.5237
员	-18.5238
ぶ	-18.5239
Ἀ	-18.524
Ρ	-18.5241
̊	-18.5242
Ń	-18.5243
️	-18.5244
메	-18.5245
売	-18.5246
⚙	-18.5247
↹	-18.5248
Ỵ	-18.5249
ƒ	-18.525
없	-18.5251
뉴	-18.5252
뷔	-18.5253
뱅	-18.5254
င	-18.5255
פ	-18.5256
͡	-18.5257
̅	-18.5258
컴	-18.5259
늘	-18.526
إ	-18.5261
ء	-18.5262
̧	-18.5263
̇	-18.5264
株	-18.5265
щ	-18.5266
Γ	-18.5267
⋯	-18.5268
̄	-18.5269
ţ	-18.527
첫	-18.5271
ʒ	-18.5272
⟨	-18.5273
녀	-18.5274
ェ	-18.5275
Æ	-18.5276
≈	-18.5277
Ẵ	-18.5278
☰	-18.5279
ャ	-18.528
Î	-18.5281
●	-18.5282
←	-18.5283
ح	-18.5284
Ẳ	-18.5285
Č	-18.5286
Ẹ	-18.5287
Ō	-18.5288
因	-18.5289
Ắ	-18.5289
卫	-18.529
哭	-18.529
牙	-18.529
狼	-18.529
獵	-18.529
笑	-18.529
脚	-18.529
裕	-18.529
辱	-18.529
[	-18.529
ມ	-18.529
ສ	-18.529
ະ	-18.529
້	-18.529
ໍ	-18.529
គ	-18.529
ថ	-18.529
专	-18.529
丧	-18.529
均	-18.529
履	-18.529
岛	-18.529
岷	-18.529
扫	-18.529
拏	-18.529
整	-18.529
斩	-18.529
旧	-18.529
栗	-18.529
汽	-18.529
滨	-18.529
症	-18.529
瘾	-18.529
禾	-18.529
稼	-18.529
肃	-18.529
胜	-18.529
蛙	-18.529
詠	-18.529
誘	-18.529
謹	-18.529
量	-18.529
销	-18.529
Բ	-18.529
Զ	-18.529
Է	-18.529
լ	-18.529
ջ	-18.529
ந	-18.529
ு	-18.529
ใ	-18.529
ឧ	-18.529
ἕ	-18.529
供	-18.529
倉	-18.529
冊	-18.529
准	-18.529
办	-18.529
双	-18.529
夕	-18.529
宙	-18.529
掘	-18.529
揭	-18.529
柏	-18.529
淡	-18.529
瑋	-18.529
种	-18.529
舒	-18.529
赦	-18.529
酱	-18.529
阪	-18.529
陸	-18.529
駒	-18.529
魅	-18.529
땅	-18.529
릴	-18.529
잭	-18.529
	-18.529
ʤ	-18.5291
ϊ	-18.5291
٦	-18.5291
ܝ	-18.5291
ܦ	-18.5291
ओ	-18.5291
औ	-18.5291
இ	-18.5291
ቅ	-18.5291
仿	-18.5291
割	-18.5291
卑	-18.5291
孤	-18.5291
實	-18.5291
形	-18.5291
惣	-18.5291
憶	-18.5291
搖	-18.5291
斉	-18.5291
曾	-18.5291
沼	-18.5291
淑	-18.5291
燕	-18.5291
牟	-18.5291
策	-18.5291
臨	-18.5291
薔	-18.5291
虾	-18.5291
蛸	-18.5291
諭	-18.5291
謙	-18.5291
貪	-18.5291
还	-18.5291
逆	-18.5291
釋	-18.5291
银	-18.5291
降	-18.5291
陣	-18.5291
麩	-18.5291
갓	-18.5291
꺼	-18.5291
놀	-18.5291
딘	-18.5291
땀	-18.5291
Ē	-18.5291
Ș	-18.5291
ᅢ	-18.5291
Ḩ	-18.5291
▷	-18.5291
乙	-18.5291
佛	-18.5291
决	-18.5291
句	-18.5291
吕	-18.5291
哲	-18.5291
增	-18.5291
捉	-18.5291
暲	-18.5291
毛	-18.5291
狩	-18.5291
甜	-18.5291
祢	-18.5291
縦	-18.5291
纘	-18.5291
翌	-18.5291
聂	-18.5291
襴	-18.5291
詹	-18.5291
许	-18.5291
辅	-18.5291
釜	-18.5291
锋	-18.5291
鷹	-18.5291
붕	-18.5291
썸	-18.5291
잎	-18.5291
	-18.5291
	-18.5291
	-18.5291
	-18.5291
	-18.5291
Ï	-18.5291
Ė	-18.5291
Ě	-18.5291
ĝ	-18.5291
ģ	-18.5291
Ĭ	-18.5291
Į	-18.5291
į	-18.5291
ĵ	-18.5291
Ŋ	-18.5291
Ř	-18.5291
Ŭ	-18.5291
Ź	-18.5291
ǚ	-18.5291
ȕ	-18.5291
ȝ	-18.5291
ɖ	-18.5291
ɘ	-18.5291
ɢ	-18.5291
ɤ	-18.5291
ɴ	-18.5291
ɾ	-18.5291
ʖ	-18.5291
̋	-18.5291
̍	-18.5291
̚	-18.5291
̞	-18.5291
̶	-18.5291
͜	-18.5291
Ͱ	-18.5291
ͱ	-18.5291
ϋ	-18.5291
ϛ	-18.5291
Ϸ	-18.5291
Ђ	-18.5291
Ї	-18.5291
Й	-18.5291
Ы	-18.5291
Ь	-18.5291
Ю	-18.5291
љ	-18.5291
њ	-18.5291
ѳ	-18.5291
Ғ	-18.5291
ҕ	-18.5291
Ҳ	-18.5291
ӄ	-18.5291
ӧ	-18.5291
Դ	-18.5291
Խ	-18.5291
Մ	-18.5291
Ո	-18.5291
Վ	-18.5291
խ	-18.5291
ռ	-18.5291
ք	-18.5291
ֲ	-18.5291
ך	-18.5291
ף	-18.5291
ײ	-18.5291
؛	-18.5291
ٜ	-18.5291
٠	-18.5291
٢	-18.5291
٥	-18.5291
٨	-18.5291
ټ	-18.5291
ڊ	-18.5291
ڌ	-18.5291
ڑ	-18.5291
ژ	-18.5291
ښ	-18.5291
ڪ	-18.5291
ڭ	-18.5291
ھ	-18.5291
ۍ	-18.5291
ے	-18.5291
ە	-18.5291
ܚ	-18.5291
ܡ	-18.5291
ܵ	-18.5291
ܶ	-18.5291
ܹ	-18.5291
ބ	-18.5291
ލ	-18.5291
ޠ	-18.5291
ު	-18.5291
आ	-18.5291
ख	-18.5291
ट	-18.5291
श	-18.5291
অ	-18.5291
ক	-18.5291
গ	-18.5291
চ	-18.5291
ছ	-18.5291
ধ	-18.5291
ন	-18.5291
প	-18.5291
শ	-18.5291
ষ	-18.5291
ী	-18.5291
ু	-18.5291
ৰ	-18.5291
ਪ	-18.5291
ਹ	-18.5291
ਾ	-18.5291
ੜ	-18.5291
ੱ	-18.5291
உ	-18.5291
ங	-18.5291
ூ	-18.5291
ெ	-18.5291
ఉ	-18.5291
గ	-18.5291
ద	-18.5291
ా	-18.5291
ి	-18.5291
ಅ	-18.5291
ಇ	-18.5291
ಈ	-18.5291
ಎ	-18.5291
ಏ	-18.5291
ಗ	-18.5291
ದ	-18.5291
ಯ	-18.5291
ಾ	-18.5291
ಿ	-18.5291
ು	-18.5291
ം	-18.5291
മ	-18.5291
റ	-18.5291
ല	-18.5291
ു	-18.5291
്	-18.5291
අ	-18.5291
ක	-18.5291
ග	-18.5291
ධ	-18.5291
න	-18.5291
ප	-18.5291
ම	-18.5291
ල	-18.5291
්	-18.5291
ි	-18.5291
ฆ	-18.5291
ฬ	-18.5291
ฮ	-18.5291
๋	-18.5291
๘	-18.5291
ງ	-18.5291
ທ	-18.5291
ບ	-18.5291
ວ	-18.5291
ິ	-18.5291
ຼ	-18.5291
ང	-18.5291
ཏ	-18.5291
ན	-18.5291
ར	-18.5291
ྰ	-18.5291
ဋ	-18.5291
သ	-18.5291
ဟ	-18.5291
ဦ	-18.5291
ᄆ	-18.5291
ᅦ	-18.5291
ሚ	-18.5291
ሳ	-18.5291
ች	-18.5291
ን	-18.5291
አ	-18.5291
ካ	-18.5291
ደ	-18.5291
ዳ	-18.5291
ጎ	-18.5291
᎓	-18.5291
Ꭱ	-18.5291
Ꭶ	-18.5291
Ꭸ	-18.5291
Ꭽ	-18.5291
Ꭾ	-18.5291
Ꮒ	-18.5291
Ꮼ	-18.5291
ឆ	-18.5291
ញ	-18.5291
ឡ	-18.5291
អ	-18.5291
ឥ	-18.5291
ៀ	-18.5291
៣	-18.5291
ḗ	-18.5291
ṕ	-18.5291
Ṛ	-18.5291
ἔ	-18.5291
Ἓ	-18.5291
ἠ	-18.5291
ἡ	-18.5291
ἵ	-18.5291
ἷ	-18.5291
Ἰ	-18.5291
Ἴ	-18.5291
Ἶ	-18.5291
ὀ	-18.5291
ὔ	-18.5291
ὕ	-18.5291
Ὕ	-18.5291
ὲ	-18.5291
ὴ	-18.5291
ὺ	-18.5291
ῳ	-18.5291
‍	-18.5291
—	-18.5291
‖	-18.5291
₣	-18.5291
₫	-18.5291
↺	-18.5291
↽	-18.5291
∉	-18.5291
∕	-18.5291
∤	-18.5291
∧	-18.5291
≫	-18.5291
≶	-18.5291
⊊	-18.5291
⊲	-18.5291
⋀	-18.5291
⋁	-18.5291
⌂	-18.5291
⌈	-18.5291
⌉	-18.5291
⏏	-18.5291
─	-18.5291
┼	-18.5291
▲	-18.5291
►	-18.5291
☁	-18.5291
☠	-18.5291
☣	-18.5291
☲	-18.5291
☴	-18.5291
☺	-18.5291
♃	-18.5291
⛔	-18.5291
✶	-18.5291
❄	-18.5291
⟹	-18.5291
⟼	-18.5291
⤧	-18.5291
⬆	-18.5291
ⴹ	-18.5291
ⴾ	-18.5291
ⵉ	-18.5291
ⵎ	-18.5291
ⵔ	-18.5291
ⵣ	-18.5291
〔	-18.5291
〕	-18.5291
ぃ	-18.5291
ぅ	-18.5291
ぜ	-18.5291
ぞ	-18.5291
ぬ	-18.5291
ぷ	-18.5291
ゝ	-18.5291
ゾ	-18.5291
丝	-18.5291
丞	-18.5291
严	-18.5291
个	-18.5291
为	-18.5291
乌	-18.5291
书	-18.5291
亥	-18.5291
亲	-18.5291
什	-18.5291
仍	-18.5291
仲	-18.5291
伴	-18.5291
佩	-18.5291
佬	-18.5291
侅	-18.5291
例	-18.5291
価	-18.5291
侬	-18.5291
係	-18.5291
俊	-18.5291
俗	-18.5291
候	-18.5291
倶	-18.5291
偃	-18.5291
停	-18.5291
偶	-18.5291
傅	-18.5291
傣	-18.5291
傷	-18.5291
像	-18.5291
僧	-18.5291
僰	-18.5291
儒	-18.5291
兆	-18.5291
兇	-18.5291
兔	-18.5291
兜	-18.5291
兩	-18.5291
兼	-18.5291
冨	-18.5291
凌	-18.5291
凛	-18.5291
凤	-18.5291
処	-18.5291
凱	-18.5291
刃	-18.5291
切	-18.5291
刊	-18.5291
则	-18.5291
刚	-18.5291
判	-18.5291
刺	-18.5291
則	-18.5291
劉	-18.5291
劣	-18.5291
勅	-18.5291
勇	-18.5291
勒	-18.5291
勘	-18.5291
勾	-18.5291
匂	-18.5291
医	-18.5291
卍	-18.5291
卐	-18.5291
单	-18.5291
卢	-18.5291
卦	-18.5291
印	-18.5291
危	-18.5291
却	-18.5291
卵	-18.5291
卿	-18.5291
厂	-18.5291
厌	-18.5291
厦	-18.5291
厳	-18.5291
去	-18.5291
参	-18.5291
又	-18.5291
収	-18.5291
叩	-18.5291
只	-18.5291
叫	-18.5291
吊	-18.5291
吏	-18.5291
吒	-18.5291
吧	-18.5291
吨	-18.5291
呜	-18.5291
哀	-18.5291
哉	-18.5291
售	-18.5291
啼	-18.5291
喆	-18.5291
喝	-18.5291
嗇	-18.5291
嗟	-18.5291
嗤	-18.5291
嗹	-18.5291
器	-18.5291
図	-18.5291
囷	-18.5291
圍	-18.5291
圏	-18.5291
團	-18.5291
坐	-18.5291
坚	-18.5291
埃	-18.5291
埙	-18.5291
基	-18.5291
堀	-18.5291
堅	-18.5291
堡	-18.5291
塞	-18.5291
境	-18.5291
墓	-18.5291
墨	-18.5291
壁	-18.5291
壊	-18.5291
壬	-18.5291
声	-18.5291
夭	-18.5291
夯	-18.5291
夷	-18.5291
奉	-18.5291
奔	-18.5291
奴	-18.5291
妆	-18.5291
妇	-18.5291
妖	-18.5291
妮	-18.5291
姆	-18.5291
姊	-18.5291
姜	-18.5291
姥	-18.5291
姬	-18.5291
娇	-18.5291
婷	-18.5291
媄	-18.5291
媛	-18.5291
媽	-18.5291
嫁	-18.5291
嫌	-18.5291
孛	-18.5291
宁	-18.5291
宅	-18.5291
宠	-18.5291
宥	-18.5291
容	-18.5291
寒	-18.5291
察	-18.5291
寧	-18.5291
審	-18.5291
寻	-18.5291
専	-18.5291
將	-18.5291
尉	-18.5291
尋	-18.5291
尽	-18.5291
屑	-18.5291
屹	-18.5291
岩	-18.5291
岳	-18.5291
峯	-18.5291
嵘	-18.5291
嶄	-18.5291
嶋	-18.5291
巌	-18.5291
巖	-18.5291
巡	-18.5291
巫	-18.5291
已	-18.5291
巽	-18.5291
帆	-18.5291
帖	-18.5291
幅	-18.5291
庆	-18.5291
序	-18.5291
庙	-18.5291
庫	-18.5291
庭	-18.5291
庵	-18.5291
廈	-18.5291
廣	-18.5291
弁	-18.5291
弄	-18.5291
弘	-18.5291
弱	-18.5291
彌	-18.5291
彩	-18.5291
彭	-18.5291
彿	-18.5291
待	-18.5291
従	-18.5291
徵	-18.5291
徹	-18.5291
忧	-18.5291
怡	-18.5291
怪	-18.5291
恄	-18.5291
恆	-18.5291
恨	-18.5291
息	-18.5291
悟	-18.5291
患	-18.5291
惑	-18.5291
慈	-18.5291
慕	-18.5291
慣	-18.5291
慧	-18.5291
慳	-18.5291
憂	-18.5291
憐	-18.5291
懂	-18.5291
懦	-18.5291
懸	-18.5291
懿	-18.5291
戊	-18.5291
戰	-18.5291
戴	-18.5291
扇	-18.5291
扶	-18.5291
抄	-18.5291
抓	-18.5291
抗	-18.5291
抱	-18.5291
抹	-18.5291
拒	-18.5291
拟	-18.5291
拡	-18.5291
拨	-18.5291
持	-18.5291
挽	-18.5291
捕	-18.5291
捜	-18.5291
据	-18.5291
捲	-18.5291
掃	-18.5291
排	-18.5291
掛	-18.5291
接	-18.5291
控	-18.5291
揆	-18.5291
握	-18.5291
搬	-18.5291
摺	-18.5291
撃	-18.5291
撲	-18.5291
撻	-18.5291
收	-18.5291
故	-18.5291
敢	-18.5291
斑	-18.5291
斷	-18.5291
易	-18.5291
昱	-18.5291
晉	-18.5291
晏	-18.5291
晗	-18.5291
晶	-18.5291
暦	-18.5291
曜	-18.5291
曰	-18.5291
曼	-18.5291
替	-18.5291
朧	-18.5291
末	-18.5291
朴	-18.5291
材	-18.5291
杜	-18.5291
枝	-18.5291
柳	-18.5291
柴	-18.5291
査	-18.5291
树	-18.5291
栖	-18.5291
栞	-18.5291
桂	-18.5291
桐	-18.5291
桓	-18.5291
桧	-18.5291
梭	-18.5291
梵	-18.5291
椪	-18.5291
椿	-18.5291
楠	-18.5291
極	-18.5291
槍	-18.5291
槐	-18.5291
樞	-18.5291
模	-18.5291
樫	-18.5291
橫	-18.5291
橷	-18.5291
檔	-18.5291
櫃	-18.5291
歩	-18.5291
歯	-18.5291
歷	-18.5291
歼	-18.5291
殊	-18.5291
殷	-18.5291
毀	-18.5291
毅	-18.5291
毎	-18.5291
毯	-18.5291
气	-18.5291
氣	-18.5291
沃	-18.5291
沦	-18.5291
沪	-18.5291
沿	-18.5291
泛	-18.5291
浅	-18.5291
消	-18.5291
涙	-18.5291
涛	-18.5291
涯	-18.5291
淞	-18.5291
淨	-18.5291
渉	-18.5291
測	-18.5291
湛	-18.5291
満	-18.5291
满	-18.5291
潜	-18.5291
潟	-18.5291
澳	-18.5291
濆	-18.5291
濟	-18.5291
灘	-18.5291
灰	-18.5291
炼	-18.5291
炽	-18.5291
烏	-18.5291
焉	-18.5291
熹	-18.5291
燃	-18.5291
營	-18.5291
爆	-18.5291
爰	-18.5291
爵	-18.5291
犭	-18.5291
犯	-18.5291
猛	-18.5291
猪	-18.5291
獅	-18.5291
獠	-18.5291
獲	-18.5291
玦	-18.5291
环	-18.5291
玲	-18.5291
珉	-18.5291
珑	-18.5291
班	-18.5291
珮	-18.5291
琏	-18.5291
琳	-18.5291
瑀	-18.5291
瑄	-18.5291
瑛	-18.5291
瑞	-18.5291
瑩	-18.5291
璐	-18.5291
璽	-18.5291
瓦	-18.5291
申	-18.5291
畑	-18.5291
畠	-18.5291
略	-18.5291
疏	-18.5291
疸	-18.5291
疾	-18.5291
癖	-18.5291
發	-18.5291
皮	-18.5291
盂	-18.5291
盘	-18.5291
眠	-18.5291
眸	-18.5291
睟	-18.5291
瞬	-18.5291
瞳	-18.5291
碌	-18.5291
碟	-18.5291
碩	-18.5291
礫	-18.5291
示	-18.5291
祠	-18.5291
票	-18.5291
祸	-18.5291
禕	-18.5291
禧	-18.5291
禪	-18.5291
私	-18.5291
秩	-18.5291
称	-18.5291
移	-18.5291
種	-18.5291
稽	-18.5291
穂	-18.5291
穎	-18.5291
穏	-18.5291
穿	-18.5291
窿	-18.5291
童	-18.5291
笛	-18.5291
笠	-18.5291
符	-18.5291
筒	-18.5291
箇	-18.5291
篇	-18.5291
簽	-18.5291
籍	-18.5291
粕	-18.5291
粤	-18.5291
粥	-18.5291
粹	-18.5291
糕	-18.5291
糸	-18.5291
紛	-18.5291
紜	-18.5291
累	-18.5291
絆	-18.5291
経	-18.5291
絡	-18.5291
統	-18.5291
継	-18.5291
綜	-18.5291
綬	-18.5291
綱	-18.5291
緋	-18.5291
緒	-18.5291
練	-18.5291
縁	-18.5291
縫	-18.5291
繁	-18.5291
组	-18.5291
织	-18.5291
给	-18.5291
络	-18.5291
绝	-18.5291
续	-18.5291
绸	-18.5291
综	-18.5291
编	-18.5291
缺	-18.5291
缽	-18.5291
罕	-18.5291
罪	-18.5291
置	-18.5291
署	-18.5291
罵	-18.5291
羊	-18.5291
羌	-18.5291
翰	-18.5291
耀	-18.5291
耳	-18.5291
耽	-18.5291
聡	-18.5291
聰	-18.5291
聴	-18.5291
職	-18.5291
肏	-18.5291
肝	-18.5291
肥	-18.5291
肴	-18.5291
胞	-18.5291
脩	-18.5291
腥	-18.5291
腾	-18.5291
膚	-18.5291
膳	-18.5291
膺	-18.5291
舎	-18.5291
舜	-18.5291
艾	-18.5291
芋	-18.5291
芒	-18.5291
芝	-18.5291
苔	-18.5291
苦	-18.5291
茂	-18.5291
荅	-18.5291
荷	-18.5291
菊	-18.5291
菖	-18.5291
菴	-18.5291
著	-18.5291
葛	-18.5291
蒔	-18.5291
蒙	-18.5291
蒽	-18.5291
蓝	-18.5291
蕃	-18.5291
藻	-18.5291
虐	-18.5291
處	-18.5291
虚	-18.5291
虜	-18.5291
虹	-18.5291
蛋	-18.5291
蝴	-18.5291
螣	-18.5291
衆	-18.5291
衔	-18.5291
衙	-18.5291
补	-18.5291
衲	-18.5291
袍	-18.5291
袖	-18.5291
裁	-18.5291
補	-18.5291
裟	-18.5291
裰	-18.5291
複	-18.5291
褒	-18.5291
褙	-18.5291
襦	-18.5291
討	-18.5291
訓	-18.5291
訪	-18.5291
訴	-18.5291
詞	-18.5291
詢	-18.5291
誌	-18.5291
誠	-18.5291
說	-18.5291
諮	-18.5291
諾	-18.5291
謂	-18.5291
講	-18.5291
證	-18.5291
識	-18.5291
譚	-18.5291
讀	-18.5291
讯	-18.5291
识	-18.5291
试	-18.5291
话	-18.5291
豊	-18.5291
豐	-18.5291
貞	-18.5291
貧	-18.5291
費	-18.5291
資	-18.5291
賜	-18.5291
質	-18.5291
賴	-18.5291
购	-18.5291
贴	-18.5291
赖	-18.5291
赫	-18.5291
跑	-18.5291
距	-18.5291
跡	-18.5291
跨	-18.5291
躰	-18.5291
載	-18.5291
輔	-18.5291
輯	-18.5291
轻	-18.5291
辞	-18.5291
辰	-18.5291
达	-18.5291
这	-18.5291
进	-18.5291
违	-18.5291
迪	-18.5291
迭	-18.5291
迹	-18.5291
退	-18.5291
逝	-18.5291
逯	-18.5291
遍	-18.5291
違	-18.5291
遗	-18.5291
適	-18.5291
邏	-18.5291
邡	-18.5291
郵	-18.5291
鄧	-18.5291
配	-18.5291
醉	-18.5291
醤	-18.5291
釁	-18.5291
采	-18.5291
銕	-18.5291
鋸	-18.5291
錄	-18.5291
鏞	-18.5291
鐘	-18.5291
钢	-18.5291
钱	-18.5291
锻	-18.5291
閪	-18.5291
间	-18.5291
阳	-18.5291
陆	-18.5291
陷	-18.5291
隋	-18.5291
障	-18.5291
雌	-18.5291
雙	-18.5291
難	-18.5291
靈	-18.5291
靠	-18.5291
響	-18.5291
頁	-18.5291
頌	-18.5291
預	-18.5291
頤	-18.5291
顆	-18.5291
顔	-18.5291
顕	-18.5291
願	-18.5291
類	-18.5291
顶	-18.5291
顺	-18.5291
预	-18.5291
颐	-18.5291
频	-18.5291
颗	-18.5291
飄	-18.5291
飥	-18.5291
飩	-18.5291
餃	-18.5291
餛	-18.5291
饒	-18.5291
馆	-18.5291
馮	-18.5291
験	-18.5291
騫	-18.5291
驶	-18.5291
髀	-18.5291
髮	-18.5291
鬚	-18.5291
鬲	-18.5291
鮟	-18.5291
鰻	-18.5291
鲇	-18.5291
鳰	-18.5291
鴻	-18.5291
鵲	-18.5291
鸟	-18.5291
鸡	-18.5291
鹅	-18.5291
鹰	-18.5291
麗	-18.5291
麥	-18.5291
麼	-18.5291
默	-18.5291
齊	-18.5291
齋	-18.5291
齐	-18.5291
ꠍ	-18.5291
ꠐ	-18.5291
ꠟ	-18.5291
갈	-18.5291
갑	-18.5291
검	-18.5291
겁	-18.5291
곱	-18.5291
궁	-18.5291
근	-18.5291
깃	-18.5291
깝	-18.5291
꼼	-18.5291
꽈	-18.5291
꿀	-18.5291
꿰	-18.5291
끈	-18.5291
끝	-18.5291
냐	-18.5291
냥	-18.5291
넘	-18.5291
념	-18.5291
높	-18.5291
늄	-18.5291
던	-18.5291
덟	-18.5291
덩	-18.5291
돼	-18.5291
되	-18.5291
둔	-18.5291
뒷	-18.5291
듬	-18.5291
듯	-18.5291
딸	-18.5291
땐	-18.5291
땡	-18.5291
떡	-18.5291
띵	-18.5291
랐	-18.5291
램	-18.5291
랩	-18.5291
랭	-18.5291
략	-18.5291
럴	-18.5291
럽	-18.5291
려	-18.5291
련	-18.5291
렬	-18.5291
렴	-18.5291
례	-18.5291
론	-18.5291
롤	-18.5291
롯	-18.5291
롱	-18.5291
률	-18.5291
륨	-18.5291
맞	-18.5291
맥	-18.5291
먼	-18.5291
멀	-18.5291
몽	-18.5291
묘	-18.5291
묵	-18.5291
믹	-18.5291
밖	-18.5291
벽	-18.5291
봄	-18.5291
봇	-18.5291
봤	-18.5291
뻔	-18.5291
뽑	-18.5291
뿍	-18.5291
쁘	-18.5291
쁜	-18.5291
삭	-18.5291
샷	-18.5291
섬	-18.5291
섰	-18.5291
션	-18.5291
셜	-18.5291
솟	-18.5291
숟	-18.5291
쉬	-18.5291
싶	-18.5291
싹	-18.5291
쏙	-18.5291
쑥	-18.5291
쓸	-18.5291
씹	-18.5291
않	-18.5291
알	-18.5291
앤	-18.5291
얘	-18.5291
얹	-18.5291
업	-18.5291
엣	-18.5291
염	-18.5291
왔	-18.5291
왠	-18.5291
욕	-18.5291
웃	-18.5291
웅	-18.5291
윌	-18.5291
잇	-18.5291
절	-18.5291
죄	-18.5291
즐	-18.5291
쫄	-18.5291
찬	-18.5291
총	-18.5291
춤	-18.5291
칙	-18.5291
칩	-18.5291
컵	-18.5291
콤	-18.5291
쾌	-18.5291
쿄	-18.5291
큐	-18.5291
킷	-18.5291
탁	-18.5291
탱	-18.5291
톱	-18.5291
팩	-18.5291
폰	-18.5291
폴	-18.5291
풀	-18.5291
품	-18.5291
필	-18.5291
할	-18.5291
항	-18.5291
핵	-18.5291
헬	-18.5291
혈	-18.5291
협	-18.5291
홋	-18.5291
훔	-18.5291
휠	-18.5291
흔	-18.5291
	-18.5291
	-18.5291
	-18.5291
	-18.5291
﨑	-18.5291
﴾	-18.5291
﴿	-18.5291
𐰀	-18.5291
𐰢	-18.5291
𒀕	-18.5291
𒃲	-18.5291
𒄊	-18.5291
𒄿	-18.5291
𒆠	-18.5291
𒆤	-18.5291
𒆷	-18.5291
𒇺	-18.5291
𒈠	-18.5291
𒉡	-18.5291
𒋀	-18.5291
𒋾	-18.5291
𒌈	-18.5291
💭	-18.5291
😂	-18.5291
𠊛	-18.5291
𡎝	-18.5291
𡗶	-18.5291
𢆥	-18.5291
𢚸	-18.5291
𣷭	-18.5291
Ứ	-18.5291
ċ	-18.5291
Ĝ	-18.5291
ķ	-18.5291
Ț	-18.5291
̤	-18.5291
उ	-18.5291
ḡ	-18.5291
Ẓ	-18.5291
亢	-18.5291
仔	-18.5291
伍	-18.5291
児	-18.5291
吻	-18.5291
応	-18.5291
您	-18.5291
惕	-18.5291
曙	-18.5291
渤	-18.5291
炒	-18.5291
爽	-18.5291
留	-18.5291
益	-18.5291
砕	-18.5291
碧	-18.5291
缓	-18.5291
脫	-18.5291
臭	-18.5291
葦	-18.5291
薄	-18.5291
贵	-18.5291
邓	-18.5291
酸	-18.5291
餺	-18.5291
魁	-18.5291
겹	-18.5291
춘	-18.5291
ʕ	-18.5291
Ѓ	-18.5291
ԥ	-18.5291
Չ	-18.5291
շ	-18.5291
ܕ	-18.5291
খ	-18.5291
ே	-18.5291
๊	-18.5291
ር	-18.5291
ብ	-18.5291
ቱ	-18.5291
ዋ	-18.5291
ዕ	-18.5291
ጋ	-18.5291
ḇ	-18.5291
Ἱ	-18.5291
ⵢ	-18.5291
ㇱ	-18.5291
ㇼ	-18.5291
两	-18.5291
俏	-18.5291
假	-18.5291
傘	-18.5291
变	-18.5291
哇	-18.5291
壺	-18.5291
射	-18.5291
峦	-18.5291
异	-18.5291
急	-18.5291
戈	-18.5291
戯	-18.5291
扉	-18.5291
摩	-18.5291
敦	-18.5291
板	-18.5291
根	-18.5291
残	-18.5291
毋	-18.5291
浸	-18.5291
減	-18.5291
然	-18.5291
爺	-18.5291
獄	-18.5291
續	-18.5291
线	-18.5291
菽	-18.5291
萃	-18.5291
薈	-18.5291
裸	-18.5291
谐	-18.5291
財	-18.5291
轰	-18.5291
透	-18.5291
阮	-18.5291
阻	-18.5291
韦	-18.5291
餐	-18.5291
黃	-18.5291
꼭	-18.5291
늑	-18.5291
댄	-18.5291
킹	-18.5291
탐	-18.5291
험	-18.5291
	-18.5291
𣦆	-18.5291
ǟ	-18.5291
ֱ	-18.5291
ֻ	-18.5291
މ	-18.5291
வ	-18.5291
დ	-18.5291
ზ	-18.5291
ღ	-18.5291
შ	-18.5291
ណ	-18.5291
ធ	-18.5291
ឹ	-18.5291
៊	-18.5291
ẖ	-18.5291
ヱ	-18.5291
両	-18.5291
並	-18.5291
件	-18.5291
偵	-18.5291
囯	-18.5291
址	-18.5291
妃	-18.5291
害	-18.5291
房	-18.5291
挺	-18.5291
曇	-18.5291
析	-18.5291
浩	-18.5291
淳	-18.5291
痕	-18.5291
諜	-18.5291
软	-18.5291
鼎	-18.5291
ည	-18.5291
ဘ	-18.5291
亚	-18.5291
余	-18.5291
勲	-18.5291
占	-18.5291
召	-18.5291
响	-18.5291
宪	-18.5291
弃	-18.5291
晋	-18.5291
泱	-18.5291
漪	-18.5291
炖	-18.5291
炫	-18.5291
紙	-18.5291
群	-18.5291
茜	-18.5291
蜜	-18.5291
試	-18.5291
讐	-18.5291
载	-18.5291
问	-18.5291
隅	-18.5291
飴	-18.5291
鱿	-18.5291
以	-18.5292
円	-18.5292
固	-18.5292
腹	-18.5292
遂	-18.5292
Ố	-18.5292
渕	-18.5292
Â	-18.5293
服	-18.5293
銃	-18.5293
