<unk>	0
<s>	0
</s>	0
▁	-2.75128
។	-3.28488
និង	-4.64618
ដែល	-4.80514
▁-	-4.87374
ការ	-5.06912
?	-5.07095
អ្នក	-5.12489
នៃ	-5.13902
របស់	-5.17176
ហើយ	-5.18853
បាន	-5.27523
,	-5.32978
វា	-5.56772
មាន	-5.57021
ឬ	-5.57206
នៅ	-5.60137
ដោយ	-5.60575
របស់អ្នក	-5.61385
)	-5.62427
សម្រាប់	-5.6386
នេះ	-5.69476
▁(	-5.69591
▁។	-5.74515
ទេ។	-5.76414
▁"	-5.80766
ទេ	-5.8092
ខ្ញុំ	-5.81558
នៅក្នុង	-5.84722
មួយ	-5.87585
ពី	-5.90541
ដែលមាន	-5.92737
ក្នុង	-5.93583
s	-5.94284
ដើម្បី	-5.96782
គឺ	-5.97526
ទៅ	-6.01745
"	-6.08273
ជា	-6.09401
នឹង	-6.0962
នៅលើ	-6.14954
ត្រូវបាន	-6.20402
ស	-6.20935
ពួកគេ	-6.21051
គាត់	-6.2167
ថា	-6.23501
!	-6.34017
ន	-6.34518
▁ហើយ	-6.35139
នាង	-6.38576
អាច	-6.39058
ជាមួយ	-6.40015
ក្នុងការ	-6.40403
មិន	-6.44695
គឺជា	-6.45149
យើង	-6.45947
ដែលបាន	-6.47022
លើ	-6.47112
ក	-6.47697
រ	-6.49703
▁ខ្ញុំ	-6.53715
▁អ្នក	-6.55838
នោះ	-6.57705
ម	-6.5985
ឱ្យ	-6.60409
ភាព	-6.60884
n	-6.61307
ទទួលបាន	-6.61649
ធ្វើ	-6.6193
:	-6.62792
▁និង	-6.62891
ប៉ុន្តែ	-6.62911
របស់អ្នក។	-6.63297
ដូចជា	-6.63464
▁...	-6.64043
y	-6.66969
ត	-6.68938
របស់ខ្ញុំ	-6.69178
ប	-6.69721
ល	-6.69933
លោក	-6.73404
ឆ្នាំ	-6.73417
ចំពោះ	-6.76402
t	-6.78266
អ្វីដែល	-6.79208
e	-6.80566
មនុស្ស	-6.81005
▁ប៉ុន្តែ	-6.81597
នៃការ	-6.82432
របស់ពួកគេ	-6.84488
របស់គាត់	-6.85159
ដល់	-6.85238
ទឹក	-6.85461
ស្	-6.85823
▁19	-6.86616
អំពី	-6.86734
ប្រើ	-6.8697
ទាំងនេះ	-6.89032
ទី	-6.91682
ចំនួន	-6.91975
▁វា	-6.92381
របស់នាង	-6.93758
.	-6.9494
▁ការ	-6.96036
u	-6.9605
▁ដូច្នេះ	-6.96512
r	-6.97195
កំពុង	-6.98184
ណា	-6.98237
ប្រទេស	-6.98459
ទាំងអស់	-6.9916
ចាប់ផ្តើម	-6.99901
ធ្វើឱ្យ	-7.01201
ង	-7.02583
i	-7.0375
a	-7.04589
▁2	-7.06249
l	-7.06808
ក្រុម	-7.06976
▁C	-7.08094
ដំបូង	-7.08667
ត្រូវបានគេ	-7.08721
▁តើ	-7.09548
របស់យើង	-7.09653
ជាច្រើន	-7.10312
o	-7.1141
ផ្នែក	-7.11617
▁A	-7.16464
in	-7.16979
ដែលជា	-7.17133
និយាយ	-7.17369
d	-7.1812
មក	-7.18391
ដ៏	-7.18456
ថ្មី	-7.19385
ជាង	-7.1958
ដូច្នេះ	-7.19622
▁S	-7.19664
ការងារ	-7.2028
យ	-7.20377
ចេញ	-7.20616
▁គឺជា	-7.2072
យក	-7.20844
en	-7.20951
ស៊ី	-7.21759
នៅទីនេះ	-7.21798
ល្អ	-7.2234
▁3	-7.22444
ដាក់	-7.23247
ខ្លះ	-7.24737
ឈ្មោះ	-7.25266
er	-7.25367
ប្រព័ន្ធ	-7.25554
▁លោក	-7.25565
មើល	-7.25864
នេះ។	-7.26403
មិនមាន	-7.26525
▁1	-7.26623
រឿង	-7.27785
ពីរ	-7.28245
c	-7.28315
ពេលវេលា	-7.29906
ថ្នាំ	-7.30468
ចេញពី	-7.30753
ក្រុមហ៊ុន	-7.30964
al	-7.31124
បុរស	-7.31161
នូវ	-7.32054
▁P	-7.3227
វ	-7.32885
k	-7.33262
ឡើង	-7.3344
អ	-7.33805
កា	-7.34499
ជំងឺ	-7.35013
ដំណើរការ	-7.35356
តាម	-7.35665
ទ	-7.35734
▁ប្រសិនបើ	-7.35786
▁G	-7.3638
▁បាន	-7.36615
ជាមួយនឹង	-7.36668
ដូច	-7.36789
ផ្សេងទៀត	-7.36867
ក៏	-7.3707
កម្មវិធី	-7.37087
▁B	-7.37393
មួយចំនួន	-7.37658
ប្រជាជន	-7.38166
និយាយថា	-7.3871
le	-7.39216
z	-7.39402
re	-7.3993
C	-7.40648
លី	-7.41236
ដឹងថា	-7.41442
ទីក្រុង	-7.41481
បន្ទាប់ពី	-7.41537
an	-7.41756
▁T	-7.42286
បំផុត	-7.42379
m	-7.42864
ស្ត្រី	-7.43095
្	-7.43824
តំបន់	-7.44153
ត្រូវ	-7.44804
នៅពេល	-7.44846
ច	-7.45486
▁ខ្ញុំបាន	-7.47496
នៅពេលដែល	-7.47543
ra	-7.47592
អ្នកអាច	-7.47995
សូម	-7.4801
សត្វ	-7.48225
S	-7.49066
មិនមែនជា	-7.49198
ដ	-7.49372
គ្រាន់តែ	-7.49374
▁ប្រសិនបើអ្នក	-7.49437
ណាស់	-7.49572
ម៉ា	-7.49633
ផ្តល់	-7.49834
គំនិត	-7.49903
▁F	-7.49915
ជីវិត	-7.51014
កន្លែង	-7.5113
h	-7.52074
បង្កើត	-7.52803
អា	-7.53129
p	-7.53419
ផ្លូវ	-7.53564
▁ៗ	-7.53572
គ្នា	-7.53602
បន្ថែម	-7.53717
on	-7.54011
f	-7.54047
▁តើអ្នក	-7.54567
▁ឆ្នាំ	-7.54599
ប្រហែលជា	-7.54909
or	-7.55577
▁នាង	-7.55825
បញ្ហា	-7.5624
ឥឡូវនេះ	-7.56971
ផ្ទះ	-7.57154
ពិតជា	-7.57273
g	-7.57736
ពិភពលោក	-7.5775
ច្រើន	-7.58243
▁គាត់	-7.58376
▁ពួកគេ	-7.58383
ត្រូវការ	-7.58458
សម្រាប់ការ	-7.58483
ធ្វើការ	-7.58855
នៅឆ្នាំ	-7.59045
របស់ខ្ញុំ។	-7.59573
មួយ។	-7.59639
▁ខ្ញុំមិន	-7.59952
រហូតដល់	-7.60102
ប្រភេទ	-7.60541
ព្យាយាម	-7.61304
la	-7.61851
នី	-7.62172
M	-7.62291
w	-7.62576
ដា	-7.62768
ថ្ងៃ	-7.63218
ខ្ញុំបាន	-7.63227
us	-7.63375
▁មាន	-7.63397
▁មែនហើយ	-7.63697
ការផ្លាស់ប្តូរ	-7.63721
▁ខ្ញុំនឹង	-7.6434
តែ	-7.64352
ោ	-7.64428
មានអារម្មណ៍	-7.64525
ចូល	-7.64847
▁យើង	-7.65483
ប្រ	-7.65659
ធំ	-7.65882
ជាតិ	-7.66509
ផ្លាស់ប្តូរ	-7.66718
អ្វី	-7.66727
b	-7.66734
បង្ហាញ	-7.66837
រក	-7.66904
P	-7.66976
ចុងក្រោយ	-7.67006
ro	-7.67007
តា	-7.67174
ប្រសិនបើ	-7.67394
D	-7.67662
ា	-7.6778
ដៃ	-7.68134
ខ្ពស់	-7.68184
ម្នាក់	-7.68267
ឧបករណ៍	-7.68629
អ្នកនឹង	-7.69103
រក្សា	-7.69243
ភាគច្រើន	-7.69358
ia	-7.6937
ar	-7.69424
មុនពេល	-7.69683
is	-7.69903
សា	-7.70053
ផងដែរ។	-7.70533
ri	-7.70557
ក្នុងឆ្នាំ	-7.70676
el	-7.70995
មុន	-7.71275
ដែលអ្នក	-7.71446
យ៉ាង	-7.71491
ប្រសិនបើអ្នក	-7.71628
សង្គម	-7.72084
អនុញ្ញាតឱ្យ	-7.72135
▁នៅ	-7.72554
គ្មាន	-7.72688
ច្បាប់	-7.72869
អាហារ	-7.72983
លេង	-7.7302
▁កុំ	-7.73379
ប្រឆាំងនឹង	-7.73387
▁/	-7.73482
ខ្ញុំនឹង	-7.7358
ចង់	-7.73653
▁នាក់	-7.74184
lo	-7.74184
អូ	-7.74372
និងការ	-7.74389
វា។	-7.74552
▁D	-7.74771
តាមរយៈ	-7.75106
ទាំង	-7.75559
នៅទីនោះ	-7.75649
▁4	-7.76066
មិនមែន	-7.76066
ជ្រើសរើស	-7.7641
រដ្ឋ	-7.76636
▁10	-7.76708
គ្រប់គ្រង	-7.77141
ណាមួយ	-7.77374
▁អូ	-7.77469
យ៉ាងខ្លាំង	-7.77682
to	-7.7792
ខ្លួនឯង	-7.78351
▁វាជា	-7.78403
A	-7.78588
▁5	-7.78593
ឡា	-7.79273
មួយដែល	-7.79289
នៅតែ	-7.79899
T	-7.79916
x	-7.80089
ពាក្យ	-7.80997
ដើម	-7.81224
ព័ត៌មាន	-7.81411
រី	-7.81522
គិតថា	-7.81656
អារម្មណ៍	-7.81747
តើ	-7.81976
នៅថ្ងៃទី	-7.82398
▁K	-7.82478
ma	-7.82488
វាជា	-7.83207
ិ	-7.83873
ur	-7.84051
កំណត់	-7.84533
▁M	-7.84667
បើក	-7.84866
សំខាន់	-7.85115
ឃើញ	-7.85194
li	-7.85195
ta	-7.85626
ទំនាក់ទំនង	-7.85637
របស់ខ្លួន	-7.85763
ព្រះ	-7.85914
ដែរ។	-7.85917
សកម្មភាព	-7.86125
កូន	-7.86261
ដោយសារតែ	-7.87124
មានន័យថា	-7.87441
គួរឱ្យ	-7.8751
បន្ត	-7.87574
ដឹង	-7.87613
▁នេះគឺជា	-7.87777
ol	-7.88668
លេខ	-7.89598
▁E	-7.89802
ឆ្លងកាត់	-7.90121
បិទ	-7.90358
ថាមពល	-7.90536
វិធី	-7.90609
ធម្មតា	-7.90881
បាននិយាយថា	-7.91249
រវាង	-7.91313
ប្រាក់	-7.91637
▁ឬ	-7.91683
លក់	-7.91799
តើអ្នក	-7.91899
ដី	-7.92031
ប្រាប់	-7.9204
ហ	-7.92213
ក្នុងរយៈពេល	-7.92237
រ៉ា	-7.92287
ខ្លួនអ្នក	-7.9248
រួមមាន	-7.92544
ដែលត្រូវបាន	-7.92656
st	-7.92731
សួរ	-7.92787
na	-7.92794
ឯកសារ	-7.9291
▁Ma	-7.93053
ណាស់។	-7.93178
បញ្ចប់	-7.93203
▁ឥឡូវនេះ	-7.93275
គិត	-7.93629
មែនទេ	-7.93853
ការពារ	-7.93998
ទិញ	-7.94726
មានអារម្មណ៍ថា	-7.9494
ដែលអាច	-7.95508
▁H	-7.95539
ស្វែងរក	-7.95774
ស្តាប់	-7.95844
E	-7.9594
ch	-7.96177
របស់ពួកគេ។	-7.96495
ី	-7.96554
អេ	-7.96853
ភាសា	-7.96888
▁18	-7.97208
សហរដ្ឋអាមេរិក	-7.97211
កើតឡើង	-7.9725
របស់លោក	-7.97391
▁I	-7.97544
▁6	-7.98195
មិនអាច	-7.98325
th	-7.98423
តូច	-7.98647
រៀន	-7.98856
បន្ទាប់មក	-7.98856
អ្នកមិន	-7.99054
ដោះស្រាយ	-7.99091
អាក្រក់	-7.99314
មើលទៅ	-7.99338
ខ្ញុំមិន	-7.99434
ក្លាយជា	-7.99717
បានទេ	-7.99884
គ្រប់គ្រាន់	-7.99928
ល្អបំផុត	-7.99962
កម្រិត	-8.00003
នេះគឺជា	-8.00175
ចូលចិត្ត	-8.00274
ភ្នែក	-8.00387
ne	-8.00397
សៀវភៅ	-8.00431
បា	-8.00799
ដើរ	-8.01548
▁នៅឆ្នាំ	-8.01571
ing	-8.0172
;	-8.01892
រឿងនេះ	-8.02117
តែងតែ	-8.02275
ពេល	-8.02292
កាន់តែ	-8.02484
R	-8.02869
មកពី	-8.02982
▁N	-8.03053
សរសេរ	-8.03154
at	-8.03245
ចាស់	-8.03443
ប្រហែល	-8.03543
ំ	-8.03551
តម្លៃ	-8.03862
ព	-8.03907
ម៉ាស៊ីន	-8.04079
នៅឯ	-8.04111
របស់វា	-8.04132
ញ	-8.04166
ស្ថានភាព	-8.04271
រាងកាយ	-8.04314
ជួយ	-8.04405
ការព្យាបាល	-8.04684
▁នៅពេលដែល	-8.0477
រូបភាព	-8.04869
វី	-8.04948
ដ៏អស្ចារ្យ	-8.05134
ស្គាល់	-8.05142
លា	-8.05639
ស្បែក	-8.05686
▁នាងបាន	-8.05939
ព្រោះ	-8.06027
ង់	-8.06339
am	-8.06425
កើត	-8.06449
បានទទួល	-8.0667
មានភាព	-8.06707
I	-8.0716
នៅជុំវិញ	-8.07335
រយៈពេល	-8.0734
ខ្សែ	-8.07405
អាន	-8.07528
ឈាម	-8.07617
ហៅ	-8.07663
▁បន្ទាប់មក	-8.07722
គាត់បាន	-8.07789
F	-8.07839
មុខ	-8.08289
អនុវត្ត	-8.08637
H	-8.08793
ទៀត	-8.08886
នរណាម្នាក់	-8.08903
ពន្លឺ	-8.09037
ខ្លាំង	-8.09262
B	-8.09401
ទាំងនោះ	-8.09622
រស់នៅ	-8.09664
ក្មេងស្រី	-8.10094
ណ	-8.10239
ស្លាប់	-8.10342
របស់គាត់។	-8.10415
▁ហេតុអ្វីបានជា	-8.10448
▁O	-8.10713
ក្រ	-8.10718
បាញ់	-8.10797
ហា	-8.10833
នោះ។	-8.11034
▁ដែលជា	-8.11067
មិត្តភក្តិ	-8.11202
ឌី	-8.11224
es	-8.11257
ផងដែរ	-8.11283
O	-8.11308
ខ្ញុំ។	-8.11408
យ៉ាងដូចម្តេច	-8.11413
ក្	-8.11456
ចូលក្នុង	-8.11772
ជាពិសេស	-8.11773
ត្រជាក់	-8.11836
▁20	-8.11898
សញ្ញា	-8.12422
ុ	-8.12448
អ្នកបាន	-8.12476
ត្រឡប់មកវិញ	-8.12609
ទាប	-8.12787
ដែលមិន	-8.12801
សេដ្ឋកិច្ច	-8.12901
សម្លាប់	-8.12952
ចុះ	-8.13306
ត្រឹមត្រូវ	-8.135
ទេប៉ុន្តែ	-8.13767
នៅពេលអ្នក	-8.142
គួរតែ	-8.14208
ក្បាល	-8.14209
ទូរស័ព្ទ	-8.1445
▁7	-8.14464
ថាតើ	-8.14913
ទាំងមូល	-8.14967
▁អ្នកអាច	-8.15151
កុមារ	-8.15318
ខ្លួន	-8.15325
សូម្បីតែ	-8.15347
និយាយអំពី	-8.15464
យកចិត្តទុកដាក់	-8.15505
ចំណុច	-8.15589
សិទ្ធិ	-8.15762
te	-8.15864
ic	-8.15975
ធ្លាប់	-8.16023
-	-8.16078
as	-8.16152
ពណ៌	-8.16426
ប៊ី	-8.16533
ផ្ទាល់ខ្លួន	-8.16706
រង់ចាំ	-8.16761
អ៊ី	-8.16855
រកឃើញ	-8.16881
G	-8.16889
មូលដ្ឋាន	-8.1738
ខ្សែភាពយន្ត	-8.17438
បន្ថែមទៀត	-8.17488
ែ	-8.17545
L	-8.18028
ក់	-8.18165
គ្រួសារ	-8.18183
រដ្ឋាភិបាល	-8.18219
il	-8.18334
គ	-8.18638
ទាំងពីរ	-8.18919
▁ក្នុង	-8.18976
ប្រេង	-8.19084
បី	-8.19471
ត្រ	-8.19578
រត់	-8.19731
▁បន្ទាប់ពី	-8.1976
ភ	-8.20113
ធ្វើឱ្យអ្នក	-8.20497
ព្យាបាល	-8.20905
ឡ	-8.20983
ផលិតផល	-8.21348
វត្ថុ	-8.21463
អ្វីមួយ	-8.21622
se	-8.21886
et	-8.2189
វាយ	-8.2198
▁គាត់បាន	-8.22101
▁សូម	-8.22111
▁R	-8.22779
អំណាច	-8.23088
យើងអាច	-8.23164
បន្ទប់	-8.23331
ទទួលយក	-8.23494
ផលិត	-8.2353
os	-8.23531
ជម្រើស	-8.23592
ad	-8.23623
បញ្ចូល	-8.2396
▁ខ្ញុំគិតថា	-8.24156
នាំ	-8.24242
សម្រាប់អ្នក	-8.24272
ការប្រើប្រាស់	-8.2434
▁ទោះយ៉ាងណា	-8.24373
នោះទេ។	-8.24552
កូ	-8.24592
មិនបាន	-8.24609
អ្នកកំពុង	-8.24693
ចង់បាន	-8.24827
ធម្មជាតិ	-8.24872
សិក្សា	-8.24872
សង្គ្រាម	-8.25436
អ្នកមាន	-8.25642
ine	-8.25773
កាត់	-8.25788
▁8	-8.25894
ឈប់	-8.25916
ed	-8.26075
ni	-8.26349
▁V	-8.26376
នយោបាយ	-8.26484
ដែរ	-8.2649
កណ្តាល	-8.26703
នាងបាន	-8.26722
ចាប់អារម្មណ៍	-8.27111
បានចាប់ផ្តើម	-8.27312
ធ្វើវា	-8.27534
មី	-8.27591
ថ្នាក់	-8.27722
ឺ	-8.27863
តិចតួច	-8.27976
ត្រូវតែ	-8.27992
សេ	-8.28006
វិទ្យាសាស្ត្រ	-8.28148
▁នេះ	-8.28198
me	-8.28233
ខុសគ្នា	-8.28337
បានទេ។	-8.28345
កុំ	-8.28523
▁La	-8.28524
បង្កើន	-8.28633
ភ្ជាប់	-8.28924
អ្នក។	-8.29441
ie	-8.29456
ចូលទៅក្នុង	-8.29594
ទទួល	-8.29663
ul	-8.301
▁នៅក្នុង	-8.30107
ៀ	-8.30247
រៀបចំ	-8.30268
ទូទៅ	-8.30515
ទីតាំង	-8.30648
សុខភាព	-8.30929
ជើង	-8.30966
da	-8.30978
នេះគឺ	-8.31063
▁ប្រហែលជា	-8.31339
យើងនឹង	-8.31506
ទើបតែ	-8.31594
ចិត្ត	-8.31599
ដូចគ្នា	-8.31643
ផ្តល់ឱ្យ	-8.3193
N	-8.32313
បានធ្វើ	-8.32456
ខួរក្បាល	-8.32655
▁15	-8.32877
អាចត្រូវបាន	-8.32971
do	-8.32986
ប៉ុណ្ណោះ។	-8.33024
co	-8.33036
កាន់	-8.33062
ជាធម្មតា	-8.33498
ដោយប្រើ	-8.33509
▁ទៅ	-8.33831
ុន	-8.34057
ក៏ដោយ	-8.34234
រ៉ូ	-8.34273
ម្តងទៀត	-8.34276
ុង	-8.34349
ភ្លាមៗ	-8.34495
mi	-8.34564
អាជីវកម្ម	-8.34584
អង្គុយ	-8.34675
ចំណាយពេល	-8.34957
ឱកាស	-8.35169
សំណួរ	-8.35349
របស់យើង។	-8.35422
ជនជាតិ	-8.35447
យូ	-8.3552
ម្តាយ	-8.35521
ka	-8.35561
ពីការ	-8.35613
ទៅក្នុង	-8.36127
តែមួយ	-8.36761
ដែលត្រូវ	-8.36776
គោលដៅ	-8.36777
យឺត	-8.36827
ប្រយុទ្ធ	-8.3692
▁ឧទាហរណ៍	-8.37193
▁W	-8.37348
▁Al	-8.37367
តុ	-8.37516
ិន	-8.3752
បែបនេះ	-8.37639
ខ្យល់	-8.37674
and	-8.37702
រីករាយ	-8.38029
de	-8.38035
▁ត្រូវបាន	-8.38067
េ	-8.38269
គី	-8.38293
នៅទីនេះ។	-8.383
ជំនួយ	-8.38416
ជាទូទៅ	-8.38432
ខ្ញុំគិតថា	-8.38443
ប៉ូលីស	-8.38657
កាន់តែច្រើន	-8.38691
▁គីឡូម៉ែត្រ	-8.38787
បំពេញ	-8.38809
ដែលយើង	-8.38874
ប៉ា	-8.39042
ដែលកំពុង	-8.39119
ួ	-8.39233
j	-8.3938
នៅទីក្រុង	-8.39572
សូ	-8.39595
▁U	-8.39994
▁មិនអីទេ	-8.40021
សាកល្បង	-8.40057
បំបែក	-8.40093
នាក់	-8.40303
បានក្លាយជា	-8.40322
អាមេរិក	-8.4042
ខ	-8.40482
ត្រូវបានប្រើ	-8.4059
ចលនា	-8.4072
ti	-8.40784
នេះត្រូវបាន	-8.40855
ការធ្វើ	-8.40921
បានឃើញ	-8.41069
ន់	-8.41442
ប្រតិបត្តិការ	-8.41715
ប្រទេសចិន	-8.41744
ផ្សព្វផ្សាយ	-8.41848
ក្មេងប្រុស	-8.42043
វ៉ា	-8.42167
ជិត	-8.42212
មើលឃើញ	-8.42253
គិតអំពី	-8.42276
បន្ទាប់	-8.42313
00	-8.42393
ផែនការ	-8.42516
ទៅនឹង	-8.42556
ទូរទស្សន៍	-8.4271
គាំទ្រ	-8.42738
ce	-8.4293
រោគសញ្ញា	-8.43146
ដោយគ្មាន	-8.43235
ឡើងវិញ	-8.43295
▁Mar	-8.43358
សារ	-8.43477
អ្នកដែល	-8.43522
មិនអីទេ	-8.43541
សិល្បៈ	-8.4358
ផលប៉ះពាល់	-8.4381
ian	-8.43813
កាត់បន្ថយ	-8.4383
អ្វីដែលអ្នក	-8.43953
ញ៉ាំ	-8.44164
3	-8.44199
ធ្វើឱ្យមាន	-8.44256
ថាជា	-8.44656
ធ្ងន់ធ្ងរ	-8.44707
ខា	-8.44723
it	-8.44739
2	-8.44805
'	-8.44859
man	-8.44895
ការសិក្សា	-8.45061
ថ្ម	-8.45193
ស្រឡាញ់	-8.4529
▁9	-8.45441
ក្នុងចំណោម	-8.45619
សមុទ្រ	-8.45626
▁L	-8.45792
ga	-8.45818
នីមួយៗ	-8.45837
កំពូល	-8.45911
នឹងមាន	-8.45928
សក់	-8.46
ថ្ងៃទី	-8.46099
▁Ro	-8.46385
ខ្មៅ	-8.46402
ck	-8.46457
▁ដើម្បី	-8.46492
វិញ	-8.46553
ពិត	-8.46655
1	-8.46737
ករណី	-8.46859
រា	-8.472
ពិចារណា	-8.47235
ពាក់កណ្តាល	-8.47318
ក្រោម	-8.47382
ពួកគេនឹង	-8.47418
យើងបាន	-8.47542
sh	-8.47571
ហ្គា	-8.47656
ភាគ	-8.4777
វេជ្ជបណ្ឌិត	-8.47842
តន្ត្រី	-8.47843
▁គ្រាន់តែ	-8.48057
កន្លែងដែល	-8.48063
បាត់បង់	-8.48212
ខ្លី	-8.48228
លើក	-8.48433
▁12	-8.48462
ba	-8.48598
បួន	-8.48743
មិនចាំបាច់	-8.48881
កុំព្យូទ័រ	-8.48962
គ្រូពេទ្យ	-8.48963
កោសិកា	-8.49063
លទ្ធផល	-8.49107
រាល់	-8.49609
យ៉ា	-8.49792
op	-8.49846
di	-8.50104
អន្តរជាតិ	-8.50204
ហើយបន្ទាប់មក	-8.50251
គំរូ	-8.50406
ជ	-8.50419
ចិន	-8.50499
បង្ហាញពី	-8.50505
បានបង្កើត	-8.50854
មេ	-8.50893
បញ្ជី	-8.50898
ឥឡូវនេះ។	-8.50999
ពិសេស	-8.51269
ដង	-8.51332
ជី	-8.5138
▁ក្នុងឆ្នាំ	-8.51562
un	-8.51681
សាលា	-8.51842
ជាក់លាក់	-8.51869
របស់ក្រុមហ៊ុន	-8.51903
បច្ចុប្បន្ន	-8.5199
តូ	-8.52097
ខាង	-8.52121
▁ដោយសារតែ	-8.52195
ខាងលិច	-8.52267
ទិន្នន័យ	-8.52294
សេវាកម្ម	-8.52337
ជាមួយអ្នក	-8.52342
ឈរ	-8.52359
អាយុ	-8.52532
របស់នាង។	-8.52532
ខែ	-8.52552
របស់មនុស្ស	-8.52559
ព្រឹត្តិការណ៍	-8.52612
ter	-8.52796
ខ្ញុំអាច	-8.52828
ក្មេង	-8.52913
ការប្រកួត	-8.53155
sa	-8.53286
ly	-8.53303
ចាំបាច់	-8.5333
ជាអ្នក	-8.53455
ប៉ុន្មាន	-8.53569
ៈ	-8.5357
▁នាទី	-8.53575
សំណើច	-8.53828
ca	-8.53841
ណែនាំ	-8.53913
កម្ម	-8.53918
និយាយជាមួយ	-8.53921
ទទួលបានការ	-8.54032
កាលពី	-8.54067
▁ហេ	-8.54254
កូនប្រុស	-8.54339
គាត់នឹង	-8.54363
នឹងមិន	-8.54457
ទីផ្សារ	-8.54612
▁30	-8.54672
មានការ	-8.54699
បច្ចេកវិទ្យា	-8.54759
ខាងត្បូង	-8.5484
ជំនាញ	-8.54848
ដូ	-8.54906
ប៉ះ	-8.54985
ry	-8.55122
ប់	-8.55193
ចម្ងាយ	-8.55292
ៃ	-8.55374
ហាក់ដូចជា	-8.55466
ឪពុក	-8.55592
គេហទំព័រ	-8.55631
អេស	-8.55762
ពិនិត្យមើល	-8.55764
ជួប	-8.55853
បន្តិច	-8.56066
ត់	-8.56094
ស្ងួត	-8.5618
មានបញ្ហា	-8.56203
ph	-8.56325
▁នៅថ្ងៃទី	-8.56407
ស្អាត	-8.56503
សាកលវិទ្យាល័យ	-8.5673
ក្នុងតំបន់	-8.57111
ក៏ដោយ។	-8.57144
ជាមួយនឹងការ	-8.57277
ទ្វារ	-8.57473
ពិតប្រាកដ	-8.57542
mo	-8.57664
id	-8.57744
ផ្ទុក	-8.57868
ម៉ោង	-8.57871
ខ្ញុំមាន	-8.58043
ថ	-8.5841
បំ	-8.58449
ខាងលើ	-8.58712
បានធ្វើឱ្យ	-8.58766
ទំហំ	-8.58854
ប្រាប់អ្នក	-8.58868
K	-8.58911
ឈឺចាប់	-8.58986
▁នោះហើយជា	-8.59076
ក្រោយ	-8.59176
ែល	-8.59185
វប្បធម៌	-8.59197
ចូលរួម	-8.59303
ផ្សេងទៀត។	-8.59372
ha	-8.59418
ឡាន	-8.59707
ប៉ូឡូញ	-8.59764
យ៉ាងហោចណាស់	-8.59766
របស់អ្នកហើយ	-8.59846
ហ្វ	-8.60042
កាំភ្លើង	-8.60047
ហ្គេម	-8.60058
ទារក	-8.60148
វានឹង	-8.60224
▁អ្នកបាន	-8.60264
យើងមាន	-8.6029
ច្រើនជាង	-8.60319
សប្តាហ៍	-8.60393
▁អ្នកមិន	-8.60436
អត្ថបទ	-8.60453
ាំង	-8.60505
មាត់	-8.6054
ការពិត	-8.60628
ផ្សេងៗគ្នា	-8.60707
ប្រភព	-8.60779
ទម្រង់	-8.60877
ប្រវត្តិសាស្ត្រ	-8.60916
ខ្	-8.60966
អាវ	-8.60987
វីដេអូ	-8.61029
ទៅជា	-8.61057
កោះ	-8.61066
▁ទេ	-8.61169
ពាក់	-8.61215
កម្លាំង	-8.61373
ក្រោយមក	-8.61392
V	-8.61575
វាអាច	-8.61606
ដក	-8.61764
ទាក់ទងនឹង	-8.61782
ចាំ	-8.61791
ពួកគេបាន	-8.61876
ការិយាល័យ	-8.61952
ត្រី	-8.61979
ទៅកាន់	-8.62114
អ្នកដទៃ	-8.62296
ក្តៅ	-8.62386
wa	-8.62463
ម្	-8.62654
ថត	-8.62712
របៀបដែល	-8.62735
មូលហេតុដែល	-8.62771
ដទៃទៀត	-8.6279
ភ្នំ	-8.62832
ប្រាំ	-8.62833
ពីព្រោះ	-8.62914
សំលេង	-8.62917
បង្រៀន	-8.62941
ឱ្យមាន	-8.63225
▁Re	-8.63261
bo	-8.63432
នៅជិត	-8.63531
បណ្តាញ	-8.63841
ធាតុ	-8.6402
បញ្ឈប់	-8.64317
no	-8.64357
v	-8.64399
ពាណិជ្ជកម្ម	-8.64407
កើនឡើង	-8.64422
ទាំងស្រុង	-8.64557
be	-8.64589
សាធារណៈ	-8.64614
U	-8.64632
ឈឺ	-8.64673
ការគ្រប់គ្រង	-8.64797
son	-8.64943
ប្រអប់	-8.65036
សំ	-8.65084
អង្គការ	-8.65125
ដោយមាន	-8.65211
ពិបាក	-8.65215
ភ្លើង	-8.6527
អាហ្វ្រិក	-8.65277
pe	-8.65464
ល់	-8.65485
ធ	-8.65491
ចេញ។	-8.65503
អ្នកត្រូវ	-8.65512
▁Le	-8.65544
vi	-8.65635
បានស្លាប់	-8.65788
នៅក្រោម	-8.65971
ហើយបាន	-8.65988
▁Ch	-8.66009
ខុស	-8.66037
▁អ្នកនឹង	-8.66052
▁Ka	-8.66099
ិត	-8.66136
ឪពុកម្តាយ	-8.66156
ធ្វើដំណើរ	-8.6639
ណូ	-8.66517
នៅពេលដែលអ្នក	-8.66523
សហគមន៍	-8.66734
▁ទោះបីជា	-8.66825
យល់	-8.6687
បញ្ជូន	-8.67004
មួយទៀត	-8.67062
មិនដែល	-8.67141
▁យើងនឹង	-8.67479
ក៏ដូចជា	-8.67594
បូ	-8.67631
នៅទីនោះ។	-8.67728
អ្នកគួរតែ	-8.67808
om	-8.67893
ho	-8.67936
ជំនួស	-8.67946
▁Mi	-8.6804
▁ខ្ញុំមាន	-8.68258
ចុច	-8.68287
ពេក	-8.68378
ir	-8.68456
គម្រោង	-8.68591
អាចជួយ	-8.68632
é	-8.68711
um	-8.68723
ខ្ញុំកំពុង	-8.68735
រុក្ខជាតិ	-8.68836
ក្រឡេកមើល	-8.68836
ពេញចិត្ត	-8.68917
ះ	-8.68935
ទំនងជា	-8.68961
សុវត្ថិភាព	-8.69179
ហេតុអ្វីបានជា	-8.69942
នេះជា	-8.7012
ដើម្បីទទួលបាន	-8.70564
ខណៈពេលដែល	-8.70572
សម្លៀកបំពាក់	-8.706
កងទ័ព	-8.706
ក្នុងករណី	-8.70696
▁នៅពេល	-8.70828
រំ	-8.70844
ទាញ	-8.70874
មិត្ត	-8.71027
ហាង	-8.71162
បានបញ្ចប់	-8.71204
ផ្ទៃ	-8.7124
▁Co	-8.71241
បាន។	-8.71289
ផ្កាយ	-8.71298
ក៏អាច	-8.71309
ang	-8.71313
ចែករំលែក	-8.71366
▁16	-8.71384
បទពិសោធន៍	-8.7142
ឡូ	-8.71519
លុយ	-8.71615
វាបាន	-8.71738
ut	-8.71809
បំផ្លាញ	-8.71857
po	-8.71892
រឹង	-8.71934
ប្រធានាធិបតី	-8.71981
ូ	-8.72055
ពួកគេ។	-8.72056
ពួកគេមិន	-8.721
អាចធ្វើឱ្យ	-8.72101
ard	-8.72124
ម៉ាក់	-8.72237
ដោយផ្ទាល់	-8.72243
ឧទាហរណ៍	-8.72296
ផ្តោតលើ	-8.72299
ឡើយ។	-8.72625
បុរាណ	-8.72656
▁17	-8.72749
បេះដូង	-8.72848
បានរកឃើញ	-8.72899
ប្តូរ	-8.72916
គឺថា	-8.73237
អាចមាន	-8.73244
ស្ទើរតែ	-8.73437
មានសុវត្ថិភាព	-8.73471
រួមទាំង	-8.73813
សាមញ្ញ	-8.73831
ចាកចេញ	-8.73864
▁Ca	-8.74061
ជារឿយៗ	-8.74094
សាងសង់	-8.74181
តិ	-8.74202
ហើយវា	-8.74226
ដោយការ	-8.74392
អតីត	-8.74451
វែង	-8.74452
▁Ba	-8.74539
ទុក	-8.74557
កំដៅ	-8.74622
▁ខ្ញុំចង់	-8.74834
ដេ	-8.74884
តិចជាង	-8.74922
▁Sa	-8.74998
មួយក្នុងចំណោម	-8.75053
នេះបាន	-8.75428
ទសវត្សឆ្នាំ	-8.75456
អាឡឺម៉ង់	-8.75487
នៅប្រទេស	-8.75525
គណបក្ស	-8.75553
ទាំងអស់។	-8.75643
io	-8.7567
រារាំង	-8.7582
បង្ហាញថា	-8.75869
រាប់	-8.75917
មើលទៅដូចជា	-8.75941
បង់	-8.76133
go	-8.76217
ell	-8.76306
ផ្ទាល់	-8.76343
ខណៈដែល	-8.76346
ច្រ	-8.76399
ពីរបី	-8.76509
នោះគឺជា	-8.76671
ភី	-8.76822
ru	-8.76849
ម៉ូ	-8.76873
ចាប់	-8.77004
ចាប់តាំងពី	-8.7701
កំហុស	-8.77188
▁De	-8.772
ow	-8.77259
▁អញ្ចឹង	-8.77308
ke	-8.77323
គ្រប់	-8.77432
យល់ព្រម	-8.77441
ko	-8.77638
រូប	-8.77662
ើ	-8.77758
មិនល្អ	-8.77817
ton	-8.77858
ខ្ញុំចង់	-8.77866
ធ្វើជា	-8.78016
4	-8.7805
មិនត្រឹមតែ	-8.78095
តូចមួយ	-8.78129
បុរសម្នាក់	-8.78216
សរុប	-8.78261
▁ដុល្លារ	-8.78337
ពង្រីក	-8.7853
អ្នកណាម្នាក់	-8.78594
បម្រើ	-8.78735
ki	-8.78819
ល្អ។	-8.7883
ជាមួយគ្នា	-8.79009
ដែលខ្ញុំ	-8.79014
ឆ្កួត	-8.79088
រថយន្ត	-8.79088
ជប៉ុន	-8.79176
ឱ្យបាន	-8.79267
បុគ្គល	-8.79354
រក្សាទុក	-8.79375
វាពិតជា	-8.7944
ធ្វើឱ្យខ្ញុំ	-8.7946
ស្នាក់នៅ	-8.79479
នា	-8.79632
ក្នុងស្រុក	-8.79761
ក្លឹប	-8.79782
រង	-8.79782
វិជ្ជមាន	-8.79857
បង្កើតឡើង	-8.79886
ដើម្បីធ្វើឱ្យ	-8.79937
▁ឥឡូវ	-8.8006
អគារ	-8.80341
ដំណោះស្រាយ	-8.80342
បារាំង	-8.80471
ចំ	-8.80569
គ្រាន់តែជា	-8.80784
របស់ប្រទេស	-8.80797
យ៉ាងឆាប់រហ័ស	-8.81045
បរិមាណ	-8.81186
▁Mo	-8.81252
ចាកចេញពី	-8.81261
▁ហើយខ្ញុំ	-8.81277
ិច	-8.81312
ជឿថា	-8.81346
គូ	-8.81421
មិនត្រូវបាន	-8.81425
តុលាការ	-8.81545
▁J	-8.81553
▁ខ្ញុំកំពុង	-8.81604
ថ្លៃ	-8.81697
ស្ថិតនៅក្នុង	-8.817
សមាជិក	-8.81723
ជួរ	-8.81875
▁St	-8.81949
គាត់។	-8.81959
bi	-8.82012
ឈានដល់	-8.82082
ab	-8.82097
ដែលពួកគេ	-8.82164
ភ្លេច	-8.82609
មួយផ្សេងទៀត	-8.82674
▁Me	-8.82723
សមត្ថភាព	-8.82748
នឹងក្លាយជា	-8.82795
សម្រាក	-8.83015
ផ្កា	-8.83052
មនុស្សដែល	-8.83123
▁Ha	-8.83126
ដ៏ធំមួយ	-8.83173
សាសនា	-8.83184
▁Ta	-8.83212
ដឹកនាំ	-8.83314
កំណើត	-8.83321
យោធា	-8.83329
ធនាគារ	-8.83329
អស់រយៈពេល	-8.83528
អាចជា	-8.83577
ផ្	-8.83877
និយម	-8.83891
ទន្លេ	-8.83906
ចិញ្ចឹម	-8.83915
ការបង្កើត	-8.84106
អស្ចារ្យ	-8.84139
ac	-8.84268
▁អ្នកដឹងទេ	-8.84398
ម៉	-8.84507
បើ	-8.84603
ot	-8.84609
ប្រសិនបើខ្ញុំ	-8.84728
ក្រហម	-8.84755
យើងកំពុង	-8.84842
មាស	-8.84925
យូរ	-8.85073
ស្រ	-8.85176
ដៃរបស់អ្នក	-8.85231
វៀតណាម	-8.85255
ចំណាយ	-8.85276
ឆ្កែ	-8.85281
័រ	-8.85372
▁យើងបាន	-8.85432
តម្រូវការ	-8.85495
he	-8.85588
នៅថ្ងៃ	-8.85628
va	-8.85721
ទាក់ទង	-8.85728
ក្រុមគ្រួសារ	-8.85813
ci	-8.85847
▁11	-8.8612
ពេញ	-8.86303
ភ្នាក់ងារ	-8.86309
W	-8.86312
ចាក់	-8.86352
ខាងជើង	-8.86416
▁Z	-8.86433
វិធីសាស្រ្ត	-8.86585
គ្រោះថ្នាក់	-8.86611
តាមដាន	-8.86856
ទឹកកក	-8.86928
ប៉ុន្តែវា	-8.87173
សាច់ដុំ	-8.87214
កូនស្រី	-8.87219
ទាក់ទាញ	-8.87306
រឿងរ៉ាវ	-8.87306
ោះ	-8.87403
ជេ	-8.87437
ថែរក្សា	-8.87479
ជាប់	-8.87496
▁p	-8.87602
▁de	-8.87632
ដែលអ្នកបាន	-8.87657
សកម្ម	-8.87718
▁Te	-8.87763
ខ្លាំងណាស់	-8.87917
ថាអ្នក	-8.87926
Y	-8.88032
ពួកគេអាច	-8.88046
មជ្ឈមណ្ឌល	-8.88212
អវិជ្ជមាន	-8.88282
លើសពី	-8.88295
អាស៊ី	-8.88405
សេរីភាព	-8.88591
ជំហាន	-8.88667
▁បុរស	-8.88838
បែប	-8.8893
ស្មុគស្មាញ	-8.88973
▁Ra	-8.89019
អាចធ្វើបាន	-8.8913
វិ	-8.89236
នៅតែមាន	-8.89293
ដែលមិនមាន	-8.89328
▁0	-8.89333
ព្រៃ	-8.89371
ពេលខ្លះ	-8.89452
ធ្វើឱ្យវា	-8.89663
ពួកគេមាន	-8.89683
នៅខាងក្រៅ	-8.89686
មុខងារ	-8.89739
មន្ទីរពេទ្យ	-8.8975
ទោះបីជា	-8.89842
អ្នកនិពន្ធ	-8.89967
មនុស្សគ្រប់គ្នា	-8.90048
អ្នកដឹងទេ	-8.90083
នៅសហរដ្ឋអាមេរិក	-8.90345
បានកើតឡើង	-8.90398
one	-8.90459
ឈើ	-8.90479
ts	-8.90572
សាច់	-8.90582
បន្	-8.90632
អ្វីដែលខ្ញុំ	-8.90716
ផ្តល់នូវ	-8.90726
តួនាទី	-8.90846
នោះគឺ	-8.90855
od	-8.90895
លួច	-8.90979
យើងទាំងអស់គ្នា	-8.90983
▁ពួកគេបាន	-8.91041
ជាងមុន	-8.91076
សេចក្តី	-8.91085
ភូមិ	-8.91106
ចំពោះការ	-8.91119
វាមិន	-8.91154
ផែនដី	-8.91221
អតិថិជន	-8.91447
ប្រមូល	-8.91454
កំ	-8.91483
អង់គ្លេស	-8.91504
ជាងនេះ	-8.91568
ពីរនាក់	-8.91898
រស់នៅក្នុង	-8.91971
កត់សម្គាល់	-8.92038
បរិស្ថាន	-8.92077
គាត់មិន	-8.92246
▁14	-8.92286
ate	-8.92333
ប្រទេសវៀតណាម	-8.92358
នៅខាងក្នុង	-8.92404
ក្រដាស	-8.92553
នឹងត្រូវបាន	-8.92741
ជំរុញ	-8.92757
▁Bo	-8.92762
ant	-8.92888
តារា	-8.93002
មនុស្សម្នាក់	-8.93225
ប្រតិកម្ម	-8.9324
ជុំវិញ	-8.93257
មកដល់	-8.93309
▁'	-8.9333
▁វាគឺជា	-8.93375
ងាយស្រួល	-8.93636
មានតែ	-8.93688
ធ្វើដូច្នេះ	-8.93745
ទោះបី	-8.94038
យើងមិន	-8.94147
មានតម្លៃ	-8.94156
ជំងឺមហារីក	-8.94183
័	-8.94432
ផ្តល់ឱ្យអ្នកនូវ	-8.94474
▁លោកស្រី	-8.94494
tic	-8.94499
▁2016	-8.94642
អ្នកជំងឺ	-8.94789
yl	-8.94905
ការអភិវឌ្ឍ	-8.9492
បេ	-8.94997
si	-8.95011
សម	-8.9505
ខេត្ត	-8.95116
ឆ	-8.95195
ឃ	-8.9521
ជិះ	-8.95272
ងងឹត	-8.95279
ទៅរក	-8.95281
ពីមុន	-8.95302
ឺរ	-8.95315
lu	-8.95327
លីន	-8.95389
ill	-8.95425
ឆ្ងាយ	-8.95513
លាយ	-8.95558
▁លាន	-8.95617
អ្វីៗ	-8.95779
▁មិនមាន	-8.95852
ដែលខ្ញុំបាន	-8.95949
/	-8.96207
▁Pa	-8.96352
ឧស្សាហកម្ម	-8.96424
5	-8.9649
ព្រំដែន	-8.9659
ស្រុក	-8.96618
នៅឯណា	-8.96823
ឱ្យអ្នក	-8.96953
រដ្ឋបាល	-8.97053
អំពីការ	-8.97149
អាយ	-8.97165
ឈ្នះ	-8.97202
អាស៊ីត	-8.97202
▁2014	-8.9726
ពណ៌ស	-8.97262
▁100	-8.97316
ve	-8.97324
បាននិយាយ	-8.97433
លើកទី	-8.97505
ក្នុងមួយ	-8.97546
▁ថ្ងៃ	-8.97578
កំណែ	-8.97583
បច្ចេកទេស	-8.97583
បន្ទាត់	-8.97592
អភិវឌ្ឍ	-8.97618
▁មិន	-8.97676
ឃើញថា	-8.9768
ប្រធានបទ	-8.9772
ដំណាក់កាល	-8.9775
▁2015	-8.97762
អ្នកពិតជា	-8.97861
▁An	-8.97932
ុយ	-8.98051
ហើយខ្ញុំ	-8.9811
za	-8.98204
ł	-8.98221
អ្នកប្រហែលជា	-8.98297
ផឹក	-8.98315
ក្រា	-8.98318
hi	-8.98434
▁ភាគរយ	-8.98446
▁នោះគឺជា	-8.98575
ផ្ទាំង	-8.98833
▁(19	-8.98853
វិញ។	-8.98887
7	-8.9893
ធ្លាក់ចុះ	-8.99026
បោះ	-8.99098
ប្រធាន	-8.99133
ov	-8.99252
ធី	-8.99317
ក៏បាន	-8.99331
ប្រពៃណី	-8.99432
ជាក់ស្តែង	-8.99432
▁2017	-8.99445
លោកស្រី	-8.99527
នៅថ្ងៃនេះ	-8.9953
▁ខណៈពេលដែល	-8.99568
ទ្រឹស្តី	-8.99601
ទាញយក	-8.99608
សក្តានុពល	-8.99616
▁13	-8.99886
នៅពេលដែលខ្ញុំ	-8.99957
ខាងក្រៅ	-9.00051
បំពង់	-9.00147
រួមគ្នា	-9.00158
ក្រៅពី	-9.00211
មែន	-9.00316
បើកចំហ	-9.00455
អភិវឌ្ឍន៍	-9.00455
កំណត់ត្រា	-9.00478
អត្រា	-9.00492
ុក	-9.00614
កាន់កាប់	-9.00627
ទា	-9.00689
▁ប្រើ	-9.00702
ទុកចិត្ត	-9.00904
មានលក្ខណៈ	-9.00924
9	-9.00926
ដែលធ្វើឱ្យ	-9.00927
ជ្រៅ	-9.01147
ដៃគូ	-9.01152
រឿងនោះ	-9.01152
▁Po	-9.01294
▁តាមពិត	-9.01297
បងប្រុស	-9.01316
ដែរឬទេ	-9.01346
ែន	-9.01416
ប្រសិនបើយើង	-9.01421
អាល់ប៊ុម	-9.01489
ស្រាល	-9.01573
ព្រះអាទិត្យ	-9.01631
កញ្ចក់	-9.01662
ឯកជន	-9.01672
▁2011	-9.01678
គុណ	-9.01755
សម្ពាធ	-9.01804
ge	-9.01949
ការឈឺចាប់	-9.02049
ស្រាវជ្រាវ	-9.02051
ផ	-9.02119
ឯក	-9.02157
វ័យក្មេង	-9.0219
▁ម៉ោង	-9.02203
▁Ar	-9.02234
▁2012	-9.02374
មានអាយុ	-9.02589
កិច្ចព្រមព្រៀង	-9.02884
ស្រី	-9.02899
ដើម្បីឱ្យ	-9.02946
ប្រាកដថា	-9.02991
ជឿ	-9.03039
ហិរញ្ញវត្ថុ	-9.03059
ប៊	-9.03063
ច្បាស់	-9.0323
តាំងពី	-9.03278
ទៅលើ	-9.03515
បានផ្លាស់ប្តូរ	-9.03538
សន្តិសុខ	-9.03589
សារធាតុ	-9.03644
លោត	-9.03766
ដកដង្ហើម	-9.03779
ត្	-9.03787
នៅក្នុងប្រទេស	-9.03804
មន្រ្តី	-9.0388
កាហ្វេ	-9.03943
គោលនយោបាយ	-9.03953
ចាប់ពី	-9.04008
មួយដែលមាន	-9.04092
▁Man	-9.04107
លាន	-9.04128
▁Li	-9.04176
pa	-9.0421
ផ្លូវចិត្ត	-9.04231
កុហក	-9.04298
▁Ho	-9.04327
៍	-9.04498
ហូរ	-9.04527
ទូ	-9.04577
ចូលរួមក្នុង	-9.04726
ទទួលស្គាល់	-9.04873
ng	-9.04962
ម្ចាស់	-9.04966
ប្រាប់ខ្ញុំ	-9.04987
all	-9.05097
ជញ្ជាំង	-9.05193
ទៀតទេ។	-9.05196
គេង	-9.0526
ចម្លើយ	-9.05373
ការសន្ទនា	-9.05374
ករ	-9.05404
អ្នកត្រូវតែ	-9.05435
ដោយមិន	-9.0545
មិនស្គាល់	-9.05527
ជួសជុល	-9.05553
អាចមើលឃើញ	-9.05652
សម្រាប់ខ្ញុំ	-9.05723
ស្រដៀងគ្នា	-9.05733
រចនាសម្ព័ន្ធ	-9.05739
ត្រូវធ្វើ	-9.05744
រដូវកាល	-9.05745
ដូចដែល	-9.05865
កីឡា	-9.05903
ផា	-9.05958
ខ្ញុំបានឃើញ	-9.06049
លក្ខណៈ	-9.06054
ធ្មេញ	-9.06093
▁Se	-9.06204
▁Gu	-9.06435
ឆ្អឹង	-9.06452
បង្អួច	-9.06459
យ៉ាងម៉េច	-9.06459
បរិភោគ	-9.06509
យល់ពី	-9.06544
ទុកឱ្យ	-9.0655
វាល	-9.066
ស៊េរី	-9.06642
▁X	-9.06651
គ្រាប់	-9.06799
លើកលែងតែ	-9.06819
អាជីព	-9.06823
នៅតាម	-9.06833
គ្រូ	-9.06845
▁វាមាន	-9.06894
ត្រូវបានគេហៅថា	-9.06899
លឿន	-9.06938
យុត្តិធម៌	-9.07006
ដែលមានឈ្មោះថា	-9.07066
នឹងត្រូវ	-9.07092
ម្តងទៀត។	-9.07155
▁ភាគខាងជើងខាងលិច	-9.07203
ចំពោះអ្នក	-9.07401
ដើម្បីជួយ	-9.07478
ៅ	-9.07536
អនាគត	-9.07557
លាង	-9.07606
ya	-9.07621
អ្នកណា	-9.07621
ធ្វើអ្វី	-9.07624
សក់របស់អ្នក	-9.07735
▁នៅពេលដែលអ្នក	-9.07882
អ្វីដែលយើង	-9.08013
អត្ថប្រយោជន៍	-9.0811
គួរ	-9.08161
ប្រឆាំង	-9.08253
ប្រើប្រាស់	-9.08253
ទំព័រ	-9.08295
ដែលមានភាព	-9.08422
ធ្ងន់	-9.08481
ជួល	-9.08481
និស្សិត	-9.08481
សីតុណ្ហភាព	-9.08481
គួរឱ្យកត់សម្គាល់	-9.08526
បាល់	-9.08528
គ្មាននរណាម្នាក់	-9.08543
លក្ខខណ្ឌ	-9.08667
ដោយសារ	-9.08721
រូ	-9.0884
ff	-9.08843
អឺរ៉ុប	-9.0901
ដូចជាការ	-9.09036
ស្នេហា	-9.09039
អាស្រ័យលើ	-9.09053
ដែលនឹង	-9.09083
im	-9.09277
▁ព្យាយាម	-9.09356
កាសែត	-9.09414
មានប្រសិទ្ធិភាព	-9.09414
មូលហេតុ	-9.09472
ខេ	-9.09509
ដេក	-9.09528
អាវុធ	-9.09599
គ្រឿង	-9.09622
សភា	-9.09732
ប្រមាណ	-9.0977
▁the	-9.09837
ផ្តល់ជូន	-9.0987
ម្ហូប	-9.09934
▁អ្វីដែល	-9.09974
ent	-9.0999
ការស្រាវជ្រាវ	-9.10122
ភាពតានតឹង	-9.1013
បាល់ទាត់	-9.10363
ឆ្លង	-9.1037
ដើមឈើ	-9.10404
មានគ្រោះថ្នាក់	-9.10481
គណនី	-9.10545
មធ្យោបាយ	-9.10545
ver	-9.1057
របស់វា។	-9.10625
ពន្ធ	-9.1068
ប្រូតេអ៊ីន	-9.10735
ឡេ	-9.10788
▁Na	-9.10809
គោលបំណង	-9.10819
តិច	-9.10829
▁ខ្ញុំមិនអាច	-9.10862
▁មើល	-9.10872
▁តើវា	-9.10878
▁តើអ្នកបាន	-9.1088
8	-9.10892
តំណាងឱ្យ	-9.10895
ធ្លាក់	-9.11052
ជីវ	-9.11061
ប្រសិទ្ធភាព	-9.11159
▁Ne	-9.11161
▁Lo	-9.11195
ចម្លែក	-9.11306
ហ្សែន	-9.11314
ដោយខ្លួនឯង	-9.11364
▁វាត្រូវបាន	-9.1148
ប្រជាធិបតេយ្យ	-9.11497
ide	-9.11501
▁2018	-9.11514
អាល់	-9.11576
រាងកាយរបស់អ្នក	-9.11608
ina	-9.11627
នឹងធ្វើឱ្យ	-9.11663
អេក្រង់	-9.11689
per	-9.11735
វាគឺជា	-9.11778
ហើយយើង	-9.11789
ក្នុងអំឡុងពេល	-9.11873
បានដាក់	-9.11911
▁b	-9.11967
ឌ	-9.12029
បរទេស	-9.12063
គឺជាការ	-9.1216
em	-9.12166
der	-9.12258
ការអនុវត្ត	-9.12263
ហេ	-9.12438
កំរិត	-9.12459
▁យើងមាន	-9.12545
ដុត	-9.12643
កាលបរិច្ឆេទ	-9.12652
▁ត្រូវប្រាកដថា	-9.12688
ប៉ុណ្ណោះ	-9.1269
ពិនិត្យ	-9.12713
គីមី	-9.12731
ទំនើប	-9.12733
គេ	-9.12778
ster	-9.128
ខ្ញុំមិនបាន	-9.12819
ក្រណាត់	-9.13041
អាចធ្វើទៅបាន	-9.13041
ស្នាម	-9.13081
ក្នុងនាមជា	-9.13178
ខ្លាញ់	-9.13227
ទាំងអស់នេះ	-9.13239
ហ្សា	-9.13258
ការគាំទ្រ	-9.13279
ថែមទាំង	-9.13418
នៅចុង	-9.13432
ពិធី	-9.13439
អាកាសធាតុ	-9.13443
ការធ្វើតេស្ត	-9.13447
នោះទេ	-9.13468
សាលារៀន	-9.13561
ពិធីជប់លៀង	-9.13626
គូរ	-9.13647
ត្រង់	-9.13704
វាជាការ	-9.13855
នេះមាន	-9.1395
▁50	-9.14013
អារ៉ាប់	-9.14017
ផ្ញើ	-9.14069
មានប្រយោជន៍	-9.14092
លាប	-9.141
លូ	-9.14121
របបអាហារ	-9.14237
រំពឹងថា	-9.14253
ៀន	-9.14325
▁Di	-9.14366
រូបថត	-9.14373
មួយចំនួន។	-9.14596
ទម្លាក់	-9.14607
មិនទាន់	-9.14608
សំខាន់ៗ	-9.14645
ឈ	-9.14759
ran	-9.14838
▁ខ្ញុំចង់និយាយថា	-9.14857
កាត	-9.14921
វគ្គ	-9.14976
ចន	-9.14999
ដោះលែង	-9.15011
▁2010	-9.15024
តែមួយគត់	-9.15098
មកទីនេះ	-9.15105
រដូវ	-9.1512
សេះ	-9.15145
លែង	-9.15173
តែម្នាក់ឯង	-9.15201
ការយល់ដឹង	-9.15243
ដដែល	-9.15266
ល្បឿន	-9.15268
ប្រកាស	-9.15336
គោរព	-9.15347
រួម	-9.15397
ហានិភ័យ	-9.15418
គិតពី	-9.15438
វាត្រូវបាន	-9.1545
ស្លាក	-9.15463
អ្វីទាំងអស់	-9.15513
pi	-9.1557
ឡុង	-9.15658
អ្វីខ្លះ	-9.15684
នាទី	-9.15703
ពិពណ៌នា	-9.15711
នាំឱ្យមាន	-9.15715
▁អ្នកគឺជា	-9.1575
លឺ	-9.15804
ពុល	-9.15831
ជាច្រើន។	-9.15855
▁ក្រុមហ៊ុន	-9.15968
ប្រភេទនៃ	-9.1599
នៅពេលក្រោយ	-9.16041
ព្	-9.16274
បដិសេធ	-9.16281
ក៏មាន	-9.16288
ខាងក្នុង	-9.16338
ទ្រព្យសម្បត្តិ	-9.164
▁heard	-9.16437
ហើយពួកគេ	-9.16489
▁ហើយបន្ទាប់មក	-9.16572
ប្រុងប្រយ័ត្ន	-9.16601
បានបង្ហាញថា	-9.1662
រំខាន	-9.16674
រស់	-9.16726
បានបង្ហាញ	-9.16727
នៅផ្ទះ	-9.16834
មេដឹកនាំ	-9.16835
bu	-9.16905
ហេតុផល	-9.16947
▁25	-9.16963
សុន	-9.17081
កំពុងព្យាយាម	-9.17084
អ្វីៗទាំងអស់	-9.17086
ខាងមុខ	-9.17116
នាវា	-9.17152
ការប្រយុទ្ធ	-9.17201
សម្គាល់	-9.17207
ចងចាំ	-9.17225
ដូចគ្នានឹង	-9.17412
ពួកគេកំពុង	-9.17501
្ល	-9.17513
▁តើអ្នកអាច	-9.17516
ខ្ញុំត្រូវការ	-9.17525
ពេញលេញ	-9.17569
ធនធាន	-9.17614
▁+	-9.17685
ការសម្តែង	-9.17699
នោះជា	-9.17715
ពូជ	-9.17722
ដាក់វា	-9.17724
ជាជាង	-9.17725
រង្វាន់	-9.17817
តាមរបៀប	-9.17836
dy	-9.1786
ផ្លូវភេទ	-9.17868
បាត់	-9.17924
អ្នកទាំងអស់គ្នា	-9.17941
គេស្គាល់ថាជា	-9.17998
របាយការណ៍	-9.18021
រចនា	-9.18049
ចាប់យក	-9.18123
ពន្យល់	-9.18129
ៗ	-9.18304
ស្នើសុំ	-9.1857
ការភ័យខ្លាច	-9.18583
ចម្លង	-9.18636
ដ៏សំខាន់	-9.18728
សម្អាត	-9.1883
ិក	-9.18848
mer	-9.18917
នៅពេលពួកគេ	-9.18952
ទីពីរ	-9.19009
យន្តហោះ	-9.19044
រូបរាង	-9.19057
ជួបអ្នក	-9.19127
បញ្ជាក់	-9.19176
ដែក	-9.19178
មានផ្ទៃពោះ	-9.19255
អស់	-9.19371
ស្មោះត្រង់	-9.19566
▁Jo	-9.19615
ាស់	-9.19645
នេះនឹង	-9.19692
នៅពេលដែលយើង	-9.19709
▁Ga	-9.1971
ទទួលខុសត្រូវ	-9.19732
ze	-9.19735
វិល	-9.19819
រុស្ស៊ី	-9.19849
បំណែក	-9.19877
បានសរសេរ	-9.19955
ធ្វើសកម្មភាព	-9.19961
មួយនៅ	-9.19983
បញ្ចេញ	-9.20245
ចុង	-9.20375
▁2009	-9.20518
សម្លេង	-9.2054
ពីរបៀបដែល	-9.20591
ស្រា	-9.20616
▁Si	-9.20622
ដំណើរ	-9.2063
les	-9.20641
របស់ស្ត្រី	-9.20653
ការកើនឡើង	-9.20659
ex	-9.2069
មា	-9.20714
gu	-9.20773
មនុស្សជាច្រើន	-9.20794
ការសម្រេចចិត្ត	-9.20798
នៅទូទាំង	-9.20878
យ៉ាងណា	-9.20915
che	-9.21029
ខ្ញុំនឹងមិន	-9.21093
▁ខ្ញុំពិតជា	-9.21093
រៀបការ	-9.21116
ហ្គោ	-9.21128
គំនូរ	-9.21134
ធ្លាក់ទឹកចិត្ត	-9.21134
មករក	-9.21141
ប្រាប់អ្នកថា	-9.21141
%	-9.21143
ដែលអ្នកចង់	-9.21192
ឆ្លើយតប	-9.21268
មានចំនួន	-9.21351
វាមាន	-9.21429
យកវា	-9.21462
ទទួលបានជោគជ័យ	-9.21488
ត្រឡប់ទៅ	-9.21492
បន្ទាប់ពីការ	-9.21513
បោះពុម្ព	-9.21542
ក្រសួង	-9.21556
0	-9.21566
មួយនៃ	-9.21625
ខាងកើត	-9.21633
នូវអ្វីដែល	-9.2185
ប៉ុណ្ណោះទេ	-9.21969
បោះពុម្ពផ្សាយ	-9.21988
បទចម្រៀង	-9.22031
ជួយសង្គ្រោះ	-9.2204
▁ក្នុងនាមជា	-9.22044
ខាងក្រោម	-9.22066
Q	-9.22138
ជំនឿ	-9.22193
ស្តង់ដារ	-9.22193
▁Car	-9.22242
់	-9.2236
ប៉	-9.22432
ទូក	-9.22463
អ្នកនឹងមិន	-9.22524
ពានរង្វាន់	-9.22623
▁2013	-9.22633
▁2004	-9.22638
ភ័យខ្លាច	-9.2268
ចាន	-9.22709
ភេទ	-9.22715
ឆ្មា	-9.22751
▁ខ្ញុំដឹងថា	-9.22812
នាង។	-9.22819
បាក់តេរី	-9.22834
បើកបរ	-9.22835
▁To	-9.22878
ការការពារ	-9.22879
បណ្តាលឱ្យ	-9.22953
ហៅថា	-9.22983
ស្រស់ស្អាត	-9.22987
ការរចនា	-9.23009
ឱសថ	-9.23048
មាននរណាម្នាក់	-9.23192
ស្តីពី	-9.23264
តារាសម្តែង	-9.23271
▁Da	-9.23349
វិនាទី	-9.23358
ជន	-9.23382
ទាមទារ	-9.23479
សំឡេង	-9.23479
អ្នករាល់គ្នា	-9.23487
គាត់មាន	-9.23551
ម្តង	-9.23588
នៅក្នុងតំបន់	-9.23614
នៅពីក្រោយ	-9.23701
▁បាទ	-9.23719
ភាគី	-9.23768
▁សូមឱ្យ	-9.2382
ឈុត	-9.23911
ដើម្បីការពារ	-9.24077
ពិ	-9.2419
▁គ្មាននរណាម្នាក់	-9.24211
50	-9.24261
ដុំ	-9.2429
ការចំណាយ	-9.24392
អ្នកធ្វើ	-9.24396
▁Be	-9.24426
សមាសធាតុ	-9.24564
ចំណាត់ថ្នាក់	-9.24564
កម្រ	-9.24583
ណ្ឌ	-9.24659
ហើយមាន	-9.24671
ថ្មី។	-9.24759
លំដាប់	-9.24782
ល្អឥតខ្ចោះ	-9.24797
នៅជាមួយ	-9.24818
នៅក្បែរ	-9.24865
កត្តា	-9.25001
កាបូប	-9.25002
▁វាមិន	-9.25149
មិនគួរ	-9.25156
តេ	-9.25203
កិត្តិយស	-9.2522
ស្តេច	-9.2522
ហើយខ្ញុំបាន	-9.25257
ដែលអ្នកអាច	-9.25267
បង្ក	-9.25371
សរសៃប្រសាទ	-9.25376
ប្តី	-9.2543
▁តើខ្ញុំ	-9.25436
ចំណងជើង	-9.25446
tra	-9.25484
ប្រពន្ធ	-9.25485
បងប្អូន	-9.25515
នេះហើយ	-9.25641
lin	-9.25653
ប្រៀបធៀប	-9.2566
ទស្សនៈ	-9.2566
អំបិល	-9.2566
មិនសូវ	-9.25663
ទាំងអស់ដែល	-9.2574
ខ្ញុំចូលចិត្ត	-9.25833
ក្នុងកំឡុងពេល	-9.25886
▁2008	-9.25897
មានអ្វី	-9.25919
▁ខ្ញុំជា	-9.25952
ig	-9.25966
ឱ្យខ្ញុំ	-9.26101
ជោគជ័យ	-9.26106
អ្នកចង់	-9.26199
មានប្រសិទ្ធភាព	-9.2627
រឹងមាំ	-9.26294
ក្រៅ	-9.26305
so	-9.26307
អាថ៌កំបាំង	-9.26324
▁Bar	-9.26357
ឈី	-9.26385
ហ្	-9.26483
tin	-9.26534
▁យើងមិន	-9.26535
ឯករាជ្យ	-9.26546
ហោះហើរ	-9.26618
ទេហើយ	-9.26664
ធ្វើបែបនេះ	-9.26803
រាល់ថ្ងៃ	-9.26882
ការចងចាំ	-9.26993
ខាងឆ្វេង	-9.26997
រងរបួស	-9.26999
ចុះក្រោម	-9.27016
ច្រើនពេក	-9.27047
ny	-9.27218
ល្	-9.27318
▁វាក៏	-9.27326
ប្រសិនបើវា	-9.27378
ខ្ញុំបានធ្វើ	-9.2738
ការចាប់អារម្មណ៍	-9.27383
ផ្លូវការ	-9.27398
ប្រើថ្នាំ	-9.27405
អក្សរ	-9.27409
ប្រកួតប្រជែង	-9.27428
ផលិតកម្ម	-9.27431
នៅសាកលវិទ្យាល័យ	-9.27445
▁Ja	-9.27453
▁តើអ្នកនឹង	-9.27589
ជម្លោះ	-9.27665
▁អ្នកត្រូវតែ	-9.27668
ផ្លែឈើ	-9.27672
▁ឆ្នាំ។	-9.27747
នាយក	-9.27814
ចំណាប់អារម្មណ៍	-9.2789
ការធ្លាក់ចុះ	-9.27961
ត្រួតពិនិត្យ	-9.28022
ចា	-9.28025
បន្ថយ	-9.28081
ធុង	-9.2816
ជាន់	-9.28184
កំពុងកើតឡើង	-9.28242
មេធាវី	-9.28342
បុគ្គលិក	-9.28348
wi	-9.2836
ការព្រួយបារម្ភ	-9.28377
▁Pe	-9.28418
ព្រោះវា	-9.28498
ប្រាកដ	-9.28506
មានសារៈសំខាន់	-9.28526
លេ	-9.28555
ស្អប់	-9.28569
mb	-9.28629
min	-9.28658
ja	-9.28683
ដាំ	-9.2874
▁ដាក់	-9.28743
ការដាក់	-9.28765
នៅឡើយទេ	-9.28805
មកខ្ញុំ	-9.28913
ag	-9.28992
ខ្លាច	-9.28992
អនុញ្ញាតឱ្យអ្នក	-9.28993
គុណភាព	-9.29072
▁អ្នកមាន	-9.29145
នៃប្រទេស	-9.29292
ap	-9.29322
នំ	-9.29393
ដើម្បីបង្កើត	-9.29412
art	-9.29545
▁នេះនឹង	-9.29604
we	-9.29618
ទោស	-9.2971
ន្ទ	-9.29927
មើលថាតើ	-9.29987
សង្ឃឹមថា	-9.29988
ខ្ញុំត្រូវតែ	-9.30005
▁=	-9.30011
ប្រទេសប៉ូឡូញ	-9.30174
▁24	-9.30244
ស្រទាប់	-9.30401
ហ្គូ	-9.30464
នេះទេ	-9.30516
ឹ	-9.30535
របៀប	-9.30621
នេះទេ។	-9.30665
▁ខ្ញុំអាច	-9.30683
ខ្ញុំដឹងថា	-9.30713
បានកើនឡើង	-9.3086
ទ្វីប	-9.30865
ដំបូងនៃ	-9.30983
ley	-9.30984
ud	-9.3103
មិនចង់	-9.31194
▁Bu	-9.31221
ou	-9.3124
ចាប់ខ្លួន	-9.31258
អ្នកត្រូវការ	-9.31281
mon	-9.31358
lan	-9.31408
ជូ	-9.31528
សូមមើល	-9.3155
▁អ្នកក៏អាច	-9.31564
អ៊ីនធឺណិត	-9.31564
ប្រចាំថ្ងៃ	-9.31564
ែរ	-9.31649
ស្លាប់។	-9.31662
ខាងស្តាំ	-9.31671
ការឆ្លើយតប	-9.31679
▁He	-9.31711
▁of	-9.31731
ឥរិយាបថ	-9.31798
សហ	-9.3192
វាយប្រហារ	-9.31972
យ៉ាងខ្លាំង។	-9.31981
ដាក់ឈ្មោះ	-9.32006
ទំនិញ	-9.32027
ច្រមុះ	-9.32033
ការប្រកួតប្រជែង	-9.32049
បានសម្លាប់	-9.3205
ខ្ញុំពិតជា	-9.32085
បានធ្លាក់ចុះ	-9.32127
ត្រឡប់មកវិញ។	-9.32132
▁Do	-9.32142
យើងត្រូវ	-9.32214
ចូលមក	-9.32234
ស៊	-9.32258
យាយ	-9.32261
សន្តិភាព	-9.32268
ក្នុងមួយថ្ងៃ	-9.32344
ផល	-9.32413
សិស្ស	-9.32504
ពិភព	-9.32583
▁អ្នកកំពុង	-9.32589
▁2019	-9.32757
▁a	-9.32927
អេឡិចត្រូនិច	-9.32978
ជ្រុង	-9.32989
▁ដូច្នេះតើ	-9.32998
នៅតំបន់	-9.3307
▁ប៉ុន្តែខ្ញុំ	-9.33074
នាងនឹង	-9.3309
ត្រលប់ទៅ	-9.33215
▁ម៉ែត្រ	-9.33227
ជួយឱ្យ	-9.33249
បំផុត។	-9.33332
អាកប្បកិរិយា	-9.33453
ទ្រង់	-9.33454
អ្នកជំនាញ	-9.33472
▁In	-9.33616
ដ៏ធំ	-9.33637
ស្បែកជើង	-9.33655
វិធីដែល	-9.33722
រដ្ឋមន្រ្តី	-9.33767
ត្រូវបានកំណត់	-9.33849
ហេតុអ្វី	-9.33865
ស្រែក	-9.33931
កៅអី	-9.33931
វាទេ។	-9.33939
ការណែនាំ	-9.34037
ធ្វើឱ្យប្រសើរឡើង	-9.34091
ធ្វើលំហាត់ប្រាណ	-9.34171
អេស្ប៉ាញ	-9.34171
តំឡើង	-9.34171
▁No	-9.34187
ប្រសិនបើពួកគេ	-9.34225
ដ៏ល្អបំផុត	-9.34234
សម្រេចចិត្ត	-9.34335
.000	-9.34346
ត្រូវបានគេស្គាល់	-9.34405
កណ្តុរ	-9.34411
សំណើម	-9.34484
▁ប្រសិនបើអ្នកមិន	-9.34556
▁សូមអរគុណ	-9.34565
ទំ	-9.34645
ជឿជាក់ថា	-9.34646
ភ្ញាក់ផ្អើល	-9.34656
ខែធ្នូឆ្នាំ	-9.34692
ឥទ្ធិពល	-9.34991
wo	-9.35028
មានឥទ្ធិពល	-9.35089
ឆ្ពោះទៅរក	-9.35211
▁ប្រសិនបើអ្នកមាន	-9.35335
ជួយអ្នក	-9.35343
ប្រាសាទ	-9.35379
នៃភាព	-9.35382
សម្រាប់អ្នក។	-9.35402
បទ	-9.35482
សមនឹង	-9.35547
?"	-9.35594
សមាគម	-9.35621
សំបុត្រ	-9.35622
ការអប់រំ	-9.35625
មុនពេលអ្នក	-9.35682
▁ម។	-9.35683
ត្រូវបានរកឃើញ	-9.35864
បន្តិចបន្តួច	-9.35866
អ្នកឃើញ	-9.35898
ត្រឹមត្រូវ។	-9.35997
ការស្លាប់	-9.36079
ដង្ហើម	-9.36092
អញ្ជើញ	-9.3611
ភស្តុតាង	-9.3611
ដឹងថាអ្នក	-9.36115
ការធ្វើឱ្យ	-9.36181
ឹម	-9.36189
ឥណ្ឌា	-9.36294
អាកាស	-9.36339
ហ៊ី	-9.36355
បានបាត់បង់	-9.36378
ជៀសវាង	-9.36441
កំណាព្យ	-9.36601
រាំ	-9.36672
ពូ	-9.367
បរាជ័យ	-9.36739
ហ្វូ	-9.36759
ក៏ដោយក៏	-9.36844
ខកខាន	-9.36848
ស្ថានីយ៍	-9.36851
អន្តរកម្ម	-9.36853
អ្នកចង់បាន	-9.36998
▁ជាមួយនឹង	-9.36999
មួយឆ្នាំ	-9.37018
ty	-9.37034
សតវត្សរ៍ទី	-9.37056
វេជ្ជសាស្ត្រ	-9.37096
ផ្តល់ឱ្យខ្ញុំនូវ	-9.37118
សុ	-9.37278
20	-9.37329
ម៉ារី	-9.37338
ers	-9.37359
ខែមករាឆ្នាំ	-9.3739
▁រកមើល	-9.37409
ចន្លោះ	-9.37425
សម្	-9.37447
ទីបី	-9.3746
លើកទឹកចិត្ត	-9.37562
ដោយខ្លួនឯង។	-9.37587
ពែង	-9.3759
ផ្សាយ	-9.37689
ó	-9.37722
ជាច្រើនដែល	-9.37794
▁Go	-9.37809
ខូច	-9.37877
▁So	-9.37902
ប៊ឺ	-9.38008
ឧ	-9.38088
ភារកិច្ច	-9.38088
ភេសជ្ជៈ	-9.38088
ឧទ្យាន	-9.38088
28	-9.38105
គោ	-9.38211
ចង់អោយ	-9.38229
មធ្យម	-9.38257
ខ្សោយ	-9.38309
ដឹងអំពី	-9.38335
ជាមុន	-9.38341
មានទំនោរ	-9.38342
កន្លែងណា	-9.3842
អ្វីទាំងអស់។	-9.38443
ស៊ីវិល	-9.38465
នៅលើពិភពលោក	-9.38476
នៅទីបំផុត	-9.38499
ជាមួយខ្ញុំ	-9.38515
ជំរុញឱ្យ	-9.38519
ដូចនេះ	-9.38585
យុទ្ធសាស្ត្រ	-9.38589
រន្ធ	-9.38589
hy	-9.38612
▁យក	-9.3864
ការត្រួតពិនិត្យ	-9.38693
gi	-9.38714
ក្នុងជីវិត	-9.38791
បញ្ជា	-9.38811
ភ្លឺ	-9.38828
ផ្លាស់ទី	-9.3884
ជាការពិត	-9.38883
ជីវិតរបស់អ្នក	-9.38896
ឆ្ងាយពី	-9.38952
សរសៃឈាម	-9.39016
ren	-9.39062
▁ពេលខ្លះ	-9.39067
បរិយាកាស	-9.39092
ការវាយប្រហារ	-9.39157
6	-9.39271
នៅកន្លែង	-9.39289
ត្រៀមខ្លួន	-9.39333
),	-9.39378
ឡើងលើ	-9.39441
តុន	-9.39472
នៅក្នុងបន្ទប់	-9.39592
▁2006	-9.39615
▁Qu	-9.39664
នៅពេលណា	-9.39689
វាយតម្លៃ	-9.39706
សាន់	-9.39726
អ្នកលេង	-9.39768
ផ្សេងៗ	-9.39803
ទៀងទាត់	-9.39852
▁(20	-9.3988
គ្រី	-9.39934
បានផ្តល់	-9.3995
សើច	-9.39982
ភាគច្រើននៃ	-9.40034
អប់រំ	-9.40103
រំភើប	-9.40106
សុទ្ធ	-9.40109
ភព	-9.40133
ជើងឯក	-9.40142
មហាវិទ្យាល័យ	-9.40212
27	-9.4024
ការគោរព	-9.4043
ក៏ជា	-9.40542
បង្កើតឡើងដោយ	-9.40656
អ្នកអាចធ្វើបាន	-9.4069
ចូលរួមជាមួយ	-9.40725
ពាក់ព័ន្ធនឹង	-9.40789
▁2007	-9.40892
ខែវិច្ឆិកាឆ្នាំ	-9.40915
ផ្សំ	-9.40951
▁ចាប់តាំងពី	-9.40977
នៅពេលនោះ	-9.41028
មិនមានអ្វី	-9.41037
សព្វថ្ងៃនេះ	-9.41153
▁ចាស	-9.41164
អាចទទួលបាន	-9.41177
▁40	-9.4124
ចែកចាយ	-9.41271
សង្កត់	-9.41388
ជម្រុញ	-9.41388
បង្វែរ	-9.41388
ងូតទឹក	-9.41388
សួស្តី	-9.41388
oc	-9.41526
រោងចក្រ	-9.41646
កំពុងធ្វើ	-9.41651
ដោះ	-9.41714
ber	-9.4172
▁នាងគឺជា	-9.41729
្យ	-9.41869
26	-9.41889
លេចឡើង	-9.41906
ទឹកដោះគោ	-9.41906
ថ្មីៗនេះ	-9.41923
ong	-9.41945
ម៉ាក	-9.41954
mp	-9.41985
ការកំណត់	-9.41991
បញ្ហានេះ	-9.4202
លានដុល្លារ	-9.42025
▁Ri	-9.42102
ធ្វើឱ្យប្រាកដថា	-9.42127
ip	-9.42134
គួរឱ្យអស់សំណើច	-9.42165
សង្កេត	-9.42165
សើម	-9.42166
ប្រសើរជាង	-9.42198
ដូចអ្នក	-9.42251
▁វានឹង	-9.42252
▁Su	-9.42257
ជាញឹកញាប់	-9.4233
មានរយៈពេល	-9.42339
តំណាង	-9.42351
ជានរណា	-9.42355
ក្រុមប្រឹក្សា	-9.42424
សរីរាង្គ	-9.42426
ក្រពះ	-9.42426
វីរុស	-9.42426
ជំនាន់	-9.42426
បានយក	-9.4249
បណ្តាលឱ្យមាន	-9.42521
ខ្ញុំទេ	-9.42582
ត្រលប់មក	-9.4261
អគ្គិសនី	-9.42687
គ្រឿងញៀន	-9.42687
ខ្ញុំត្រូវ	-9.42726
▁ក្នុងអំឡុងពេល	-9.42756
តឹង	-9.42764
ub	-9.42785
ប្រឈមមុខនឹង	-9.42787
ថើប	-9.42949
រាយការណ៍	-9.43028
បានជួប	-9.43035
▁យើងត្រូវ	-9.43047
▁Sp	-9.43055
80	-9.43093
អ្វីគ្រប់យ៉ាង	-9.431
និយាយអ្វី	-9.43102
ត្រូវបានដាក់	-9.43131
ana	-9.43204
បានរកឃើញថា	-9.43205
សម្ភារៈ	-9.43211
សំដៅទៅលើ	-9.43211
ចុះហត្ថលេខា	-9.43217
▁តោះ	-9.43225
ធ្វើអ្វីដែល	-9.43242
របស់អាមេរិក	-9.43256
នៅពេលនេះ	-9.43345
ចៀសវាង	-9.43436
ឆ្លើយ	-9.43474
បក្សី	-9.43474
កិច្ច	-9.43487
tro	-9.43539
អង្គភាព	-9.43559
▁យើងកំពុង	-9.43573
លើស	-9.43576
ធ្វើការជាមួយ	-9.43687
វិទ្យាល័យ	-9.43731
រសជាតិ	-9.43741
ដែលមានលក្ខណៈ	-9.43772
ប្រសិនបើគាត់	-9.43787
ការបណ្តុះបណ្តាល	-9.43952
▁តើមានអ្វីកើតឡើង	-9.4398
មូលនិធិ	-9.44003
សិល្បករ	-9.44003
បោះបង់ចោល	-9.44005
ក្តីសុបិន្ត	-9.44006
▁2000	-9.44022
កត់ត្រា	-9.44268
ពន្លឺព្រះអាទិត្យ	-9.44315
ox	-9.44325
បោះឆ្នោត	-9.44384
ប៉ូ	-9.44401
ចក្រភពអង់គ្លេស	-9.44484
ហ្គ	-9.44488
លេចធ្លោ	-9.44534
អំណោយ	-9.44534
បោះចោល	-9.44544
នរក	-9.44611
ការរលាក	-9.44627
បានមក	-9.44717
បញ្ចប់ការសិក្សា	-9.44723
ថតរូប	-9.44759
ឧស្ម័ន	-9.44789
សាធារណរដ្ឋ	-9.448
ព្យួរ	-9.44801
chi	-9.44833
ប្រទេសជប៉ុន	-9.44898
ដោយផ្អែកលើ	-9.44923
អស្ចារ្យណាស់	-9.45035
វិនិច្ឆ័យ	-9.45068
មិនឱ្យ	-9.45206
ris	-9.45223
គាត់កំពុង	-9.4526
ក្តី	-9.45283
shi	-9.45293
pp	-9.45331
ប្រាស្រ័យទាក់ទង	-9.45336
ទិសដៅ	-9.45336
▁តើមាន	-9.45339
របស់ព្រះ	-9.45416
ដូចគ្នា។	-9.45467
ធ្វើតាម	-9.45481
ទន់	-9.45539
នាងមិន	-9.45581
ទម្លាប់	-9.45605
សហព័ន្ធ	-9.45605
▁អ្នកគួរតែ	-9.45658
បានលើកឡើង	-9.45667
ប្រកបដោយ	-9.45754
អាង	-9.45779
សេរី	-9.45806
មួយនៅក្នុង	-9.45819
រុំ	-9.45867
ទាត់	-9.4588
រឿងមួយ	-9.45898
▁21	-9.45968
អាចរកបាន	-9.46013
រកមើល	-9.46053
ជាលើកដំបូង	-9.46063
ឪពុកខ្ញុំ	-9.4613
ស្បែករបស់អ្នក	-9.46133
ដែលត្រូវបានប្រើ	-9.46266
▁ផ្ទុយទៅវិញ	-9.46312
ដឹងថាតើ	-9.46414
នុយក្លេអ៊ែរ	-9.46416
បារម្ភ	-9.46416
បេសកកម្ម	-9.46416
ចូរ	-9.46431
tor	-9.4645
▁តើអ្នកណា	-9.46489
លះបង់	-9.46687
ខិតខំប្រឹងប្រែង	-9.46712
របស់អ្នកនឹង	-9.46739
ឫស	-9.46742
ដប	-9.4678
ណាមួយដែល	-9.4686
▁Ju	-9.46885
ទំងន់	-9.4696
ជំ	-9.47004
អ្នកទាំងពីរ	-9.47066
▁Ge	-9.47163
ចម្រៀង	-9.47167
ដល់អ្នក	-9.47184
បន្ទះ	-9.47233
សមរម្យ	-9.47233
កញ្ចប់	-9.47233
ហៃ	-9.47322
រៀងរាល់	-9.47385
ធានា	-9.47456
res	-9.47596
វិទ្យុ	-9.47646
ម៉ូដែល	-9.47713
aw	-9.47728
របស់អ្នកគឺ	-9.47806
អរគុណ	-9.47887
ទៀត។	-9.47893
▁Ni	-9.47994
nn	-9.4802
ពិន្ទុ	-9.48057
ធ្វើបាប	-9.48064
លើកកម្ពស់	-9.48067
ហាត់ប្រាណ	-9.48145
ទីមួយ	-9.48293
មានទំនាក់ទំនង	-9.48297
X	-9.48318
000	-9.48328
ក្រីក្រ	-9.48333
រលក	-9.48344
J	-9.48347
ដ៏ល្អ	-9.4836
ណេ	-9.48383
ម្នាក់ៗ	-9.48397
ស្នើសុំឱ្យ	-9.48428
▁ខ្ញុំគ្រាន់តែ	-9.48489
របស់អ្នកទេ	-9.48513
រ៉ែ	-9.48534
▁តើយើង	-9.48594
ព្រ	-9.48636
▁Lu	-9.48706
របស់ចិន	-9.48742
▁Hu	-9.48805
ផ្ទេរ	-9.48889
70	-9.48893
អ្នកទេ។	-9.489
នៅចន្លោះ	-9.4903
ពេលនេះ	-9.49073
ចុចលើ	-9.49114
ទឹកដី	-9.49118
ak	-9.4916
អ្នកនឹងត្រូវ	-9.49207
សារព័ត៌មាន	-9.49253
មិនស្រួល	-9.49356
ជាមួយគ្នា។	-9.49412
▁ហើយអ្នក	-9.4943
មហាសមុទ្រ	-9.49465
គ្រាប់បែក	-9.49469
ចង	-9.49472
▁ជាការពិត	-9.49515
លាក់	-9.49587
ដែលនៅសល់	-9.49611
អ្នកផ្សេងទៀត	-9.4962
ក្រុង	-9.49648
ស្ថាប័ន	-9.49726
បុរសដែល	-9.49744
សាប៊ូ	-9.49752
ទ័រ	-9.49848
សុខ	-9.49883
ព្រឹក	-9.49943
ប្រហោង	-9.50007
ស្រស់	-9.50013
ខឹង	-9.50017
zo	-9.50089
ផ្សេងទៀតដែល	-9.5012
ប្រហែលជាមិន	-9.50215
អភិបាល	-9.50281
ស្លឹក	-9.50289
ប្រមូលផ្តុំ	-9.50351
វិស័យ	-9.50381
ផ្អែកលើ	-9.50442
នាងមាន	-9.50543
ប្រវត្តិ	-9.50547
rin	-9.50563
ស្នាមប្រឡាក់	-9.50571
▁Vi	-9.50594
my	-9.50606
ពឹងផ្អែកលើ	-9.50639
យើងត្រូវតែ	-9.50668
▁Mu	-9.50745
រលាយ	-9.50786
បាត	-9.50868
ដែលគ្មាន	-9.50876
▁ខ្ញុំសុំទោស	-9.50907
យប់	-9.50951
គ្រែ	-9.50972
ស្ថិតក្នុង	-9.51132
រំលោភ	-9.51137
ឌីជីថល	-9.51139
ប្រគល់	-9.51139
ជាទីស្រឡាញ់	-9.51143
តាមអ៊ិនធរណេត	-9.51155
សាល	-9.51164
ប្រាក់ចំណូល	-9.51165
ខ្ញុំមិនអាច	-9.51217
ដ្ឋាន	-9.51273
▁Th	-9.51274
ដល់ឆ្នាំ	-9.51315
អាល្លឺម៉ង់	-9.51425
ពា	-9.51482
យ៉ាងច្បាស់	-9.51496
ចូ	-9.51549
កំពុងស្វែងរក	-9.51562
ដែលទាក់ទងនឹង	-9.51633
10	-9.5165
▁Ke	-9.5165
ជនរងគ្រោះ	-9.51708
ចៃដន្យ	-9.51709
▁លើសពីនេះទៀត	-9.51709
អារម្មណ៍របស់អ្នក	-9.51828
មួយម៉ោង	-9.51959
ថ្ងៃនេះ	-9.5196
ដរាបណា	-9.51996
សណ្តែក	-9.51996
.5	-9.52128
han	-9.52152
dr	-9.52179
ដែលគាត់បាន	-9.52241
ធ្វើរោគវិនិច្ឆ័យ	-9.52284
ឆាប់	-9.52287
ថាមាន	-9.52299
សម្រេច	-9.52354
30	-9.52436
ភាពយន្ត	-9.52541
រុញ	-9.52564
ស្រដៀងនឹង	-9.52571
រូបមន្ត	-9.52571
ពហុ	-9.52573
រើស	-9.52592
សហការ	-9.52632
ល្បែង	-9.52674
រីកចម្រើន	-9.5275
អតីតកាល	-9.52944
ទៅផ្ទះ	-9.52978
ay	-9.52992
អ្នកបានធ្វើ	-9.53092
ការបង្ហាញ	-9.53103
ដែលមានសុខភាពល្អ	-9.53114
សម័យ	-9.53139
អាហារពេលល្ងាច	-9.53151
ជក់បារី	-9.53152
បានធ្វើឱ្យមាន	-9.53192
ដ៏ស្រស់ស្អាត	-9.53253
ជំនួសឱ្យការ	-9.53296
tan	-9.53378
សន្យា	-9.5343
ey	-9.53441
ទម្ងន់	-9.53441
វិជ្ជាជីវៈ	-9.53441
មួក	-9.53442
តូចៗ	-9.53489
ត្រូវបានបង្ហាញ	-9.53551
និ	-9.53562
របស់រដ្ឋាភិបាល	-9.53577
ដឹងពី	-9.53609
▁ភាគខាងជើង	-9.53651
ការបោះឆ្នោត	-9.53693
ឱ្យគាត់	-9.53726
ពង្រឹង	-9.53732
កខ្វក់	-9.53732
បងស្រី	-9.53733
បង្	-9.53755
▁ខ្ញុំត្រូវ	-9.53759
▁តើគាត់	-9.53819
ជួបប្រទះ	-9.54025
ហ្ស	-9.54075
ឡើងវិញ។	-9.54098
gen	-9.54158
▁វាមិនមែនជា	-9.54277
ហ្សូ	-9.5431
ពន្ធនាគារ	-9.54388
រោគ	-9.54436
ប៉ះពាល់ដល់	-9.54543
▁ដង	-9.54578
II	-9.54594
អាជ្ញាធរ	-9.54612
ដំបូងបង្អស់	-9.54612
រហ័ស	-9.54612
អ៊ូ	-9.54621
មានទីតាំងស្ថិតនៅ	-9.54681
នៅយប់នេះ	-9.54683
▁គាត់ជា	-9.54697
យំ	-9.54767
រួមបញ្ចូល	-9.54849
ក្លាយជាអ្នក	-9.54908
ត្រូវបានធ្វើឡើង	-9.55066
0%	-9.55195
ice	-9.55197
á	-9.55203
កាមេរ៉ា	-9.55203
រថភ្លើង	-9.55203
ទោះជាយ៉ាងណាក៏ដោយ	-9.55208
បានឈ្នះ	-9.55317
ប្រើវា	-9.55358
ធំជាង	-9.5537
ski	-9.55375
ហើយដូច្នេះ	-9.55382
ស្រមៃ	-9.55383
របាំ	-9.55408
ការគិត	-9.55412
សំរេច	-9.55475
មិនគួរឱ្យជឿ	-9.55481
ផ្នែកមួយនៃ	-9.55512
ica	-9.55536
ពោះ	-9.55547
ដែលអ្នកកំពុង	-9.55619
នៃជីវិត	-9.55649
ខ្ពស់បំផុត	-9.55673
រាត្រី	-9.55741
ast	-9.55815
របស់អ្នកទេ។	-9.55817
ហ្គី	-9.5582
▁អញ្ចឹងខ្ញុំ	-9.55948
ចប់	-9.55951
ខោ	-9.55998
គឺលោក	-9.56034
យុវជន	-9.56096
គោលការណ៍	-9.56096
បន្តិច។	-9.56097
នឹងជួយ	-9.56113
ម៉ាស់	-9.56125
ដើរតាម	-9.56165
មានឱកាស	-9.56221
ist	-9.56225
អ៊ីតាលី	-9.5625
ទៅមុខ	-9.56296
nes	-9.56342
មានកំហុស	-9.56349
បណ្ណាល័យ	-9.56395
ភរិយា	-9.56395
សួត	-9.56396
អនុ	-9.56402
ធានាថា	-9.56461
ទឹកឃ្មុំ	-9.56482
ai	-9.56484
▁មានតែ	-9.56491
ជាយូរមកហើយ	-9.56696
ដែលបានធ្វើ	-9.56759
ជាងគេ	-9.5684
រួចហើយ	-9.56903
ត្រូវប្រាកដថា	-9.56931
ត្រា	-9.56977
លុប	-9.56986
យ៉ូ	-9.57009
បារ	-9.57042
ib	-9.57179
ហូ	-9.57279
នៅពេលដែលគាត់	-9.57283
ពង	-9.57295
មហោស្រព	-9.57299
ផ្លុំ	-9.57299
អ្នកគ្រាន់តែ	-9.57374
ដោះស្រាយបញ្ហា	-9.57421
បង្ខំឱ្យ	-9.57516
បាទ	-9.57543
ផែនទី	-9.57602
គ្មានអ្វី	-9.57619
ប្រទេសឥណ្ឌា	-9.57679
ការលក់	-9.57693
ទេឬ	-9.57763
ប្រធានក្រុម	-9.5777
សកល	-9.57792
អ្វីក៏ដោយ	-9.57816
ខ្ញុំទេ។	-9.57824
មានពេលវេលា	-9.5784
បានធ្វើការ	-9.57841
hu	-9.5789
សៀ	-9.57894
ព្យុះ	-9.57906
សំរាម	-9.57906
▁ខ្ញុំសង្ឃឹមថា	-9.57964
▁The	-9.57977
អ៊ីញ	-9.58038
បែក	-9.58056
មាតិកា	-9.58211
ស្មៅ	-9.58211
គឺមាន	-9.58337
កែ	-9.58364
ចង់ឱ្យ	-9.58377
បដិវត្ត	-9.58517
ល្ខោន	-9.58517
រស់រានមានជីវិត	-9.58517
សារមន្ទីរ	-9.58524
អ្នកដឹងថា	-9.58596
ប្រវែង	-9.58625
នៅសល់	-9.58645
ការព្យាបាលដោយ	-9.58661
រួមជាមួយ	-9.58667
ការគំរាមកំហែង	-9.58751
មិនថា	-9.58776
ទ្រូង	-9.58823
ស្នូល	-9.58823
ភាគហ៊ុន	-9.58823
នាពេលអនាគត	-9.58823
ភាសាអង់គ្លេស	-9.58891
▁22	-9.58949
ចេញមក	-9.5895
ស្វែងយល់ពី	-9.59028
តារាង	-9.59042
លោកម្ចាស់	-9.59062
សំអាត	-9.59131
គណៈកម្មាធិការ	-9.59132
នៅចំពោះមុខ	-9.59134
▁Pro	-9.59139
bb	-9.59193
ញូវយ៉ក	-9.59201
ជំនួសឱ្យ	-9.59219
yn	-9.59236
ob	-9.59238
ស្រុករដ្ឋបាល	-9.59311
សម្ងាត់	-9.59399
ចំណេះដឹង	-9.5944
▁ជាការប្រសើរណាស់	-9.5944
ass	-9.59442
ពួក	-9.59674
គ្នាទៅវិញទៅមក	-9.59746
អាពាហ៍ពិពាហ៍	-9.59749
▁2005	-9.59776
ការឆ្លង	-9.59797
នឹងធ្វើ	-9.59839
ចំណែក	-9.60017
យុទ្ធនាការ	-9.6006
▁ខែ	-9.60065
ច្រើនតែ	-9.60109
ដើរលេង	-9.60136
ជូត	-9.60154
គ្រ	-9.60169
នៃទីក្រុង	-9.60287
▁We	-9.60376
ខ្លាំងណាស់។	-9.60405
របស់អ្នកឱ្យ	-9.60418
ធុញទ្រាន់	-9.60645
រាប់បញ្ចូល	-9.60746
សំខាន់បំផុត	-9.6076
ការថប់បារម្ភ	-9.60797
▁អ្នកចង់	-9.60848
ចង់ឱ្យអ្នក	-9.6091
ខ្ញុំស្រឡាញ់	-9.60939
ផុត	-9.60979
មិត្តរបស់អ្នក	-9.60997
ប្លុក	-9.60997
នាំអ្នក	-9.61024
ler	-9.6103
que	-9.61052
ជាបន្តបន្ទាប់	-9.61083
ដែលនាងបាន	-9.61188
មុនពេលដែល	-9.61245
រំលាយ	-9.61259
▁Pi	-9.61279
សុំទោស	-9.61307
▁Wi	-9.6131
ចម្រុះ	-9.61312
ម្សៅ	-9.61312
នាំមកនូវ	-9.61313
មន្ទីរពិសោធន៍	-9.61313
ព្រះវិហារ	-9.61333
ez	-9.61428
របស់ប្រជាជន	-9.61428
ប្រូ	-9.61428
▁អ្នកដឹងថា	-9.61466
គ្របដណ្តប់	-9.61472
ធ្វើឱ្យពួកគេ	-9.61476
ett	-9.61503
▁តើខ្ញុំអាច	-9.61553
គាត់អាច	-9.61609
សន្មតថា	-9.61627
សត្រូវ	-9.61718
ខាំ	-9.61731
▁Par	-9.61787
ភ្ញៀវ	-9.61905
ផ្គត់ផ្គង់	-9.61926
ការចោទប្រកាន់	-9.61938
ទាហាន	-9.61944
អភិរក្ស	-9.61944
▁Gmina	-9.61945
▁នៅភាគខាងជើង	-9.62005
ជាច្រើនទៀត	-9.62007
ជៀសវាងការ	-9.62151
យើងគួរតែ	-9.62183
ចោល	-9.62224
ទស្សនាវដ្តី	-9.62261
នឹក	-9.62266
ដែលទទួលបាន	-9.62272
▁60	-9.6233
ron	-9.62383
មកលើ	-9.62439
ម៉ូដ	-9.62447
វិមាន	-9.62447
មហា	-9.6253
អ្នកប្រើប្រាស់	-9.62533
ច្រៀង	-9.62594
cy	-9.62603
ទ្វេដង	-9.62624
ដៃគូរបស់អ្នក	-9.62625
កម្មករ	-9.62626
របស់ខ្ញុំទេ។	-9.62813
សុំ	-9.62838
▁តើអ្នកមាន	-9.62892
ថ្លើម	-9.62899
}	-9.62899
វាទៅ	-9.62949
អត្តសញ្ញាណ	-9.63033
ម៉ូលេគុល	-9.6322
ហាមឃាត់	-9.6322
ចំហៀង	-9.6322
ត្រូវបានចេញផ្សាយ	-9.6323
បង្កឱ្យមាន	-9.63258
29	-9.63271
ឃី	-9.63287
៊	-9.63293
ham	-9.63522
វង្វេងស្មារតី	-9.63543
ក្នុងពេល	-9.63574
បកប្រែ	-9.63579
▁Cor	-9.63826
ពណ៌ខៀវ	-9.6389
ick	-9.63919
គណិតវិទ្យា	-9.64188
នាំយក	-9.64196
យើងត្រូវការ	-9.642
ner	-9.64218
ការកាត់បន្ថយ	-9.64237
កក	-9.64258
ផលប្រយោជន៍	-9.6435
ភ្នែករបស់អ្នក	-9.64412
សមាជិកនៃ	-9.64435
រួចហើយ។	-9.64478
ក្បាលរបស់អ្នក	-9.64488
កូរ៉េ	-9.64491
បណ្តុះបណ្តាល	-9.64574
ជើងរបស់អ្នក	-9.64601
ខ្ពស់ជាង	-9.64624
ah	-9.64636
សង	-9.64677
មនុស្សពេញវ័យ	-9.64704
អ្នកមិនបាន	-9.64724
អេម	-9.6474
▁As	-9.64801
កប៉ាល់	-9.64838
វាមិនមែនជា	-9.64867
ម្ខាង	-9.64926
ការផលិត	-9.64997
ហ្វា	-9.65021
ee	-9.65037
und	-9.65149
លំនាំ	-9.65165
rk	-9.65207
របស់ខ្ញុំគឺ	-9.65331
ជាមនុស្ស	-9.65355
យល់ថា	-9.65365
ភាគខាងត្បូង	-9.65402
cu	-9.65409
សប្បាយចិត្ត	-9.65426
OS	-9.65447
ពិភាក្សា	-9.6545
ខ្នង	-9.65481
ប្រែប្រួល	-9.65493
ការបញ្ជាទិញ	-9.65513
លេងសើច	-9.65653
ដូច្នេះវា	-9.65807
ក្រែម	-9.65822
ជាលិកា	-9.65824
▁អ្នកមិនអាច	-9.65954
ung	-9.66012
▁នេះអាច	-9.66028
យើងមិនអាច	-9.66039
48	-9.66051
ចង្អុលបង្ហាញ	-9.66125
ក្នុងពេលតែមួយ	-9.66176
ការខូចខាត	-9.66181
អ៊ីន	-9.66181
ku	-9.66273
ៀង	-9.66399
ជិតស្និទ្ធ	-9.66438
ត្រចៀក	-9.66483
ការឆ្លងមេរោគ	-9.6649
ក្រាស់	-9.6653
លិច	-9.66538
កង់	-9.66544
យោង	-9.66567
ងាយ	-9.66622
ដែន	-9.66684
▁West	-9.66745
អ្វីដែលពួកគេ	-9.66745
ហើម	-9.66815
វិទ្យាស្ថាន	-9.66819
ភពផែនដី	-9.66832
តវ៉ា	-9.66861
ep	-9.66886
អេសអេស	-9.66928
តាំង	-9.66938
ចាត់ទុក	-9.66966
ជាម្ចាស់	-9.6699
▁តើមានអ្វី	-9.6706
ការធ្វើដំណើរ	-9.67064
ជាសះស្បើយ	-9.67148
កន្សែង	-9.67148
ការនិយាយ	-9.67157
លេខកូដ	-9.67175
ការ៉េ	-9.67181
អ្នកមិនអាច	-9.6721
មានសុខភាពល្អ	-9.67219
ដំបូងគេ	-9.67296
បន្ទាន់	-9.67321
ត្រូវបានអនុវត្ត	-9.67341
18	-9.67414
របស់ក្រុម	-9.67421
90	-9.67538
ដោយឥតគិតថ្លៃ	-9.67564
ពាក់ព័ន្ធ	-9.67593
ប្រភេទសត្វ	-9.67604
ការកើនឡើងនៃ	-9.67618
អ្វីគ្រប់យ៉ាងដែល	-9.67627
អះអាងថា	-9.67698
មហារីក	-9.67741
ប្រសិនបើអ្នកមិន	-9.67771
ចុះឈ្មោះ	-9.67816
វិវត្ត	-9.67818
ev	-9.67891
បានចាកចេញពី	-9.67899
▁ភាគរយនៃ	-9.67982
11	-9.68008
ស្ករ	-9.68021
ជុំ	-9.68053
បានបន្ត	-9.68124
ជូនដំណឹង	-9.68155
ស្រូបយក	-9.68155
មានលទ្ធភាព	-9.68177
បាត់ខ្លួន	-9.6821
ជនជាតិអាមេរិក	-9.68223
ធ្វើឱ្យគាត់	-9.68243
លើកដំបូង	-9.68313
▁(1	-9.68342
ក្លិន	-9.68383
ពលរដ្ឋ	-9.68488
ផលវិបាក	-9.68493
end	-9.68493
ស្ម័គ្រចិត្ត	-9.68493
ចរិត	-9.68493
ច្បាស់លាស់	-9.68495
ជំងឺរលាក	-9.68552
រោម	-9.68641
ឥតគិតថ្លៃ	-9.6875
គំនិតរបស់អ្នក	-9.68804
ផ្សិត	-9.68842
ន័យ	-9.68908
មួយថ្ងៃ	-9.68937
លទ្ធផលនៃ	-9.68998
តែមួយគត់ដែល	-9.69016
▁23	-9.69066
ស៊ើបអង្កេត	-9.69086
by	-9.69098
▁អ្នកគិតថា	-9.69107
ជំហរ	-9.69172
សាហាវ	-9.69172
ស្របច្បាប់	-9.69172
ចេញទៅក្រៅ	-9.69172
មានបំណង	-9.69255
▁តើអ្នកគិតថា	-9.69289
zi	-9.69334
ច្នៃប្រឌិត	-9.69336
អស់រយៈពេលជាច្រើន	-9.69367
អូស	-9.69377
រាង	-9.69499
ព្រោះខ្ញុំ	-9.69512
កំពង់ផែ	-9.69513
កីឡាករ	-9.69536
31	-9.6958
សាយ	-9.69624
ង្គ	-9.69644
▁ប្រសិនបើអ្នកចង់	-9.69658
យ៉ាងល្អ	-9.69792
ដប់	-9.69796
ស្ងប់ស្ងាត់	-9.69839
វិបត្តិ	-9.69843
សម្របសម្រួល	-9.69855
កំហឹង	-9.69855
ល្បិច	-9.69856
ជាផ្លូវការ	-9.70071
ដឹងពីរបៀប	-9.70132
អេហ្វ	-9.70138
ប្រជាប្រិយ	-9.70168
ចេតនា	-9.70199
សាស្រ្តាចារ្យ	-9.70199
ជជែក	-9.7021
▁..	-9.70238
ស៊ូ	-9.70241
▁1990	-9.70308
រអិល	-9.70322
សាខា	-9.70358
12	-9.704
រាវ	-9.7041
▁ខ្ញុំសូម	-9.70413
រ៉	-9.70509
បរិសុទ្ធ	-9.70547
ស្តារ	-9.70648
ដែលយើងបាន	-9.7066
ចោទប្រកាន់	-9.70667
▁តើអ្នកចង់	-9.7086
ation	-9.70882
អំពាវនាវ	-9.7089
q	-9.70924
របស់បុរស	-9.70962
លូតលាស់	-9.71025
ក្រុមតន្រ្តី	-9.71061
ដែលមានរាង	-9.7107
ពីរដង	-9.71137
វាគ្រាន់តែជា	-9.71209
ជានិច្ច	-9.71237
វីនដូ	-9.71237
លុបបំបាត់	-9.71243
លេចចេញ	-9.71288
fi	-9.71419
ino	-9.71439
▁Ko	-9.71518
▁ខ្ញុំមិនដែល	-9.71544
ធូរស្បើយ	-9.71586
សន្លឹក	-9.71586
ប្រលោមលោក	-9.71586
កក់ក្តៅ	-9.71586
នេះមិន	-9.71602
យ៉ាងទូលំទូលាយ	-9.71619
បានចូលរួមក្នុង	-9.71636
មួយខែ	-9.71709
សកលលោក	-9.71723
vo	-9.71749
តែងតាំង	-9.7186
ភ្ញាក់	-9.71871
az	-9.71911
មេរោគ	-9.71962
ក្រិក	-9.71988
ការចាក់	-9.72038
ត្រូវបានគេរកឃើញ	-9.72065
បានបង្ហាញខ្លួន	-9.72073
វាហាក់ដូចជា	-9.72115
lic	-9.72119
ជីវិតរបស់ខ្ញុំ	-9.72125
ម៉ាស	-9.72201
ឪពុករបស់អ្នក	-9.72209
ហ្វី	-9.72209
បុរសនោះ	-9.7222
ចក្ខុវិស័យ	-9.72286
អនុម័ត	-9.72297
នាយកដ្ឋាន	-9.72298
របស់គាត់គឺ	-9.72396
▁Sha	-9.72454
បានប្រាប់	-9.72482
▁Her	-9.72505
ស្ថាន	-9.72514
នៅពេលយប់	-9.7257
រុករក	-9.72574
ភ្នាល់	-9.72639
ម៉ាយល៍	-9.72639
នៅពេលខ្ញុំ	-9.72644
ពណ៌បៃតង	-9.72662
វាស់	-9.72736
ger	-9.72737
លីក	-9.72743
មកហើយ	-9.72807
ដែលបានកំណត់	-9.72848
ដឹក	-9.72866
គួរតែត្រូវបាន	-9.72894
កំប្លែង	-9.72972
ល្អសម្រាប់	-9.72981
cho	-9.72984
ហែលទឹក	-9.72984
ទ្រង់ទ្រាយ	-9.72992
សំលេងទះដៃ	-9.72992
ក្រចក	-9.72992
ក្តីសង្ឃឹម	-9.73053
ត្រលប់មកវិញ	-9.73096
ខ្ញុំដឹង	-9.7317
រដូវក្តៅ	-9.73206
pro	-9.73236
▁San	-9.73301
ខៀវ	-9.73318
ការភ្ញាក់ផ្អើល	-9.73341
▁ខ្ញុំមិនចង់	-9.73366
ទំនាក់ទំនងជាមួយ	-9.73371
គិតថាអ្នក	-9.73396
ហើយត្រូវបាន	-9.73407
បានរៀបចំ	-9.735
បានព្យាយាម	-9.73549
32	-9.73582
og	-9.73612
▁Ad	-9.73695
ច្របាច់	-9.73702
ណាត់ជួប	-9.73706
គេចាត់ទុកថាជា	-9.73771
ins	-9.73821
និយាយទៅកាន់	-9.7386
អ្នកគឺជាអ្នក	-9.73892
▁តើអ្នកកំពុង	-9.73962
ើរ	-9.73995
លំហូរ	-9.74059
លិខិត	-9.7406
សាន	-9.74138
▁នោះហើយជាអ្វីដែល	-9.74157
មិនធម្មតា	-9.74163
ភាគខាងជើង	-9.74255
តាមពិត	-9.74257
ec	-9.74295
▁ឆ្នាំមុន	-9.74343
អ្នកដឹង	-9.74359
សប្បាយ	-9.7437
ប៉ុន្តែមិន	-9.74372
សិទ្ធិមនុស្ស	-9.74372
អាហ្រ្វិក	-9.74418
ឆ្លាត	-9.74418
វដ្ត	-9.74418
sz	-9.74634
for	-9.74751
ខ្ញុំគួរតែ	-9.74756
កាឡូរី	-9.74777
កោតសរសើរ	-9.74778
កន្លះ	-9.74778
វិនិយោគ	-9.74793
វិធីសាស្ត្រ	-9.74834
▁ត្រូវហើយ	-9.74917
ល្អណាស់	-9.74925
ការច្នៃប្រឌិត	-9.74964
ម្រាមដៃ	-9.74999
ឧក្រិដ្ឋកម្ម	-9.75138
កង្វះ	-9.75139
តម្រង	-9.75139
ប្រទេសរុស្ស៊ី	-9.75187
fa	-9.75227
កែវ	-9.75251
អ្នកគិតថា	-9.75257
ek	-9.75292
ប្រែ	-9.75442
car	-9.75499
វីតាមីន	-9.75501
សំយោគ	-9.75501
ស្មា	-9.75527
ដែលត្រូវការ	-9.75553
មានសមត្ថភាព	-9.75601
របាំង	-9.75613
មកវិញ	-9.75616
ជាមធ្យម	-9.75618
ការទទួលបាន	-9.75665
លក្ខណៈពិសេស	-9.75737
ោង	-9.75785
សត្វចិញ្ចឹម	-9.75817
ហ្វ្រេ	-9.75865
លុបចោល	-9.75873
ហួ	-9.75915
សេចក្តីស្រឡាញ់	-9.75915
▁Wal	-9.75985
ជាអ្វី	-9.76048
ye	-9.76099
មតិ	-9.76116
ថេរ	-9.76215
ខ្វះ	-9.76229
វិធាន	-9.76229
ប្រជុំ	-9.76335
land	-9.76337
45	-9.76343
រូបតំណាង	-9.7639
វេ	-9.76446
35	-9.76531
មរណភាព	-9.76557
ភ័យ	-9.76586
មោទនភាព	-9.76596
រិះគន់	-9.76709
▁Je	-9.76741
▁Wo	-9.76853
ដើម្បីរក្សា	-9.7688
នៅខាងក្រោយ	-9.7689
សណ្ឋាគារ	-9.76963
ជម្ងឺ	-9.76963
មូ	-9.76995
អាចបណ្តាលឱ្យ	-9.77023
ត្រូវបានគេមើលឃើញ	-9.77024
ចាំបាច់ត្រូវ	-9.77102
ord	-9.77102
គួរឱ្យស្រឡាញ់	-9.77106
នៅជាប់នឹង	-9.77178
ឹង	-9.77207
▁El	-9.77214
រីករាលដាល	-9.77223
ប្រាប់ខ្ញុំថា	-9.7726
មីក្រូ	-9.77332
ស្លៀកពាក់	-9.77344
com	-9.77488
ហានិភ័យនៃ	-9.77563
ពោះវៀន	-9.77703
កាតព្វកិច្ច	-9.77703
ជម្រៅ	-9.77703
ឧបសគ្គ	-9.77703
ps	-9.77738
អ្នកនៅតែ	-9.77752
cz	-9.7776
នៅម៉ោង	-9.7796
កន្លងមក	-9.78074
ទស្សនិកជន	-9.78074
គន្លឹះ	-9.78075
ចៅក្រម	-9.78075
គែម	-9.78079
ខ្ញុំចង់បាន	-9.78113
គ្រាប់ពូជ	-9.78157
បឹង	-9.78198
ហើយខ្ញុំនឹង	-9.78251
វីស	-9.78313
ពីរបៀប	-9.78342
នាំឱ្យ	-9.78344
ត្ដ	-9.78357
បែងចែក	-9.7836
▁And	-9.78369
បន្លែ	-9.78448
រាងពងក្រពើ	-9.78448
ប្រសើរឡើងនូវ	-9.78475
ការរំខាន	-9.78481
បានផ្តល់ឱ្យ	-9.785
នៅក្នុងទីក្រុង	-9.78531
នៅកណ្តាល	-9.78535
ចុះបញ្ជី	-9.78553
នរណាម្នាក់ដែល	-9.7856
ឆ្មារបស់អ្នក	-9.78569
uc	-9.78631
.0	-9.78671
ore	-9.787
ទេពកោសល្យ	-9.78822
កំពុងធ្វើអ្វី	-9.78829
ខែកញ្ញា	-9.78856
▁2003	-9.78928
ប្រចាំឆ្នាំ	-9.78931
មួយរយៈ	-9.78956
ដែលអ្នកមាន	-9.79001
នាំមុខ	-9.79018
អ្នកគាំទ្រ	-9.79138
ដុល្លារ	-9.79192
សង្គ្រាមលោកលើកទី	-9.79198
ដោយដៃ	-9.7922
ផ្សេងគ្នា	-9.79236
មានអ្វីកើតឡើង	-9.7925
រួមបញ្ចូលទាំង	-9.79253
ពណ៌ក្រហម	-9.79272
លាក់ខ្លួន	-9.79303
ណ៍	-9.79306
ខាងក្រោយ	-9.79323
នៅពាក់កណ្តាល	-9.79354
par	-9.79399
ញ្	-9.79443
cin	-9.79541
សមស្រប	-9.79575
ស្ពាន	-9.79575
ជីក	-9.79694
ចាំថា	-9.79701
កសាង	-9.79757
iz	-9.79925
▁គឺជាភូមិមួយនៅ	-9.79954
ទីបំផុត	-9.79976
ដឹកជញ្ជូន	-9.79992
ប្រយោជន៍	-9.79999
ធ្វើការលើ	-9.80063
បណ្	-9.80067
ប្រសិនបើអ្នកមាន	-9.8013
ric	-9.80192
ការចូលរួម	-9.80244
មិនត្រឹមត្រូវ	-9.80258
រញ៉េរញ៉ៃ	-9.80335
▁Con	-9.80389
និយាយជាមួយអ្នក	-9.80464
ព្រមាន	-9.80508
តាមវិធី	-9.80546
ion	-9.80615
ការថយចុះ	-9.80623
ការលំបាក	-9.80654
ឃ្លាំមើល	-9.80716
ō	-9.80716
វេទិកា	-9.80716
មីន	-9.80727
ហ្សី	-9.80768
len	-9.8086
qui	-9.80926
ប្រាប់យើង	-9.80984
old	-9.81077
ចាញ់	-9.81107
▁ស។	-9.81123
ដូចនោះ	-9.8113
អ្នកមិនចង់	-9.81203
ដែលមានអាយុ	-9.8124
មានកូន	-9.81258
នៅទីនេះទេ។	-9.81296
ងាក	-9.81326
រង្វង់	-9.81484
អ៊ីមែល	-9.81484
អាសយដ្ឋាន	-9.81484
ដំឡើង	-9.81484
ប្រឹក្សា	-9.81486
បញ្ឈប់ការ	-9.81486
កិច្ចសន្យា	-9.81495
▁ទោះយ៉ាងណាក៏ដោយ	-9.81603
ចាប់បាន	-9.81623
អ្វីផ្សេងទៀត	-9.81626
ពាន់លាន	-9.81645
លំបាក	-9.81719
ប្រភេទនៃការ	-9.81735
ណាស់ក្នុងការ	-9.8184
លទ្ធភាព	-9.81845
អវកាស	-9.81866
ថវិកា	-9.8187
អូឡាំពិក	-9.8187
▁ខែមិថុនាឆ្នាំ	-9.81875
សាស្ត្រ	-9.81875
▁ខែមីនាឆ្នាំ	-9.81878
នៅឆ្ងាយពី	-9.81911
▁Du	-9.81931
ប្រាប់ខ្ញុំពី	-9.81952
IS	-9.82002
មានគោលបំណង	-9.82064
ជួយខ្ញុំ	-9.82144
វិក័យប័ត្រ	-9.82258
ស្វាគមន៍	-9.82258
▁សូមអញ្ជើញមក	-9.82258
ខ្ញុំប្រាកដថា	-9.82349
កាន់តែខ្លាំងឡើង	-9.82385
NA	-9.824
▁ដូច្នេះយើង	-9.82422
យ៉	-9.82524
អ្នកផលិត	-9.82564
ការវិភាគ	-9.82564
0.000	-9.82572
ស៊ីន	-9.82587
ការគេង	-9.82594
វ៉ែនតា	-9.82623
ជាមួយគាត់	-9.82634
កំណើន	-9.82647
មានមនុស្ស	-9.82664
មានទំហំ	-9.82665
ថ្	-9.82689
គ្រប់គ្រងដោយ	-9.82779
ដើរតួជា	-9.82824
▁Sch	-9.82839
ស្ថិតនៅ	-9.82894
ផ្សារភ្ជាប់	-9.82898
▁ឧទាហរណ៍ប្រសិនបើ	-9.82937
ធូ	-9.82946
ធម៌	-9.83033
កសិកម្ម	-9.83037
ឋានៈ	-9.83037
▁អង្សាសេ	-9.83037
ថោក	-9.83039
អ្នកអាចប្រើ	-9.83039
ត្រូវបានសម្លាប់	-9.8305
ណ្	-9.8308
សម្តែង	-9.83167
វ៉ាន់	-9.83192
កាណាដា	-9.83251
ies	-9.83269
ការលូតលាស់	-9.83277
▁ទេខ្ញុំ	-9.83283
ម៉ែត្រ	-9.83411
វេជ្ជសាស្រ្ត	-9.83429
ម៉ិកស៊ិក	-9.8343
សោកសៅ	-9.83432
ប្រតិបត្តិ	-9.83438
con	-9.8351
ធូលី	-9.83572
ទឹកនោម	-9.83608
មានប្រតិកម្ម	-9.83688
បង់ប្រាក់	-9.83717
ទៀតទេ	-9.8377
ធ្វើឱ្យខូច	-9.83788
ប៊ូតុង	-9.83806
ខែមីនា	-9.83815
អន្ទាក់	-9.83823
▁Ki	-9.83872
ដ៏ល្អមួយ	-9.83897
ពិពណ៌នាអំពី	-9.83996
mm	-9.84053
ធ្វើពី	-9.84106
ក្នុងមួយឆ្នាំ	-9.8415
ឱ្យពួកគេ	-9.84158
ទស្សនា	-9.84218
ស្រវឹង	-9.84219
ជាក់លាក់មួយ	-9.84229
នៅតាមផ្លូវ	-9.84515
65	-9.84572
ជំនុំជម្រះ	-9.84615
ទិដ្ឋភាព	-9.84615
ប្រេស៊ីល	-9.84615
ពពក	-9.84615
សាជីវកម្ម	-9.84616
ចោរ	-9.84616
ការសរសេរ	-9.84618
បានឆ្លងកាត់	-9.84634
បញ្ចុះបញ្ចូល	-9.84637
ក្លូ	-9.84679
ការស៊ើបអង្កេត	-9.84715
នោះហើយជា	-9.84721
គឺជាផ្នែកមួយនៃ	-9.84732
ដែលជាកន្លែងដែល	-9.84736
ភាពខុសគ្នា	-9.84742
ការបរាជ័យ	-9.8479
នៅសាលា	-9.84793
មិនដំណើរការ	-9.84797
ជាផ្នែកមួយនៃ	-9.84941
ឆាប់ៗនេះ	-9.85014
កំពស់	-9.85023
17	-9.85137
អាចបណ្តាលឱ្យមាន	-9.85277
រលាក	-9.85299
í	-9.85347
DA	-9.85351
ms	-9.85395
▁យោងតាម	-9.85401
សុន្ទរកថា	-9.85414
នៅថ្ងៃស្អែក	-9.85422
ត្រូវបានសាងសង់	-9.85548
ប៉ូល	-9.85643
អ្នកនិយាយ	-9.85646
តម្រូវឱ្យមាន	-9.85684
ក្នុងវិស័យ	-9.85684
មានវិធី	-9.8578
au	-9.85783
ផោន	-9.85816
▁1980	-9.85967
ខ្ញុំសូម	-9.86019
tes	-9.8605
ផ្លា	-9.86111
ដែលមិនធ្លាប់មាន	-9.86124
រយៈពេលវែង	-9.86171
▁2002	-9.86208
អត់ធ្មត់	-9.86219
ជាតិខ្លាញ់	-9.86235
នៅអាយុ	-9.8624
ប្រទេសបារាំង	-9.86286
39	-9.86327
គិតថាវា	-9.86345
ដូច្នេះអ្នកអាច	-9.86377
គេស្គាល់ថា	-9.8647
មុខរបស់អ្នក	-9.865
បានចូលរួម	-9.86606
ឃាតករ	-9.86627
ការផ្តោតអារម្មណ៍	-9.86663
ខ្ញុំនៅទីនេះ	-9.86684
បញ្ហាប្រឈម	-9.86706
60	-9.86753
នៅសតវត្សរ៍ទី	-9.8676
វិភាគ	-9.86764
tal	-9.86801
ក្នុងមួយសប្តាហ៍	-9.86953
នាឡិកា	-9.8703
បណ្តោះអាសន្ន	-9.8703
ការហៅ	-9.87064
ថល	-9.87066
គិតថាខ្ញុំ	-9.87097
ត្រូវបានគេប្រើ	-9.87142
▁Mac	-9.87155
ភ្	-9.8727
ការប្រណាំង	-9.87277
គឺជាអ្វី	-9.87278
មួយនាទី	-9.87354
ទន់ភ្លន់	-9.87438
នីតិវិធី	-9.87438
ព្រះអម្ចាស់	-9.87438
▁ខែកក្កដាឆ្នាំ	-9.87447
ព្រួយបារម្ភអំពី	-9.8752
នៅលើផែនដី	-9.87601
Z	-9.87647
បានចំណាយពេល	-9.87658
ហើយគាត់បាន	-9.87659
ចំពោះខ្ញុំ	-9.87718
ឆ្កែរបស់អ្នក	-9.87737
ess	-9.87783
the	-9.87804
កិច្ចការ	-9.87819
ខកចិត្ត	-9.87848
េចក្តីថ្លែងការណ៍	-9.87848
អាចរកឃើញ	-9.87854
▁ខែតុលាឆ្នាំ	-9.87857
សន្សំ	-9.87865
អនុប្រធាន	-9.87865
បានមកដល់	-9.87922
ដែលបណ្តាលឱ្យ	-9.87953
នៅតែបន្ត	-9.87983
អ្វីដែលបានកើតឡើង	-9.87983
អ្វីដែលអ្នកចង់	-9.88016
ផ្ទុយ	-9.88024
ដើម្បីមើល	-9.88025
កំណត់អត្តសញ្ញាណ	-9.88087
ខ្លួនខ្ញុំ	-9.88097
គួរតែមាន	-9.8815
នរណា	-9.88152
បុ	-9.88186
ប័ណ្ណ	-9.88258
ស្ត្រេស	-9.88259
យុគសម័យ	-9.88259
ព្រះច័ន្ទ	-9.8826
អធិរាជ	-9.8826
ពណ៌លឿង	-9.8827
ចម្ងាយប្រមាណ	-9.88302
pt	-9.88309
សូមព្យាយាម	-9.88366
ប៉ុណ្ណោះដែល	-9.88393
មិនដូច	-9.88449
អ្នកទោស	-9.88625
ធ្វើចលនា	-9.8863
ញញឹម	-9.88662
នីហ្សេរីយ៉ា	-9.88673
សោកស្តាយ	-9.88673
សំបក	-9.88673
អាជ្ញាប័ណ្ណ	-9.88674
ការស្វែងរក	-9.88697
គ្រប់ពេល	-9.88772
ខូចខាត	-9.89057
ខ្មាស់អៀន	-9.89088
ព័ទ្ធជុំវិញ	-9.89088
ប៉ុស្តិ៍	-9.89088
ល្មម	-9.89088
វ៉ាក់សាំង	-9.89088
រដ្ឋធម្មនុញ្ញ	-9.89112
របប	-9.89143
កើតមក	-9.8916
ខ្លួនវា	-9.89186
បានមកពី	-9.89198
យ៉ាងងាយស្រួល	-9.89353
តើយើង	-9.89368
បានប្រកាស	-9.89387
▁អេ។	-9.89458
ធ្វើអ្វីមួយ	-9.89501
កម្ចាត់	-9.89504
កត់សំគាល់	-9.89504
ស្លាបព្រា	-9.89504
លក្ខណៈសម្បត្តិ	-9.89504
ប៉ាន់ស្មាន	-9.89505
ធ្វើឱ្យយើង	-9.89537
yo	-9.89627
▁តើអ្នកមិន	-9.8966
ការវះកាត់	-9.89745
អង្គ	-9.89748
av	-9.89759
នៅអាមេរិក	-9.89764
អាចនិយាយបាន	-9.89787
ug	-9.89791
ទេពីព្រោះ	-9.89839
អាចត្រូវបានប្រើ	-9.89846
ខ្ញុំធ្លាប់	-9.89893
លាតសន្ធឹង	-9.89922
▁ហ្វីត	-9.89932
្យា	-9.89943
ស្មើគ្នា	-9.89945
ពេញនិយម	-9.89964
មានគំនិត	-9.89976
បង្ហាញខ្លួន	-9.90049
វេន	-9.9006
អ្នកឈ្នះ	-9.90093
មួយសប្តាហ៍	-9.90123
ការងារធ្វើ	-9.90152
របស់កុមារ	-9.90155
ស្ត្រីម្នាក់	-9.90157
ក្រឡា	-9.90206
38	-9.90309
ចំណង់ចំណូលចិត្ត	-9.90343
របស់របរ	-9.90343
អាក់អន់ចិត្ត	-9.90343
កែលម្អ	-9.90343
ដែលមានមូលដ្ឋានលើ	-9.90345
▁ខែសីហាឆ្នាំ	-9.90348
សកម្មជន	-9.9037
បានបើក	-9.90395
gg	-9.90398
▁200	-9.90415
ami	-9.90433
មិនច្បាស់	-9.90446
រួចរាល់	-9.90471
ញឹកញាប់	-9.90481
las	-9.90484
តន្រ្តី	-9.90557
▁តើពួកគេ	-9.90615
របៀបដែលអ្នក	-9.90665
ហាងលក់	-9.90722
សន្	-9.90748
គ្លីនិក	-9.90765
ហ៊ាន	-9.90765
ឆ្លុះបញ្ចាំងពី	-9.90765
មិនចេះ	-9.90766
មានន័យ	-9.90781
ក្បត់	-9.9079
ចង់ធ្វើ	-9.90886
ដែលមានទំហំ	-9.9099
អ្នកនឹងទទួលបាន	-9.91021
du	-9.91049
ស្ថិតិ	-9.91089
គណៈ	-9.91094
ល្អប្រសើរ	-9.91135
បៃតង	-9.9116
ផ្លែ	-9.91175
សារ៉ា	-9.91187
វត្តមាន	-9.91216
ល្អប្រសើរជាងមុន	-9.91244
សារភាព	-9.91337
បានបង្កើតឡើង	-9.91364
ថ្មីមួយ	-9.91391
ធំបំផុត	-9.91434
នៅភាគខាងជើង	-9.91448
ប្រសិនបើមាន	-9.915
str	-9.9154
ការរួមបញ្ចូលគ្នា	-9.91563
ខ្ញុំក៏	-9.91603
ប្លែក	-9.91604
និយោជិក	-9.91614
បង្ក្រាប	-9.91614
អំពើហឹង្សា	-9.91614
អ្នកបានឃើញ	-9.91644
របារ	-9.91648
ស្ថិតនៅក្រោម	-9.91716
if	-9.91764
ការរៀបចំ	-9.91807
នៅភាគខាងត្បូង	-9.91814
ពួកគេទាំងអស់	-9.91857
ដុន	-9.91882
អិល	-9.91889
ផ្លូវដែក	-9.91895
ទសវត្ស	-9.91922
55	-9.91983
▁hear	-9.92004
កាំរស្មី	-9.92041
បានកំណត់	-9.92104
នៅអឺរ៉ុប	-9.9211
បុរសនេះ	-9.9212
ទទួលទាន	-9.9214
ភូ	-9.92191
លេងល្បែង	-9.92317
ស៊ីស៊ី	-9.92339
អ្នកប្រើ	-9.92399
ds	-9.92427
យើងទទួលបាន	-9.92432
បុព្វហេតុ	-9.92471
ស្បថ	-9.92471
▁ខែមេសាឆ្នាំ	-9.92477
▁ខែឧសភាឆ្នាំ	-9.92478
ដែលអាចធ្វើបាន	-9.92529
▁2001	-9.92533
ជំនួយការ	-9.92544
នៅឆ្ងាយ	-9.92559
របស់រដ្ឋ	-9.92568
មិនត្រូវ	-9.92738
ដែលពួកគេបាន	-9.9274
ស៍	-9.92769
ទៅឆ្ងាយ	-9.92782
ជាមួយមនុស្ស	-9.9281
ចាប់តាំងពីឆ្នាំ	-9.92838
her	-9.92854
មានសំណាង	-9.92856
យោងទៅតាម	-9.92902
▁John	-9.92902
បានចេញផ្សាយ	-9.92913
ប្រាក់ចំណេញ	-9.92914
រូបវិទ្យា	-9.92916
សញ្ញានៃ	-9.92917
មានទីតាំងនៅ	-9.92931
ការរួមភេទ	-9.92936
នាគ	-9.92988
អត្ថន័យ	-9.93014
ក្តារ	-9.93134
ការប្រជុំ	-9.9319
ការបាត់បង់	-9.93254
cha	-9.93257
ស្ទីល	-9.93261
«	-9.93335
រេ	-9.93497
ជាន់ខ្ពស់	-9.93676
▁Ber	-9.93719
អ្នកនឹងឃើញ	-9.9374
សាកសព	-9.93769
នៅពេលដែលវា	-9.93793
បូម	-9.93808
42	-9.93823
▁Mor	-9.9386
រៀបការជាមួយ	-9.93942
ទទេ	-9.93961
ន្ត	-9.93961
ផ្សាយពាណិជ្ជកម្ម	-9.94166
ជ្រូក	-9.94192
រលោង	-9.94206
ការពិតដែលថា	-9.94233
▁Mc	-9.94258
MA	-9.94271
មិនចូលចិត្ត	-9.94293
មានភាពខុសគ្នា	-9.94309
ft	-9.9435
ជាប្រធាន	-9.94361
16	-9.94493
ភាពស៊ាំ	-9.94644
សន្និសីទ	-9.94645
ថែ	-9.94662
ឌូ	-9.94679
ជឿជាក់	-9.94689
សំណាង	-9.94831
បំពង់ក	-9.94996
ខ្ញុំបានរកឃើញ	-9.95009
បញ្ជាក់ពី	-9.95024
យើងបានធ្វើ	-9.95037
ចិញ្ចៀន	-9.95085
បឋម	-9.95087
ប្រសិនបើអ្នកចង់	-9.95089
តាមផ្លូវ	-9.95124
មេឃ	-9.9514
ប៉ុន្តែខ្ញុំមិន	-9.95144
អ្នកមិនមាន	-9.95156
ជែល	-9.95164
បានសំរេចចិត្ត	-9.95289
ów	-9.95292
ក្បែរ	-9.95359
ធំជាងគេ	-9.95377
តើវា	-9.95397
ជាប់ពន្ធនាគារ	-9.95422
ផ្ទះរបស់អ្នក	-9.95448
សូដ្យូម	-9.95521
ខ្ជះខ្ជាយ	-9.95528
សមាមាត្រ	-9.95528
នឹងកើតឡើង	-9.95604
AN	-9.95663
▁Ku	-9.95665
ich	-9.95737
បៀ	-9.95783
72	-9.9583
កាន់តែខ្លាំង	-9.95865
ការប្រមូលផ្តុំ	-9.95875
បកស្រាយ	-9.95971
សួនច្បារ	-9.95972
ឃ្លាន	-9.9601
ថយចុះ	-9.9608
កំពូលនៃ	-9.96085
គាត់បាននិយាយថា	-9.96196
របស់អង្គការ	-9.96203
ដើម្បីបង្ហាញ	-9.96204
ការរំលោភបំពាន	-9.96244
ប៉ុន្តែពួកគេ	-9.96261
បណ្តេញចេញ	-9.96288
ដឹងខ្លួន	-9.96297
ធ្វើដូចម្តេច	-9.96418
ពណ៌ត្នោត	-9.96424
មនុស្សជាតិ	-9.96445
លោកខាងលិច	-9.96525
ទាំងបី	-9.9655
សំណើ	-9.96564
ត្រូវតែមាន	-9.96654
នាម	-9.96658
15	-9.9669
▁ល។	-9.96711
កោង	-9.96755
អាក្រក់បំផុត	-9.96761
អាណានិគម	-9.96867
មានឥទ្ធិពលលើ	-9.96867
កំទេច	-9.96867
ពេញមួយថ្ងៃ	-9.96886
ទាយ	-9.97049
ល្អជាង	-9.97078
រីករាយនឹង	-9.97099
ene	-9.97195
អភ័យទោស	-9.97287
ឆន្ទៈ	-9.97292
ari	-9.97306
យីហោ	-9.97316
សុភមង្គល	-9.97317
ប្លាស្ទិច	-9.97317
ទាល់តែសោះ	-9.97317
ប៉ុណ្ណា	-9.97317
ធាត់	-9.97331
ក្រូចឆ្មា	-9.97336
ura	-9.97352
ប្រាំមួយ	-9.9748
gan	-9.97491
ការវិនិយោគ	-9.97721
កម្រិតខ្ពស់	-9.97729
ach	-9.97733
ការផ្ទុះ	-9.97741
រដូវរងារ	-9.97748
ឧបត្ថម្ភ	-9.9777
សន្លប់	-9.9777
កាបូន	-9.9777
99	-9.97772
កែប្រែ	-9.97778
ទ្ធ	-9.97779
ការផ្គត់ផ្គង់	-9.97796
RA	-9.97808
ទូរស័ព្ទមក	-9.97808
ដែលគេហៅថា	-9.97815
ក្រោមដី	-9.97842
ព្យាយាមធ្វើឱ្យ	-9.9787
ដូចខាងក្រោម	-9.97904
ចៅ	-9.97909
ចូលទៅកាន់	-9.97956
▁ដូច្នេះខ្ញុំបាន	-9.97988
នៅក្នុងផ្ទះ	-9.97997
ano	-9.98047
ថ្ងៃស្អែក	-9.98215
សំលាប់	-9.98221
អាកាសចរណ៍	-9.98224
ប្រដាប់ប្រដា	-9.98224
រលួយ	-9.98224
ទៅដល់	-9.98232
ការរកឃើញ	-9.98241
ទេព្រោះ	-9.98251
បំបាត់	-9.98259
របស់ប្រទេសចិន	-9.9827
កន្លែងដែលអ្នក	-9.98362
ប្រណាំង	-9.98405
ភាពស្មោះត្រង់	-9.9845
ធំមួយ	-9.98511
កូដ	-9.98558
ឡែ	-9.98575
គ្	-9.98617
ដ៏អស្ចារ្យមួយ	-9.98618
ដែលមានសក្តានុពល	-9.98644
បបូរមាត់	-9.98681
ព្រលឹង	-9.98681
ហ្វីលីពីន	-9.98681
ប្រមាញ់	-9.98681
ផ្ទះល្វែង	-9.98681
▁មីលីក្រាម	-9.98681
ស្តុក	-9.98682
ជំរើស	-9.98693
ជំរុំ	-9.98694
គ្រឿងផ្សំ	-9.98701
ដែលអ្នកចូលចិត្ត	-9.98713
រាប់ពាន់	-9.98724
ការលើកទឹកចិត្ត	-9.98734
ជ្	-9.98755
បញ្ចូលគ្នា	-9.98766
នៅយប់	-9.9884
បាក់	-9.98876
ហ្ស៊ី	-9.98879
men	-9.98895
19	-9.98911
កំពុងធ្វើការ	-9.98929
នៅទូទាំងពិភពលោក	-9.98938
ker	-9.98942
កាន់តែប្រសើរ	-9.98965
ព្រួយបារម្ភ	-9.98977
74	-9.99082
អុកស៊ីសែន	-9.99139
សម្លឹងមើល	-9.9914
▁ខែកញ្ញាឆ្នាំ	-9.99149
មិត្តប្រុស	-9.99152
លាយបញ្ចូលគ្នា	-9.99153
មិត្តស្រី	-9.99183
កំពុងដំណើរការ	-9.99192
.1	-9.99217
គឺត្រូវ	-9.99345
ផលប៉ះពាល់នៃ	-9.99351
គេសន្មត់ថា	-9.99367
៉	-9.99391
មានរាង	-9.99514
ji	-9.99563
ប្រឌិត	-9.99601
▁Nintendo	-9.99601
ប៉ារីស	-9.99601
កូនសោ	-9.99602
ដុតនំ	-9.99623
ុល	-9.99679
5%	-9.99728
84	-9.99875
សំរេចចិត្ត	-9.99889
ផងដែរថា	-9.99937
ត្រឡប់	-9.99961
វិទ្យា	-9.99986
▁Wa	-10
tri	-10.0004
ប្រព្រឹត្ដ	-10.0006
ខ្សែសង្វាក់	-10.0006
និទាឃរដូវ	-10.0006
គន្លង	-10.0006
ចុះចត	-10.0006
រទេះ	-10.0007
ឈប់សម្រាក	-10.0015
78	-10.0016
វាជារឿង	-10.0018
អឹម	-10.0019
សាក	-10.0025
ខុសច្បាប់	-10.0028
ដឹកនាំដោយ	-10.0038
ត្រូវបានផលិត	-10.0047
បំណុល	-10.0053
អាមេរិច	-10.0053
ប្រយ័ត្ន	-10.0053
សហប្រជាជាតិ	-10.0054
ជាតិអាល់កុល	-10.0059
▁Bro	-10.0061
▁1999	-10.0064
បីនាក់	-10.0068
សម្លាប់អ្នក	-10.0069
នៅលើដី	-10.0074
ឡែន	-10.0078
អ្នកប្រហែលជាចង់	-10.0085
សមត្ថភាពក្នុងការ	-10.009
នៅគ្រប់ទីកន្លែង	-10.0096
▁ខ្ញុំគិតថាអ្នក	-10.0096
ឆ្លុះបញ្ចាំង	-10.01
ល្ងាច	-10.01
ការប៉ះទង្គិច	-10.01
ហ៊ូ	-10.01
មុំ	-10.01
ជាកម្មសិទ្ធិរបស់	-10.01
▁Ya	-10.0102
ជំពាក់	-10.0103
ook	-10.0114
line	-10.0115
amp	-10.0121
ដោយមិនចាំបាច់	-10.0131
ច្រឡំ	-10.0147
សន្និដ្ឋាន	-10.0147
ឧត្តម	-10.0147
អប្បបរមា	-10.0147
មណ្ឌល	-10.0147
មានអ្វីមួយ	-10.0151
ធ្វើតេស្ត	-10.0156
នៅក្មេង	-10.0158
គឺជាអ្វីដែល	-10.0168
យោបល់	-10.0181
តង់	-10.0183
ឥដ្ឋ	-10.0185
ឥរិយាបទ	-10.0194
មួយភ្លែត	-10.0194
សីលធម៌	-10.0194
ម្ជុល	-10.0194
ś	-10.0194
សន្យាថា	-10.0194
រត់គេចខ្លួន	-10.0198
46	-10.02
មូលដ្ឋានគ្រឹះ	-10.0201
▁Ben	-10.0201
ប្រែក្លាយ	-10.0211
វះកាត់	-10.0214
ការកាត់	-10.0229
ឯ	-10.0231
គុ	-10.0231
jo	-10.0232
ផ្ទុះឡើង	-10.0233
ទូលំទូលាយ	-10.0237
ថ្នាំប្រឆាំងនឹង	-10.0238
ខែកក្កដា	-10.024
អាតូម	-10.0241
រវល់	-10.0241
ចរាចរណ៍	-10.0241
ella	-10.0243
បង្វិល	-10.0243
ឆេះ	-10.0243
គោល	-10.0253
ងាយនឹង	-10.0258
នេះពិតជា	-10.0258
ខ្ញុំចង់និយាយ	-10.0258
នាយកប្រតិបត្តិ	-10.0259
ប្	-10.0268
អ្នកដឹកនាំ	-10.027
ការបញ្ចប់	-10.028
25	-10.0284
បន្ថែមលើ	-10.0285
▁ហើយតើ	-10.0288
ឬអត់	-10.0289
សំណុំ	-10.0289
ព្យាករណ៍	-10.0289
ខ្ចី	-10.0289
ស្ថាបត្យកម្ម	-10.0289
ដាំដុះ	-10.029
ការទូត	-10.0291
អ្នកនយោបាយ	-10.0292
វិទូ	-10.0292
ក្នុងការស្វែងរក	-10.0293
វគ្គសិក្សា	-10.0295
បណ្តាលមកពី	-10.0296
អញ្ចឹង	-10.0311
អ្នកទទួល	-10.0313
ស្លាប	-10.0313
កូនរបស់អ្នក	-10.0318
ផ្តាច់	-10.032
ពិបាកក្នុងការ	-10.0324
ួន	-10.0328
ដាច់ដោយឡែក	-10.0332
ថៅកែ	-10.0337
តួលេខ	-10.0337
អណ្តូងរ៉ែ	-10.0337
43	-10.0337
រាល់ពេលដែល	-10.0338
dia	-10.0338
គណនា	-10.0343
កោស	-10.0344
ឃាតកម្ម	-10.0348
នៅទីណា	-10.0351
បែកបាក់	-10.0352
អ្នកអាចមើលឃើញ	-10.0362
រាយ	-10.0362
des	-10.0368
បានឈានដល់	-10.037
ពុះ	-10.0381
វេទមន្ត	-10.0385
ប្រហាក់ប្រហែល	-10.0385
បរិបទ	-10.0385
បុក	-10.0387
កូរ៉េខាងត្បូង	-10.0388
ម្ចាស់ផ្ទះ	-10.0396
ទឹកក្តៅ	-10.0396
យ៉ាងច្រើន	-10.0397
មនុស្សផ្សេងទៀត	-10.0397
75	-10.0399
ប្រទេសអង់គ្លេស	-10.0404
▁Tri	-10.0404
ឆាក	-10.0406
▁Mon	-10.0407
សូមឱ្យ	-10.0409
ធិ	-10.0409
មិនសមហេតុផល	-10.0411
▁Ru	-10.0423
ការសង្ស័យ	-10.0425
▁Fi	-10.043
76	-10.0433
ជារៀងរហូត	-10.0433
វ៉ាស៊ីនតោន	-10.0433
អូស្ត្រាលី	-10.0433
▁Voivodeship	-10.0433
ការចេញផ្សាយ	-10.0434
▁Super	-10.0435
ភាគខាងកើត	-10.0438
▁2020	-10.0439
បានមានប្រសាសន៍ថា	-10.0442
▁គាត់គឺជា	-10.0444
77	-10.0456
▁Cap	-10.0459
យើងពិតជា	-10.046
បូក	-10.0466
68	-10.0467
ឆា	-10.0472
▁Bra	-10.0472
នៅតែជា	-10.0474
ទោះយ៉ាងណា	-10.0477
បញ្ចុះ	-10.0479
ដុះ	-10.0481
ប៊ូ	-10.0481
មិនយូរប៉ុន្មាន	-10.0482
ងាយរងគ្រោះ	-10.0482
មានប្រជាប្រិយភាព	-10.0486
ទេមែនទេ	-10.0497
SA	-10.05
▁Ver	-10.0503
មានភាពងាយស្រួល	-10.0512
មិនត្រូវបានគេ	-10.0512
ដ៏សំខាន់មួយ	-10.0515
64	-10.0515
62	-10.0516
កញ្ញា	-10.0525
ចក្រភព	-10.0529
ស្មារតី	-10.053
តួអង្គ	-10.053
បេក្ខជន	-10.053
សញ្ញាប័ត្រ	-10.053
សុដន់	-10.053
សូន្យ	-10.053
នាយករដ្ឋមន្រ្តី	-10.0532
ដើម្បីកាត់បន្ថយ	-10.0536
ជួបគ្នា	-10.0542
▁1960	-10.0543
អេល	-10.0547
ជាសាធារណៈ	-10.0556
ផ្ទុយពី	-10.0558
ចាប់ពីឆ្នាំ	-10.0563
នៅលើផ្លូវ	-10.0565
ជាប្រចាំ	-10.0567
នៅចុងបញ្ចប់នៃ	-10.0571
▁Har	-10.0573
មូល	-10.0573
យើងមិនមាន	-10.0577
ប្រទេសស៊ីរី	-10.0579
ភ័ស្តុតាង	-10.0579
ចូលនិវត្តន៍	-10.0579
ព្រិល	-10.0579
ស៊ុត	-10.0579
ដកស្រង់	-10.0579
ម៉ឺនុយ	-10.0579
ដែលបានបង្កើតឡើង	-10.0586
▁ខ្ញុំគិតថាខ្ញុំ	-10.0596
តុល្យភាព	-10.0601
ការជ្រើសរើស	-10.0604
iv	-10.0615
oid	-10.0621
ដាច់	-10.0622
លេខាធិការ	-10.0629
ស្ថាបនិក	-10.0629
កសិករ	-10.0629
ហុងកុង	-10.0629
កាំបិត	-10.0629
ប្លន់	-10.0629
ហូឡង់	-10.0629
អ៊ឺរ៉ុប	-10.0629
យានយន្ត	-10.0629
ទេសភាព	-10.0632
▁Min	-10.0635
ខ្ញុំអាចធ្វើបាន	-10.0637
41	-10.0639
ដែលមានជាតិ	-10.0648
ធ័រ	-10.065
34	-10.0654
ទម្រង់នៃ	-10.0654
kh	-10.0655
និយាយពី	-10.066
▁Shi	-10.0666
អ្វីដែលអ្នកកំពុង	-10.0667
ធ្នូ	-10.0669
ការសម្លាប់	-10.067
ឆ្នេរ	-10.0676
ដំបូន្មាន	-10.0678
ទីក្រុងប៉េកាំង	-10.0678
ដួល	-10.0678
អក្សរសាស្ត្រ	-10.0679
▁1997	-10.0686
ត្រាំ	-10.0686
នៅរស់	-10.0688
មានក្លិន	-10.0689
អ៊	-10.0701
នៅស្រុក	-10.0702
13	-10.0712
ដើម្បីព្យាបាល	-10.0715
ការទទួលទាន	-10.0716
▁Fe	-10.0721
មានស្ថេរភាព	-10.0724
កូនឆ្កែ	-10.0727
ដកហូត	-10.0728
សង្កាត់	-10.0728
នៅម្នាក់ឯង	-10.0728
ي	-10.0728
ពុត	-10.0728
ome	-10.0731
បំភ្លឺ	-10.0732
មិនពិត	-10.0734
សី	-10.0738
ផ្ញើសារ	-10.0742
ពីរបីថ្ងៃ	-10.0745
ការរីកចម្រើន	-10.0747
amine	-10.0749
36	-10.0752
បានប្រកាសថា	-10.0755
លីលី	-10.0757
ឥឡូវ	-10.0758
នាងកំពុង	-10.0767
ឈឺក្បាល	-10.0769
វាមានសារៈសំខាន់	-10.077
ទិនានុប្បវត្តិ	-10.0778
▁She	-10.078
ថ្មីៗ	-10.0793
វាអាចជា	-10.0801
ប្រហែលជាត្រូវ	-10.0804
RI	-10.0811
នៅខាងក្រោម	-10.0813
បានបម្រើការជា	-10.0816
oph	-10.0816
83	-10.0818
យន្តការ	-10.0827
អចលនទ្រព្យ	-10.0828
ចំហាយ	-10.0828
ប៉ាស៊ីហ្វិក	-10.0828
ដែលមានស្រាប់	-10.0828
ភូមិសាស្ត្រ	-10.083
ចំនួនប្រជាជន	-10.0837
56	-10.0837
ចូលគេង	-10.0841
ពួកវា	-10.0841
ហើយពួកគេបាន	-10.0842
វិធីនេះ	-10.0847
មេតា	-10.0851
ពន្យល់ពី	-10.0852
រាប់រយ	-10.0855
ការមើលឃើញ	-10.0862
ទទួលស្គាល់ថា	-10.0865
មានវត្តមាន	-10.0868
នៅពេលនាង	-10.0868
ខែមេសា	-10.0878
បញ្ញា	-10.0879
វាស់វែង	-10.0881
ពាក្យបញ្ជា	-10.0887
សួន	-10.0893
ឆ្នាំមុន	-10.0901
ជីតា	-10.0902
ium	-10.0905
ការស្លាប់របស់	-10.0909
បន្ទុក	-10.0911
63	-10.0911
ឱ្យបានច្រើន	-10.0913
ប៉ុន្មានឆ្នាំ	-10.0916
ចងចាំថា	-10.0926
ម្នាក់ក្នុងចំណោម	-10.0928
ស្ងាត់	-10.0929
ចំលែក	-10.0929
បរិវេណ	-10.0929
សូវៀត	-10.0929
អតិបរមា	-10.0929
▁szczecin	-10.0929
▁1994	-10.0935
គាត់មិនបាន	-10.0937
នេះគឺជាអ្វីដែល	-10.094
▁500	-10.094
▁Cha	-10.0941
ត្រូវការជំនួយ	-10.0952
ធ្វើឃាត	-10.0954
លំហាត់	-10.0964
កាន់តែងាយស្រួល	-10.0966
ខ្ញុំជាអ្នក	-10.0966
បណ្ឌិត	-10.098
អំពូល	-10.098
ធ្វើអត្តឃាត	-10.098
ចរន្ត	-10.098
ភោជនីយដ្ឋាន	-10.098
បុគ្គលិកលក្ខណៈ	-10.0983
ពិសោធន៍	-10.099
ដឹងពីអ្វីដែល	-10.0991
ងាយស្រួលក្នុងការ	-10.0992
▁Per	-10.1021
52	-10.1024
របួស	-10.1027
44	-10.1028
ខ្ញុំខ្លាច	-10.1029
ther	-10.1031
បទប្បញ្ញត្តិ	-10.1032
»	-10.1032
គម្រប	-10.1032
មេដាយ	-10.1032
ត្រូវបានណែនាំ	-10.1032
▁Tra	-10.1035
កំពុងប្រើ	-10.104
ត្រូវបានតែងតាំង	-10.1043
មាន់	-10.1048
លេងហ្គេម	-10.1054
▁Hy	-10.106
ទីភ្នាក់ងារ	-10.1066
តើមានអ្វី	-10.1076
ត្រូវបានជ្រើសរើស	-10.1076
ឆ្នាំមកហើយ	-10.1077
កូឡុំប៊ី	-10.1083
អបអរសាទរ	-10.1083
ចំអិន	-10.1084
ខ្សាច់	-10.1088
ធ្វើខុស	-10.1088
ក្នុងការបង្កើត	-10.1088
ដែនកំណត់	-10.1089
ថៃ	-10.1092
67	-10.1094
ស្តាប់ខ្ញុំ	-10.1108
សន្មត់ថា	-10.1109
ស្នើ	-10.1111
តស៊ូ	-10.1112
ភាពសប្បាយរីករាយ	-10.112
ace	-10.1121
ការប៉ុនប៉ង	-10.1125
គ្រោង	-10.1126
bro	-10.1127
ase	-10.1128
ត្រៀម	-10.1132
កងទ័ពជើងទឹក	-10.1135
ចំណី	-10.1135
*	-10.1135
ជំនួញ	-10.1135
▁Serie	-10.114
ប្រាំបី	-10.115
ប្រសើរឡើង	-10.1153
ស្រមៃមើល	-10.1155
47	-10.1156
ផ្សេង	-10.1169
ទំនុកចិត្ត	-10.1171
ថែមទៀត	-10.1172
កម្សាន្ត	-10.1175
អាមី	-10.1179
ការហៅទូរស័ព្ទ	-10.1182
យកចេញ	-10.1186
ដែលបានផ្តល់ឱ្យ	-10.1187
បម្រុងទុក	-10.1188
មិត្តភាព	-10.1189
មានដើមកំណើត	-10.119
បត់	-10.1192
វូ	-10.1192
អ្វីដែលត្រូវធ្វើ	-10.1193
fo	-10.1199
សួរសំណួរ	-10.1208
ប្រទេសអាឡឺម៉ង់	-10.1213
តំណែង	-10.1226
ជ្រ	-10.123
ថែទាំ	-10.1238
សហគ្រាស	-10.1239
ចំនុច	-10.1239
រ៉ូម៉ាំង	-10.1239
វីរបុរស	-10.124
ugh	-10.1248
tch	-10.125
បង្ខំ	-10.1254
ក្បួន	-10.1255
▁1970	-10.1259
សុំឱ្យ	-10.1264
tion	-10.1272
act	-10.1274
នៅពេលយើង	-10.128
ធ្វើរឿង	-10.1286
វ័យ	-10.1289
ឈ្លានពាន	-10.1292
បំផុសគំនិត	-10.1292
ផ្តួចផ្តើម	-10.1292
អង់ស៊ីម	-10.1292
នាវិក	-10.1292
ស្នាដៃ	-10.1292
ចង់ឱ្យខ្ញុំ	-10.1294
ផ្តោតអារម្មណ៍	-10.1294
រឿងកំប្លែង	-10.1295
ក្មេងៗ	-10.1297
អ្នកជំនាញខាង	-10.1298
អេលី	-10.1301
61	-10.1302
AR	-10.1302
ការបែងចែក	-10.1304
▁ខាងកើតនៃ	-10.1305
ព្រះមហាក្សត្រ	-10.1307
ផ្ទៃដី	-10.1307
មេរៀន	-10.1309
ការកសាង	-10.1316
តាមរបៀបដែល	-10.1324
▁(2	-10.1326
អាន់	-10.1329
ដើម្បីកំណត់	-10.1332
ឡាំ	-10.1335
ការសាកល្បង	-10.1343
បន្ធូរ	-10.1344
សរសៃ	-10.1357
ភ្ជាប់ទៅនឹង	-10.1367
កាន់តែប្រសើរឡើង	-10.1369
▁you	-10.138
ភ្លៀង	-10.1388
ម៉ាស្សា	-10.1388
nie	-10.1389
37	-10.139
ពិគ្រោះជាមួយ	-10.1398
ផ្លែប៉ោម	-10.1398
នំប៉័ង	-10.1398
ផ្អែម	-10.1398
ដុសធ្មេញ	-10.1399
gra	-10.1399
បណ្តឹង	-10.1399
គ្មានអ្វីដែល	-10.1426
កាក់	-10.1428
ការអះអាង	-10.1429
នៅមហាវិទ្យាល័យ	-10.1431
ជាចម្បង	-10.1433
57	-10.1447
អាមេរិកាំង	-10.1452
គុយបា	-10.1452
ខ្មោច	-10.1452
សាក្សី	-10.1452
នៅតាមបណ្តោយ	-10.1452
កិច្ចប្រជុំ	-10.1453
អ៊ុំ	-10.1454
និយមន័យ	-10.1454
អាចផ្លាស់ប្តូរ	-10.1454
ជក់	-10.1466
មិនមានន័យថា	-10.1472
ខ្លាំងពេក	-10.1475
0,000	-10.1475
33	-10.1485
ទាបជាង	-10.1487
IN	-10.1487
05	-10.1489
ច្បាស់ជា	-10.1489
យ៉ាងខ្លាំងចំពោះ	-10.149
ដឹងច្បាស់	-10.1493
ប្រកួត	-10.1499
ឈីស	-10.15
កសិដ្ឋាន	-10.1505
ឧប្បត្តិហេតុ	-10.1505
ក្រោកឡើង	-10.1505
ចែក	-10.1505
▁1995	-10.1513
kin	-10.153
ដែលបណ្តាលមកពី	-10.1551
រ៉ាំរ៉ៃ	-10.1559
កាឡាក់ស៊ី	-10.1559
ក្រឡុក	-10.1559
ដំបង	-10.1559
ជង្គង់	-10.1559
ទ្រី	-10.156
ឬសូម្បីតែ	-10.1568
បីដង	-10.1569
ជះឥទ្ធិពលដល់	-10.1569
ឡើយ	-10.157
លោកប្រធានាធិបតី	-10.1571
ស្ថិតនៅលើ	-10.1573
ism	-10.1576
LA	-10.1582
សមហេតុផល	-10.1588
van	-10.1609
អណ្តូង	-10.1613
យាន	-10.1614
ថ្នមៗ	-10.1614
ទសវត្សរ៍	-10.1614
យូរអង្វែង	-10.1614
អរម៉ូន	-10.1614
រំលង	-10.1615
បញ្ជាទិញ	-10.1618
▁Hi	-10.1621
ស្មើនឹង	-10.1626
CO	-10.1639
use	-10.1643
រាជ	-10.1652
បានអះអាងថា	-10.1656
នៅចំណុច	-10.1661
អំពើ	-10.1665
ចាត់	-10.1667
▁Mer	-10.1667
នេសាទ	-10.1668
រំញោច	-10.1668
ទ្រនាប់	-10.1668
ប្រញាប់	-10.1668
មន្ត្រី	-10.1668
ការប្តេជ្ញាចិត្ត	-10.1669
ជាងនេះទៅទៀត	-10.1671
uck	-10.1681
ថ្នាំលាប	-10.1682
កម្មសិទ្ធិ	-10.1683
សាំង	-10.1686
40	-10.1695
ការទទួលខុសត្រូវ	-10.1707
អ្នករត់	-10.1716
សូមអរគុណ	-10.1722
រាលដាល	-10.1723
ហ្វេសប៊ុក	-10.1723
អ៊ីរ៉ង់	-10.1723
▁វាស្ថិតនៅ	-10.1725
រហូតដល់ឆ្នាំ	-10.1727
ដេកលក់	-10.1734
បានសម្តែង	-10.1736
ដែលជាផ្នែកមួយនៃ	-10.1748
PS	-10.1759
ទីបញ្ចប់	-10.176
មួយដែលមានឈ្មោះថា	-10.1761
នៅពេលព្រឹក	-10.1767
ជ្រលក់	-10.1772
បញ្ចុះសព	-10.1779
សមរភូមិ	-10.1779
▁Apple	-10.1779
ស្តើង	-10.1779
ធំឡើង	-10.1782
បទចំរៀង	-10.1787
gh	-10.1796
▁War	-10.1807
ស៊ីឌី	-10.1808
នៅខាងស្តាំ	-10.181
វានឹងមាន	-10.1819
66	-10.1824
ល្បីល្បាញ	-10.1827
សត្វឆ្មា	-10.1827
សង្ស័យ	-10.1828
សម្រាប់ហេតុផល	-10.1832
សត្វល្អិត	-10.1834
ឥណទាន	-10.1834
ស្ទូឌីយោ	-10.1834
តូចតាច	-10.1835
ឆ្នេរសមុទ្រ	-10.1837
ការតស៊ូ	-10.1839
burg	-10.1842
ចេញវេជ្ជបញ្ជា	-10.1843
▁1998	-10.1844
ស្រួល	-10.1852
cal	-10.1853
▁Pan	-10.1858
បច្ចុប្បន្ននេះ	-10.1868
មួយវិនាទី	-10.1869
tta	-10.187
har	-10.1872
សតវត្សរ៍	-10.188
.2	-10.1884
ត្រូវបានអនុម័ត	-10.1888
អាទិភាព	-10.189
សំដែង	-10.189
អាកាសយានដ្ឋាន	-10.189
ឌីអិនអេ	-10.189
អនាម័យ	-10.189
ខ្ញុំសង្ឃឹមថា	-10.1892
បំណងប្រាថ្នា	-10.1894
ចេញពីទីនេះ	-10.1896
ចង់ឃើញ	-10.1899
▁Gar	-10.19
រំខានដល់	-10.1901
ទុកវា	-10.1909
ប្រកាន់	-10.192
ការតភ្ជាប់	-10.193
▁Val	-10.1936
ជឿលើ	-10.1939
ស្លៀក	-10.1944
មិនអាចទៅរួច	-10.1946
អ៊ីដ្រូសែន	-10.1946
ចែង	-10.1946
ឆ្អឹងខ្នង	-10.1948
គួរឱ្យខ្លាច	-10.1956
សាច់ប្រាក់	-10.196
ណែនាំឱ្យ	-10.1968
ម្នាក់ទៀត	-10.197
ភាពខុសគ្នានៃ	-10.1973
ការរំពឹងទុក	-10.199
ច្បាស់ណាស់	-10.1995
អណ្តាត	-10.2001
ក្លែងក្លាយ	-10.2003
បិសាច	-10.2003
ល្បាយ	-10.2003
▁Jim	-10.2008
អ្នកស្រឡាញ់	-10.2013
69	-10.2018
កំណត់ថាតើ	-10.2038
ការធ្វើឱ្យមាន	-10.2046
ចូលរៀន	-10.2046
▁Ex	-10.2048
ប្រារព្ធ	-10.206
កេរ្តិ៍ឈ្មោះ	-10.206
ផ្កាយរណប	-10.206
សំលៀកបំពាក់	-10.206
ព្រះអង្គម្ចាស់	-10.206
ស្កេន	-10.206
ស្រាបៀរ	-10.206
រហូតមកដល់ពេលនេះ	-10.206
មនុស្សល្ងីល្ងើ	-10.206
ពន្យារពេល	-10.2062
សារធាតុគីមី	-10.2063
យើងចង់	-10.2069
AP	-10.207
MI	-10.208
▁Fre	-10.2093
ស្តូ	-10.2106
វេជ្ជបញ្ជា	-10.2109
កម្ពស់	-10.2115
យ៉ាងលឿន	-10.2116
ក្លែងបន្លំ	-10.2117
យល់ស្រប	-10.2117
អធិស្ឋាន	-10.2117
កាលវិភាគ	-10.2117
ពេលនោះមក	-10.2117
គូប្រជែង	-10.2117
ចុះខ្សោយ	-10.2123
ទំនេរ	-10.2127
ក្រពេញ	-10.2128
ត្រូវបានរចនាឡើង	-10.2143
គាំទ្រដល់	-10.2154
49	-10.2155
ធ្វើការឱ្យ	-10.2156
ON	-10.2159
យើងដឹងថា	-10.2161
ដ៏អស្ចារ្យបំផុត	-10.2163
អាចជួយឱ្យ	-10.2164
53	-10.2166
ទេសចរណ៍	-10.2167
ខែឧសភា	-10.2173
ឥ	-10.2174
និមិត្តសញ្ញា	-10.2174
រាតត្បាត	-10.2174
រំកិល	-10.2174
សុបិន	-10.2174
ស្រូវ	-10.2174
មានផាសុកភាព	-10.2174
▁ពាន់លានដុល្លារ	-10.2174
ផ្ទះបាយ	-10.2175
ចន្លោះពី	-10.2183
ការបញ្ចេញ	-10.2187
ធានីក្នុងតំបន់	-10.2188
ផ្សារ	-10.219
វិទ្យាសាស្រ្ត	-10.2192
▁Gre	-10.2194
ខ្លួនយើង	-10.2196
នៅក្រៅ	-10.2196
ជាច្រើនប្រភេទ	-10.2197
ជាមូលដ្ឋាន	-10.2212
ឃ្មុំ	-10.2215
នានា	-10.2218
ចំណាយពេលច្រើន	-10.222
tur	-10.2225
ជាតិពុល	-10.2228
ឧត្តមសេនីយ៍	-10.2232
ព្រីន	-10.2232
ក្អក	-10.2232
fer	-10.2233
ខែមិថុនា	-10.2234
សារធាតុចិញ្ចឹម	-10.2237
អ្នកជិតខាង	-10.2237
បានត្រៀមខ្លួន	-10.2238
កេ	-10.2242
នោះទេប៉ុន្តែ	-10.2245
ធ្វើបានល្អ	-10.2255
ការចែកចាយ	-10.2258
59	-10.2261
គ្របដណ្តប់លើ	-10.2261
ald	-10.2261
អាចទទួលយកបាន	-10.2265
▁Wil	-10.2271
berg	-10.2288
សុបិន្ត	-10.2289
សាសន៍	-10.2289
ប្តេជ្ញា	-10.229
បូព៌ា	-10.229
ផ្នូរ	-10.229
ស្រមោល	-10.229
តួអក្សរ	-10.229
វិស្វកម្ម	-10.229
ចុងបញ្ចប់នៃ	-10.2301
ក្រុមហ៊ុនផលិត	-10.2301
ដ៏លំបាក	-10.2301
ចូលរួមចំណែក	-10.2302
គណៈកម្មការ	-10.2303
អនុវត្តតាម	-10.2316
នាំខ្ញុំ	-10.233
ស្ព	-10.2337
អ្នកចំរៀង	-10.2345
សប្បុរស	-10.2348
▁Bri	-10.2348
ប្រាក់កម្ចី	-10.2349
តែម្នាក់គត់	-10.2349
សំងាត់	-10.2349
រសៀល	-10.2349
ពោត	-10.2349
▁1993	-10.2349
ពូកែ	-10.235
71	-10.2354
ឡើងវិញនូវ	-10.2355
▁Ste	-10.236
ខែតុលា	-10.2375
ផ្តល់ជូននូវ	-10.2382
អាចជួយអ្នកឱ្យ	-10.2383
ប្រឈមមុខ	-10.2395
ចុងសប្តាហ៍	-10.2404
កំពុងរង់ចាំ	-10.2406
អ៊ិនធឺរណែត	-10.2407
ទន្សាយ	-10.2407
សង្ខេប	-10.2407
បានយូរ	-10.2408
អារក្ស	-10.2409
AS	-10.2412
▁uh	-10.2416
age	-10.242
ម្តាយរបស់អ្នក	-10.242
01	-10.2424
សាស្រ្ត	-10.2436
ការពិភាក្សា	-10.2456
ថម	-10.2458
សត្វឆ្កែ	-10.246
ប្រែទៅជា	-10.2463
ង្វៀន	-10.2467
មេបញ្ជាការ	-10.2467
▁យោងតាមការិយាល័យ	-10.2469
ាញ់	-10.2474
អង្ករ	-10.2477
បង្ហូរទឹក	-10.2482
នារី	-10.2485
ect	-10.2506
▁Vo	-10.2507
នៅជុំវិញពិភពលោក	-10.2516
ដំបៅ	-10.2526
អត្ថាធិប្បាយ	-10.2526
ហាណូយ	-10.2526
ខ្លាំងក្លា	-10.2527
ចិត្តសាស្ត្រ	-10.253
vir	-10.2531
ជាថ្មីម្តងទៀត	-10.2533
ធ្វើម្តងទៀត	-10.2536
cor	-10.2543
ive	-10.2543
▁Za	-10.2546
ស្វែងយល់	-10.2546
បានបញ្ជាក់ថា	-10.2547
ភាគរយ	-10.2547
▁តើយើងអាច	-10.2548
14	-10.2548
▁400	-10.2549
54	-10.2552
មានទំហំធំ	-10.2553
ត្រឡប់មក	-10.2553
ដែលមានតំលៃ	-10.2562
ពស់	-10.2583
ផ្កាឈូក	-10.2583
ven	-10.2583
ភាគល្អិត	-10.2586
លុះត្រាតែ	-10.2586
វាយលុក	-10.2586
អេកូឡូស៊ី	-10.2586
ដំបូល	-10.2586
អះអាង	-10.2587
សមីការ	-10.259
រយៈពេលប៉ុន្មាន	-10.2592
58	-10.2598
ទូទៅបំផុត	-10.26
បន្ទប់ទឹក	-10.2605
មានទំនុកចិត្ត	-10.2605
មិនមានបញ្ហា	-10.2605
ឆ្ពោះទៅ	-10.2624
ការហោះហើរ	-10.2627
ទីក្រុងញូវយ៉ក	-10.2633
ដាវ	-10.2633
អំពីរបៀបដែល	-10.2638
ឃ្លា	-10.2641
ឋ	-10.2646
វឌ្ឍនភាព	-10.2646
អក្ខរាវិរុទ្ធ	-10.2646
អេហ្ស៊ីប	-10.2646
ü	-10.2646
ផ្តាច់ព្រ័ត្រ	-10.2646
រាជវង្ស	-10.2646
អាហារថ្ងៃត្រង់	-10.2646
រមាស់	-10.2646
ចៀម	-10.2646
ស៊ុល	-10.2647
ស្រអាប់	-10.2647
ចាត់ថ្នាក់	-10.2649
យ៉ាងជិតស្និទ្ធ	-10.2654
ហ្គីតា	-10.2656
qua	-10.2657
នៅចក្រភពអង់គ្លេស	-10.2659
ដំណើរកម្សាន្ត	-10.266
សង្គ្រោះ	-10.266
នៅពេលដែលនាង	-10.2665
មានហេតុផល	-10.2665
មាត់របស់អ្នក	-10.2667
និពន្ធ	-10.268
យប់នេះ	-10.268
អ្នកមិនគួរ	-10.2689
អាចកើតឡើង	-10.2691
ឆ្លើយតបទៅនឹង	-10.2699
ប្រាក់ខែ	-10.2699
ការដឹកជញ្ជូន	-10.2701
ឈ្នះពានរង្វាន់	-10.2706
ខ្ញុំគ្រាន់តែចង់	-10.2707
សហជីព	-10.2707
អ័រម៉ូន	-10.2707
សមិទ្ធិផល	-10.2707
ចាក់សោរ	-10.271
▁Chi	-10.2713
បានទទួលមរណភាព	-10.2713
បណ្តេញ	-10.2725
ជួយកាត់បន្ថយ	-10.2725
តូចចិត្ត	-10.2731
ស្នើឱ្យ	-10.2734
បានផ្ញើ	-10.2735
ការប៉ះពាល់	-10.2742
▁Kh	-10.275
ទោះបីជាមាន	-10.2754
ប្រាំពីរ	-10.2755
ឆ្ងល់	-10.2764
ស្ទះ	-10.2768
អាណិតអាសូរ	-10.2768
ę	-10.2768
រាបស្មើ	-10.2768
បញ្ឈរ	-10.2768
▁Google	-10.2768
លទ្ធិ	-10.2768
អើយ	-10.2768
អង់ទីប៊ីយោទិច	-10.2768
ស្នាមញញឹម	-10.2769
ការបោះពុម្ព	-10.277
វាមិនអីទេ	-10.277
ការខិតខំ	-10.2778
ចាក់ផ្សាយ	-10.278
ធា	-10.2784
បច្ចុប្បន្នភាព	-10.2785
ម្រាមដៃរបស់អ្នក	-10.2791
AT	-10.2795
▁1950	-10.2796
មានលក្ខណៈពិសេស	-10.2809
ប្រុស	-10.2827
បានបង្ហាញពី	-10.2829
ដោត	-10.2829
▁Ed	-10.2833
▁1996	-10.2837
▁My	-10.2837
▁Yo	-10.2837
អនុញ្ញាត	-10.284
ity	-10.2847
ញើស	-10.2851
ផ្ទៃក្នុង	-10.2869
ការបែកបាក់	-10.2873
04	-10.2874
បានបង្រៀន	-10.2874
នៅលើគ្រែ	-10.2876
ត្រូវបានផ្តល់ឱ្យ	-10.2881
គ្រឹះ	-10.2882
gon	-10.2885
គ្រោងនឹង	-10.2885
មុទ្រចិនខាងត្បូង	-10.2892
សម្រាប់គោលបំណង	-10.2894
ព័ត៌មានលម្អិត	-10.2894
បញ្ជាក់ថា	-10.2908
ធ្វើអ្វីៗ	-10.2915
ឱ្យបានត្រឹមត្រូវ	-10.2931
.3	-10.2935
pho	-10.2939
ជាប់នឹង	-10.2945
ចាក់សោ	-10.295
ដុសខាត់	-10.2953
និន្នាការ	-10.2953
ស្តីបន្ទោស	-10.2953
អន្តោប្រវេសន៍	-10.2953
រូបចម្លាក់	-10.2953
&	-10.2953
ទស្សនវិជ្ជា	-10.2953
ច្រណែន	-10.2953
ទទួលរងនូវ	-10.2953
មូស	-10.298
គ្រប់ពេលវេលា	-10.2984
ment	-10.2985
កែច្នៃ	-10.3015
ព្រះវរបិតា	-10.3016
អ៊ីរ៉ាក់	-10.3016
]	-10.3016
ការតុបតែង	-10.3024
ទឹកភ្លៀង	-10.3028
លេប	-10.303
បង្កើតបានជា	-10.303
ដើរតួ	-10.3041
ក្មេងលេង	-10.3041
បានរៀបការជាមួយ	-10.3042
ការបដិសេធ	-10.3052
វាពិបាកក្នុងការ	-10.3064
ឆ្នោត	-10.3077
[	-10.3078
គ្រោះមហន្តរាយ	-10.3078
ជំទាស់	-10.3078
ទីក្រុងឡុងដ៍	-10.3078
▁James	-10.3078
សំណង់	-10.3079
រដ្ឋធានី	-10.3081
ឡានក្រុង	-10.3083
ដែលគេស្គាល់	-10.3123
មានគម្រោង	-10.3139
មិត្តរួម	-10.3139
វិស្វករ	-10.3142
ទប់ស្កាត់	-10.3142
ខោនធី	-10.3142
វិមាត្រ	-10.3142
សងសឹក	-10.3142
អំពើពុករលួយ	-10.3142
អគ្គ	-10.3142
បទបញ្ជា	-10.3144
បានប្រាប់ខ្ញុំថា	-10.3144
ម៉ៃ	-10.315
ម្ទេស	-10.3154
ប្រកាន់ខ្ជាប់នូវ	-10.3154
ឪពុករបស់នាង	-10.3165
គ្រា	-10.317
ទោះបីជាវា	-10.3173
ជួយអ្នកឱ្យ	-10.3175
51	-10.3179
ការរិះគន់	-10.3186
រកវិធី	-10.3198
អាយុកាល	-10.3201
ស្រលាញ់	-10.3205
កប្បាស	-10.3205
ទាសករ	-10.3205
ទីធ្លា	-10.3205
គ្រឿងទេស	-10.3206
បដិសេធមិន	-10.3206
កូរ៉េខាងជើង	-10.3208
សិប	-10.3211
ស្ថេរភាព	-10.3211
គួរឱ្យធុញទ្រាន់	-10.3213
ឃុំខ្លួន	-10.3216
លីត្រ	-10.3228
ខន	-10.3232
ចចក	-10.3263
▁ខ្ញុំដឹងថាអ្នក	-10.3267
ថ្នាំគ្រាប់	-10.3269
ទីលំនៅ	-10.3269
កាតូលិក	-10.3269
ជាអកុសល	-10.3269
កម្ពុជា	-10.327
ម្តងហើយម្តងទៀត	-10.327
ធំទូលាយ	-10.327
តោន	-10.3274
បំលែង	-10.3275
ប្រាប់គាត់ថា	-10.3281
06	-10.329
ដែលមានមូលដ្ឋាននៅ	-10.329
itz	-10.3295
ចង្ក	-10.33
កិច្ចសហ	-10.3302
អែល	-10.3306
ES	-10.3306
ជាសមាជិក	-10.331
ជាតិស្ករ	-10.3319
▁Star	-10.3329
ម៉ាយ	-10.3331
ឿ	-10.3332
ចង្វាក់	-10.3332
ជីដូន	-10.3334
អនុស្សាវរីយ៍	-10.3334
សមាធិ	-10.3334
▁Louis	-10.3334
ជនបទ	-10.3337
បញ្ចាំង	-10.3337
ឱប	-10.3342
ត្រីមាស	-10.3342
ដ៏ល្បីល្បាញ	-10.3343
ដោយស្វ័យប្រវត្តិ	-10.3349
នៅកន្លែងធ្វើការ	-10.3352
ពេលណា	-10.3354
ការពិសោធន៍	-10.3359
ប្រទេសកាណាដា	-10.3364
ផ្តោត	-10.3374
អូលីវ	-10.3378
អេដ	-10.3382
មីង	-10.3385
bra	-10.3387
PA	-10.3388
លេចចេញមក	-10.339
ផ្ទុះ	-10.3394
ប្រា	-10.3398
បរិច្ចាគ	-10.3399
ជម្រក	-10.3399
ជ័យជំនះ	-10.3399
ទួរគី	-10.3399
ធ្វើទារុណកម្ម	-10.3399
កាលពីយប់មិញ	-10.3399
ជំពូក	-10.3399
បើកឡាន	-10.34
សំបុក	-10.3401
តម្រូវឱ្យ	-10.3402
នៅពីមុខ	-10.3405
ខ្នាតតូច	-10.341
ក្នុងអំឡុង	-10.3428
ប្រាំបួន	-10.3433
ហាន់	-10.3436
ER	-10.344
ពឹងផ្អែក	-10.3449
bar	-10.3454
បន្តិចម្តង	-10.3456
គ្រប់រូប	-10.3459
ដំឡូង	-10.3464
ទំរង់	-10.3464
អ៊ីស្រាអែល	-10.3464
អាក្រាត	-10.3464
▁NGC	-10.3464
រ៉ុក	-10.3467
ប្រាកដជា	-10.3475
គាត់បានធ្វើ	-10.3481
ចង់ក្លាយជា	-10.3493
bert	-10.3495
វ៉	-10.351
ដិន	-10.3511
ខ្ញុំសុំទោស	-10.3521
ជំងឺទឹកនោមផ្អែម	-10.353
សូកូឡា	-10.353
កែសម្រួល	-10.353
បញ្ច្រាស	-10.353
ការស្ទង់មតិ	-10.353
98	-10.353
ក្អួត	-10.3532
ជនបរទេស	-10.3533
លាងសម្អាត	-10.3534
ពីរបីនាទី	-10.3535
89	-10.3538
▁Ol	-10.3539
មួយយប់	-10.3562
▁1000	-10.3565
មានតុល្យភាព	-10.3567
នៅកន្លែងណាមួយ	-10.3568
ប្អូនស្រី	-10.3583
itt	-10.3588
អ៊ីម៉ែល	-10.3596
ផ្សងព្រេង	-10.3596
លុកលុយ	-10.3596
ស្ថិតស្ថេរ	-10.3596
ផ្តន្ទាទោស	-10.3596
វិវឌ្ឍន៍	-10.3596
odeship	-10.3596
អូស្រ្តាលី	-10.3596
▁មីលីមីត	-10.3596
ទិស	-10.3596
ស្វាមី	-10.3597
ស្ទីន	-10.3597
អស់សង្ឃឹម	-10.3597
ពួកយើង	-10.3608
សង្ស័យថា	-10.3613
យើងបានរកឃើញ	-10.3613
ជំនួសវិញ	-10.3615
ចម្បង	-10.3619
រដូវក្តៅឆ្នាំ	-10.3629
ការថែទាំ	-10.3641
អោយ	-10.365
ខ្ពស់ជាងនេះ	-10.3655
អាស៊ាន	-10.3663
ទាន់សម័យ	-10.3663
បន្តទៅមុខទៀត	-10.3663
ថ្លែង	-10.3664
គួរឱ្យស្អប់ខ្ពើម	-10.3665
រួច	-10.3667
កំណត់ចំណាំ	-10.3667
សម្ព័ន្ធមិត្ត	-10.3667
▁Col	-10.3667
illa	-10.3671
ដ៏ធំបំផុត	-10.3687
ហ្សេ	-10.3692
ចល័ត	-10.3697
ឡើងភ្នំ	-10.37
អាចនាំឱ្យមាន	-10.3701
ក្លាហាន	-10.3711
បទបង្ហាញ	-10.3711
មានអត្ថន័យ	-10.3713
រ៉េ	-10.3726
▁Del	-10.3728
យុទ្ធសាស្រ្ត	-10.373
ថយក្រោយ	-10.373
ñ	-10.373
ក្នុងចំនោម	-10.373
ជ្រលងភ្នំ	-10.373
ច្រើនទៀត	-10.3733
មិនអើពើនឹង	-10.3737
▁Peter	-10.3737
▁តើអ្វីទៅជា	-10.3739
ម៉ុន	-10.3741
ពិភាក្សាអំពី	-10.375
ជែក	-10.3754
TA	-10.3758
ខ្ញុំនឹងទទួលបាន	-10.3785
ការអនុញ្ញាត	-10.3786
លឿនជាងមុន	-10.3787
▁Ly	-10.3792
វង្វេង	-10.3797
ផ្សែង	-10.3798
បវរកញ្ញា	-10.3798
ពិធីមង្គលការ	-10.3798
ពោរពេញទៅដោយ	-10.3798
ឃោរឃៅ	-10.3798
а	-10.3798
ដ្រាយ	-10.3798
រហូតទាល់តែ	-10.3798
▁Microsoft	-10.3798
ប្រព្រឹត្ត	-10.3798
អំណរ	-10.3798
ر	-10.3798
ផ្នែកខាងក្រោមនៃ	-10.3798
▁Air	-10.3798
ឆាប់ខឹង	-10.3799
ធ្វើឱ្យសកម្ម	-10.3805
ត្រូវបានបំផ្លាញ	-10.381
▁Paul	-10.3814
េះ	-10.3815
រំពឹងទុក	-10.3815
ការរំលាយអាហារ	-10.3816
03	-10.3818
បំផ្ទុះ	-10.3819
ជ្រើសរើសយក	-10.3845
តេស្ត	-10.3849
ដងក្នុងមួយថ្ងៃ	-10.3861
កែសំរួល	-10.3866
ឆោតល្ងង់	-10.3866
បាតុភូត	-10.3866
▁County	-10.3866
ដូច្នេះសូម	-10.3867
អភិបាលក្រុង	-10.3868
ថេ	-10.387
▁សូមអភ័យទោស	-10.387
គ្រប់ទីកន្លែង	-10.3872
▁Mike	-10.3875
បានរាយការណ៍ថា	-10.3875
កាន់តែច្បាស់	-10.3878
▁មីលី	-10.3878
ប្រឈមនឹង	-10.3908
អិន	-10.3913
មនុស្សម្នាក់ទៀត	-10.3919
បិទភ្ជាប់	-10.392
ប៉ះពាល់	-10.3922
សាកសួរ	-10.3922
កន្លែងទំនេរ	-10.3922
គ្រាប់បាល់	-10.3931
នឹងជួយអ្នកឱ្យ	-10.3932
ខែសីហា	-10.3933
ខ្វះខាត	-10.3934
ឆ្លាតវៃ	-10.3934
នៅសេសសល់	-10.3934
ក្មេងជំទង់	-10.3934
អ្វីៗគ្រប់យ៉ាង	-10.3934
កាលពីម្សិលមិញ	-10.3935
កុម្មុយនិស្ត	-10.3935
ផ្តល់ឱ្យយើងនូវ	-10.3935
ការដួលរលំ	-10.3954
បិទទ្វារ	-10.3957
ឆ្នាំក្រោយមក	-10.3959
ថែទាំសុខភាព	-10.3959
នោះជាអ្វីដែល	-10.3959
ប្រសិនបើអ្នកអាច	-10.3962
តូចជាង	-10.3964
ជារៀងរាល់ថ្ងៃ	-10.3965
88	-10.3986
រៀបចំផែនការ	-10.3993
▁Mont	-10.3993
យន្ដហោះ	-10.3999
08	-10.4
ស្តាំ	-10.4001
អាសន្ន	-10.4003
ឈានមុខគេ	-10.4003
លែងលះ	-10.4003
▁Jan	-10.4005
ឆ្ងល់ថាតើ	-10.4007
អេសអេសអេសអេសអេស	-10.4008
ឆៅ	-10.4008
▁1992	-10.4011
.6	-10.4012
បើកដំណើរការ	-10.4012
ដើម្បីចៀសវាង	-10.4013
ភ្ញាក់ឡើង	-10.4016
▁New	-10.402
ដឺ	-10.4037
ជំងឺបេះដូង	-10.4037
យកឈ្នះ	-10.4039
ជ្រាប	-10.4052
BA	-10.4058
គីមីវិទ្យា	-10.4059
យើងបានឃើញ	-10.4068
ż	-10.4073
កាកសំណល់	-10.4073
ហោប៉ៅ	-10.4073
ដាក់ពាក្យសុំ	-10.4073
ដំរី	-10.4073
វាលខ្សាច់	-10.4074
បារី	-10.4074
ជិះកង់	-10.4075
មានឆន្ទៈក្នុងការ	-10.4076
មើលងាយ	-10.4088
ជនជាតិចិន	-10.4088
ការសរសើរ	-10.4091
ធ្វើពាណិជ្ជកម្ម	-10.4096
ច្រើនបំផុត	-10.4098
ចរចា	-10.4105
ធ្វើកិច្ចការ	-10.4105
ឡាតាំង	-10.4108
រយៈពេលខ្លី	-10.4123
ការគណនា	-10.4133
អេសអេសអេស	-10.4133
គម្ពីរ	-10.4143
បរិញ្ញាបត្រ	-10.4143
គុណសម្បត្តិ	-10.4143
ជួនកាល	-10.4143
ដំណក់	-10.4143
ថេប្លេត	-10.4143
ធានារ៉ាប់រង	-10.4143
អាបធ្មប់	-10.4143
ផ្អាក	-10.4143
▁1991	-10.4143
ជឿនលឿន	-10.4143
ឯកទេស	-10.4143
ផ្តល់ឱ្យពួកគេនូវ	-10.4143
សូមពិចារណា	-10.4144
រងទុក្ខ	-10.4144
▁ខាងកើតនៃរដ្ឋ	-10.415
ចំណង	-10.415
កាំ	-10.4156
ជាពិសេសប្រសិនបើ	-10.4163
ហៅវាថា	-10.4163
21	-10.4168
07	-10.4169
សត្វព្រៃ	-10.4175
បោះឆ្នោតជ្រើសរើស	-10.4193
អ្នកផ្សេង	-10.4198
▁Tor	-10.4199
យក្ស	-10.4201
ទៅទីនោះ	-10.4202
ពិព័រណ៍	-10.4213
ប្រថុយ	-10.4213
ភេរវកម្ម	-10.4213
ពណ៌ប្រផេះ	-10.4213
ការលួងលោម	-10.4218
មកលេង	-10.4232
កែតម្រូវ	-10.4244
▁Mus	-10.4246
ធីក	-10.4255
តើខ្ញុំអាច	-10.4269
តុបតែង	-10.4275
កំណត់ពេលវេលា	-10.4275
សមាជិកគ្រួសារ	-10.4281
ឆ្ងាញ់	-10.4284
ចងក្រង	-10.4284
មិនចេះរីងស្ងួត	-10.4284
្រៀមខ្លួនជាស្រេច	-10.4284
ស៊ុម	-10.4284
ចុះយ៉ាងណាចំពោះ	-10.4284
កាន់តែអាក្រក់ទៅ	-10.4284
រាប់ពាន់នាក់	-10.4287
បង្រួម	-10.4292
ទឹកជ្រលក់	-10.4298
ជំងឺសរសៃប្រសាទ	-10.4305
មិត្តម្នាក់	-10.431
ខ្ញុំមានអាយុ	-10.431
សង្ឃឹម	-10.4313
PD	-10.4315
ពួកគេបានធ្វើ	-10.4325
ការបះបោរ	-10.4328
ចច	-10.4332
គុក	-10.4332
24	-10.4343
95	-10.4344
02	-10.4346
កំពុងធ្វើដំណើរ	-10.4348
ជណ្តើរ	-10.4354
អត្ថិភាព	-10.4355
ជម្រះ	-10.4355
ប្រឹក្សាភិបាល	-10.4355
ńsk	-10.4355
ផ្តល់ឱ្យគាត់នូវ	-10.4357
សារៈសំខាន់	-10.4358
ភាពជោគជ័យ	-10.4362
ឆ្មាំ	-10.4366
▁Or	-10.4375
ភាពក្លាហាន	-10.4376
IC	-10.4377
គ្រាប់កាំភ្លើង	-10.4396
ហាំ	-10.4399
▁ត្រឹមត្រូវហើយ	-10.4404
ទូទាំងពិភពលោក	-10.4404
vel	-10.4406
onic	-10.4409
ភាពច្របូកច្របល់	-10.4411
ដូង	-10.4416
នាំចូល	-10.4418
ក្រអឺតក្រទម	-10.4427
រួចផុតពី	-10.4427
មេត្តា	-10.4427
ចំនួនទឹកប្រាក់	-10.4427
សុភាពបុរស	-10.4428
នៅព្រឹកនេះ	-10.4429
rzy	-10.4429
ខ្សែក្រវ៉ាត់	-10.443
ដាច់ពីគ្នា	-10.4431
យ៉ាងពេញលេញ	-10.4443
យើងទើបតែ	-10.4443
ប៊ែល	-10.4449
ការពារជាតិ	-10.4459
▁Carl	-10.4464
ការចរចា	-10.4466
▁Mal	-10.4478
ដប់ប្រាំ	-10.4478
TV	-10.4479
ជះឥទ្ធិពល	-10.4487
សំណង	-10.4499
គណនេយ្យ	-10.45
ជំងឺផ្តាសាយ	-10.45
ដំណាំ	-10.45
តុក្កតា	-10.45
រឹតត្បិត	-10.45
អចិន្រ្តៃយ៍	-10.45
ឧទាហរណ៏	-10.45
គ្រីស្តាល់	-10.45
ជ្រើស	-10.45
កាលពីឆ្នាំមុន	-10.4503
គ្រាប់ចុច	-10.4506
បានផ្លាស់ទៅ	-10.4518
តែប៉ុណ្ណោះ	-10.4519
▁Tim	-10.4531
យ៉ាងធ្ងន់ធ្ងរ	-10.4533
ផឹកទឹក	-10.4545
អី	-10.4554
22	-10.4555
je	-10.457
អ័ក្ស	-10.4573
ប្រាជ្ញា	-10.4573
វណ្ណៈ	-10.4573
នៅភាគខាងលិច	-10.4573
ជីវសាស្ត្រ	-10.4575
▁1975	-10.4589
បានគ្រោងទុក	-10.4594
IA	-10.4599
ហែក	-10.4605
ដួលរលំ	-10.4625
ហេហេ	-10.4629
មើលទៅដូច	-10.4642
85	-10.4644
ហ្មត់ចត់	-10.4646
គ្រឿងបន្លាស់	-10.4646
រៀងៗខ្លួន	-10.4646
អាស៊ីអាគ្នេយ៍	-10.4646
នេះបើយោងតាម	-10.4646
▁Android	-10.4646
▁1979	-10.4646
ស្នង	-10.4647
ប្រដាប់អាវុធ	-10.4647
ពេញមួយយប់	-10.4648
ប្រមូលផល	-10.465
ខូ	-10.4653
▁Bob	-10.4653
មុខតំណែង	-10.4653
មិត្តរួមការងារ	-10.4655
ło	-10.466
ចៀន	-10.4669
ផ្ទុយទៅវិញ	-10.4675
សមនឹងទទួលបាន	-10.4703
ប៉ុន្តែវាមិន	-10.4712
ö	-10.472
សិប្បនិម្មិត	-10.472
ខិតជិត	-10.472
កាលៈទេសៈ	-10.472
លាតត្រដាង	-10.472
លើសពីនេះទៅទៀត	-10.472
ឋាននរក	-10.472
م	-10.472
ប្រវត្តិសាស្រ្ត	-10.4721
វត្ថុរាវ	-10.4726
បោះបង់	-10.4727
ផូ	-10.4727
ក្លិនក្រអូប	-10.4728
កម្មវិធីរុករក	-10.4734
ផ្តល់យោបល់	-10.474
យ៉ាងតិច	-10.4742
តើមានអ្វីកើតឡើង	-10.4745
អាប់	-10.4755
ទូរស័ព្ទចល័ត	-10.4757
ខណៈពេល	-10.4757
ម៉ាន់	-10.4764
គ្រប	-10.4768
សូមកុំ	-10.4769
BC	-10.4772
dge	-10.4787
ចំណាយប្រាក់	-10.4789
ą	-10.4795
មាត្រដ្ឋាន	-10.4795
វាយដំ	-10.4795
ឡានដឹកទំនិញ	-10.4796
ជីវវិទ្យា	-10.4797
ធ្វើដូចនេះ	-10.4797
មាត្រា	-10.4797
ពីរសប្តាហ៍	-10.4806
ប្រសើរជាងមុន	-10.4816
លេបថ្នាំ	-10.4818
រំលោភបំពាន	-10.4825
មួយពាន់	-10.485
ក្រូច	-10.4867
វិញ្ញាណ	-10.4868
កៅស៊ូ	-10.487
ជ្រៀតជ្រែក	-10.487
កន្ទុយ	-10.487
តៃវ៉ាន់	-10.487
មរតក	-10.487
ម្រាមជើង	-10.487
ត្រកូល	-10.487
ទេវតា	-10.4871
ជាប់គាំង	-10.4871
ía	-10.4883
97	-10.4884
ញ័រ	-10.4887
ឡៃ	-10.4888
ពត់	-10.4892
អុក	-10.4897
ខ្ញុំបានព្យាយាម	-10.4914
អាហារពេលព្រឹក	-10.4917
ភាពវៃឆ្លាត	-10.4946
▁William	-10.4946
ទីប្រជុំជន	-10.4946
ការបញ្ចេញមតិ	-10.4947
ជីវឧស្ម័ន	-10.4949
ភាពស្ងប់ស្ងាត់	-10.495
ម្ហូបអាហារ	-10.4964
មានតំលៃ	-10.4964
▁1945	-10.4968
09	-10.497
ដូច្នោះ	-10.4972
សំលេងរំខាន	-10.4973
ការលំបាកក្នុងការ	-10.4973
គ្រប់ប្រភេទ	-10.4981
វិទ្យុសកម្ម	-10.4984
នោម	-10.4989
ប៉ម	-10.4995
បំផុតនៅលើពិភពលោក	-10.4998
AL	-10.4998
សរសើរ	-10.5002
វិហារ	-10.5017
ឥន្ធនៈ	-10.5019
សារពាង្គកាយ	-10.5022
អ៊ីយ៉ុង	-10.5022
អាហារសម្រន់	-10.5022
ខ្លាឃ្មុំ	-10.5022
គ្រុនក្តៅ	-10.5022
ធ្វើត្រាប់តាម	-10.5022
រ៉ូបូត	-10.5022
ពិការភ្នែក	-10.5022
ពិធីបុណ្យ	-10.5023
▁Franc	-10.5024
ចុចប៊ូតុង	-10.5026
▁1989	-10.5035
តូចជាងមុន	-10.5044
មិនខ្វល់	-10.5047
គេចាត់ទុកថា	-10.5054
មហាក្សត្រី	-10.5078
មុជទឹក	-10.5079
ដុំសាច់	-10.5089
ទុក្ខ	-10.5098
សន្ធិសញ្ញា	-10.5099
ត្រគាក	-10.5099
សៅរ៍	-10.5099
កុលសម្ព័ន្ធ	-10.5099
និមិត្តរូប	-10.5099
បាញ់ប្រហារ	-10.5099
ព្រហ្មទណ្ឌ	-10.5099
សតវត្ស	-10.5099
ស៊ុប	-10.5099
ប្តឹង	-10.5101
chlor	-10.5107
ជួរឈរ	-10.511
មានអ្វីខុស	-10.5125
▁ខ្ញុំបានប្រាប់	-10.5156
សួរថាតើ	-10.5162
ance	-10.5165
រញ្ជួយ	-10.5176
អក្សរសិល្ប៍	-10.5177
អាឡែរហ្សី	-10.5177
គិលានុបដ្ឋាយិកា	-10.5177
អណ្តែត	-10.5177
អាហ្សង់ទីន	-10.5177
សម្មតិកម្ម	-10.5177
ដែលមានចំណងជើងថា	-10.5177
វ៉ូ	-10.5178
ពេញមួយជីវិត	-10.5179
ដោយមិនគិតពី	-10.5182
អនុសញ្ញា	-10.519
អថេរ	-10.5191
ប៉ុន្មាននាក់	-10.5192
ពុក	-10.5194
▁Joe	-10.5195
អ៊ីស្លាម	-10.5196
មិនសប្បាយចិត្ត	-10.5198
មិនអាចធ្វើបាន	-10.5214
រួមបញ្ចូលគ្នា	-10.5233
នឹងធ្វើអ្វី	-10.5235
600	-10.5241
ចំណាំ	-10.525
លម្អិត	-10.5251
បទពិសោធ	-10.5254
អន្តរាគមន៍	-10.5255
ទេវកថា	-10.5255
លំនៅដ្ឋាន	-10.5255
កាល់ស្យូម	-10.5255
ជនជាតិភាគតិច	-10.5255
ទស្សនវិស័យ	-10.5255
បើប្រៀបធៀបទៅនឹង	-10.5255
សេចក្ដី	-10.5255
ក្រសួងការបរទេស	-10.5255
ថ្ងៃអាទិត្យ	-10.5255
ជាមុនសិន។	-10.5255
ជារៀងរាល់ឆ្នាំ	-10.5255
ប៉េ	-10.5263
កាត់ផ្តាច់	-10.5274
ថ្លៃដើម	-10.5277
(	-10.5278
សិទ្ធិអំណាច	-10.5283
ពាន់	-10.5295
សម្ព័ន្ធ	-10.5314
ពេទ្យ	-10.5322
ចម្អិន	-10.5329
កំណត់ហេតុ	-10.5329
▁Pre	-10.5332
ជាតិសរសៃ	-10.5333
រៀបរាប់	-10.5334
រុញច្រាន	-10.5334
អព្យាក្រឹត	-10.5334
ជួញដូរ	-10.5334
អ៊ូហ្គង់ដា	-10.5334
▁Grand	-10.5334
បង្គោល	-10.5335
▁Jack	-10.5341
▁1940	-10.5349
ទុំ	-10.5352
ពីទីនោះ	-10.5358
ដំណឹងល្អ	-10.5364
ផ្តល់អនុសាសន៍	-10.5365
ធ្វើដំណើរទៅកាន់	-10.5366
82	-10.538
23	-10.5406
ល្ងីល្ងើ	-10.5412
ប្រជាជាតិ	-10.5412
រអាក់រអួល	-10.5413
ទប់ទល់នឹង	-10.5413
ឧទ្ទិស	-10.5413
ពន្លក	-10.5413
ស្ងាត់ស្ងៀម	-10.5413
អ៊ីដ្រូ	-10.5413
រចនាប័ទ្ម	-10.5413
ឃុំឃាំង	-10.5413
ដង្កូវ	-10.5413
នៅខែមីនាឆ្នាំ	-10.5413
▁Harry	-10.5416
បានទទួលជោគជ័យ	-10.5429
ទិក	-10.5432
បានវិលត្រឡប់មក	-10.5473
មានឈ្មោះថា	-10.5474
▁Med	-10.5486
សាក់	-10.549
ا	-10.5493
សន្ទស្សន៍	-10.5493
ស៊ុយអែត	-10.5493
អង្កត់ផ្ចិត	-10.5493
កោរសក់	-10.5493
គ្រូបង្វឹក	-10.5493
សង្រ្គោះ	-10.5493
កម្លាំងពលកម្ម	-10.5493
ធ្វើកូដកម្ម	-10.5493
ច្រលំ	-10.5493
ស្តាប់ទៅដូចជា	-10.5494
វិន័យ	-10.5496
អំពើអាក្រក់	-10.5498
តំណ	-10.5509
ឌា	-10.551
ម៉ាស៊ីនមេ	-10.5518
ជាតិដែក	-10.555
ពិតជាល្អណាស់	-10.5551
ហិ	-10.556
ជាប់គ្នា	-10.5572
សហភាពសូវៀត	-10.5574
សំណល់	-10.5574
ប្រហារជីវិត	-10.5574
ទុក្ខព្រួយ	-10.5574
បុរសចំណាស់	-10.5574
ឥវ៉ាន់	-10.5574
ពិន័យ	-10.5576
វ៉េ	-10.5576
ប្តីប្រពន្ធ	-10.5577
ផ្នែកខ្លះនៃ	-10.5577
ette	-10.558
អក្សរកាត់	-10.5583
មុខរបួស	-10.5586
របៀបរស់នៅ	-10.5586
ភាពខុសគ្នារវាង	-10.5612
កំណត់គោលដៅ	-10.5617
លែន	-10.5618
86	-10.562
▁sp	-10.563
ហឺ	-10.5633
មុខវិជ្ជា	-10.5655
ជនភៀសខ្លួន	-10.5656
បង្ហូរឈាម	-10.5658
មិនដែលឃើញ	-10.5658
សម្ព័ន្ធភាព	-10.5667
សាច់អាំង	-10.5673
ស្បែកខ្មៅ	-10.5681
87	-10.5709
ight	-10.5715
លក់រាយ	-10.5717
ភាពធន់ទ្រាំ	-10.5721
មន្ទីរ	-10.5729
ស្រោមជើង	-10.5736
ជិះស្គី	-10.5737
ដង់ស៊ីតេ	-10.5737
ពណ៌ផ្កាឈូក	-10.5741
រំដោះ	-10.5742
ប្រភពដើម	-10.5766
សប្បាយរីករាយ	-10.5766
ល្បឿនលឿន	-10.5781
បាល់បោះ	-10.5789
ឌុ	-10.5791
ទ្វេ	-10.5808
ឆ្វេង	-10.5817
ក្រពើ	-10.5819
បោសសំអាត	-10.5819
ពេជ្រ	-10.5819
សំគាល់	-10.5819
▁Galaxy	-10.5819
ស្រោមដៃ	-10.5819
ن	-10.582
អស់កម្លាំង	-10.5822
សមាជិកសភា	-10.5823
សេចក្តីពិត	-10.5831
កាត់សក់	-10.5844
800	-10.5863
សំណាងល្អ	-10.5876
គាំង	-10.5891
ខ្នើយ	-10.5903
ពិគ្រោះយោបល់	-10.5903
ទឹកជំនន់	-10.5903
ហួសប្រមាណ	-10.5903
ចង្អោរ	-10.5903
ជ្វីហ្វ	-10.5903
អូទ្រីស	-10.5903
ទទូច	-10.5903
រដ្ឋកាលីហ្វ័រញ៉ា	-10.5907
គ្រាប់ធញ្ញជាតិ	-10.5907
ពាក្យសម្ងាត់	-10.5914
មានរយៈពេលយូរ	-10.5915
គោះ	-10.5924
ជាប់ទាក់ទង	-10.5932
ប្រសើរ	-10.5939
ប្រទេសអ៊ីតាលី	-10.5944
យកវាចេញ	-10.5944
ដុស	-10.597
ចិត្តវិទ្យា	-10.598
ប្រាថ្នា	-10.5981
អង្ក	-10.5981
ក្រាហ្វិច	-10.5987
ដំណើរទស្សនកិច្ច	-10.5987
ប្រេកង់	-10.5987
កុំព្យូទ័រយួរដៃ	-10.5987
ចៅហ្វាយ	-10.5987
បង្គន់	-10.5987
អត្តពលិក	-10.5987
ហួសកំរិត	-10.5987
ប៉ាតង់	-10.5991
ឆ្ពោះទៅមុខ	-10.5991
EN	-10.5992
ស្រក់	-10.6003
ការយល់ឃើញ	-10.6009
ហាត់	-10.601
បញ្ចូលទៅក្នុង	-10.6017
កេះ	-10.6021
ខែមករា	-10.6055
លឺសំលេង	-10.6056
ស្ថានីយ	-10.607
ដ្ឋារចនាសម្ព័ន្ធ	-10.6071
ប៉ូតាស្យូម	-10.6072
សៀគ្វី	-10.6072
អៀរឡង់	-10.6072
លំអិត	-10.6072
កំប៉ុង	-10.6072
ដេញតាម	-10.6072
ទឹករំអិល	-10.6072
ស្គ្រីប	-10.6072
បរបាញ់	-10.6072
ទុកចោល	-10.6076
▁1987	-10.6083
ពីទីនេះ	-10.6084
បរិភោគអាហារ	-10.6133
ដ៏មានឥទ្ធិពល	-10.6139
អន្តរ	-10.6151
រលូន	-10.6155
ប្រដាប់	-10.6156
វេចខ្ចប់	-10.6157
ចិញ្ចើម	-10.6157
ឆ្លាក់	-10.6157
ថ្នាំបំប៉ន	-10.6157
ងាប់	-10.6157
CBS	-10.6157
នាពេលបច្ចុប្បន្ន	-10.6157
ហ្វូងមនុស្ស	-10.6157
ដែលអាចកើតមាន	-10.6157
ហួសពី	-10.6157
▁ខែកុម្ភៈឆ្នាំ	-10.6158
គុណវិបត្តិ	-10.616
▁ជាលទ្ធផល	-10.6166
មួយរយ	-10.6168
បែកញើស	-10.6212
ń	-10.6243
បំផ្លិចបំផ្លាញ	-10.6243
សាធារណជន	-10.6243
បងប្អូនជីដូនមួយ	-10.6243
វិសាលភាព	-10.6243
កំសាន្ត	-10.6243
ខ្ពង់រាប	-10.6243
ប៉ាន់ប្រមាណ	-10.6243
រមៀល	-10.6243
ស៊ូទ្រាំ	-10.6243
ជ្រុល	-10.6244
ផ្ទៃខាងក្រោយ	-10.6247
▁wh	-10.6252
បង្កើនល្បឿន	-10.6254
កាលពីមុន	-10.6254
បំពាក់	-10.6257
សម្ពាធឈាម	-10.6259
ជំរឿន	-10.6263
សាច់មាន់	-10.6303
ប្រកាន់ខ្ជាប់	-10.6313
ត្រូវបានបញ្ជូនទៅ	-10.6313
សំភារៈ	-10.633
▁ដូចគ្នានេះផងដែរ	-10.633
អាគារ	-10.633
បុណ្យណូអែល	-10.633
អាឡិច	-10.633
▁iPhone	-10.633
សន្និបាត	-10.633
តាមដងផ្លូវ	-10.6331
ខណៈ	-10.6331
យាម	-10.6333
អាំង	-10.6354
ធ្វើឱ្យវាក្លាយជា	-10.6366
មួយណាដែល	-10.6373
កុំអោយ	-10.6387
បង្ហូរ	-10.6395
ខែវិច្ឆិកា	-10.6404
បានធ្វើរួច	-10.6409
អង្កេត	-10.6418
ប្រាក់ឈ្នួល	-10.6418
សម្រកទម្ងន់	-10.6418
៌	-10.6418
ដាវីឌ	-10.6418
ឯកអគ្គរដ្ឋទូត	-10.6418
ប៉ុប	-10.6418
ភាពធន់	-10.6418
អុកស៊ីតកម្ម	-10.6419
ឆេ	-10.6428
▁1982	-10.643
ដើរជុំវិញ	-10.6436
គំរាមកំហែង	-10.6438
ថង់	-10.6442
ព្រះគុណ	-10.6443
92	-10.6468
រហូតមកដល់	-10.6506
ឆានែល	-10.6506
បង្រួបបង្រួម	-10.6506
ភេរវករ	-10.6506
មេកានិច	-10.6506
នាពេលថ្មីៗនេះ	-10.6506
ម្តងម្កាល	-10.6506
វ័យចំណាស់	-10.6506
អង្វរ	-10.6506
សន្លាក់	-10.6507
អាងហែលទឹក	-10.6508
ស្មានថា	-10.6516
▁1988	-10.652
អវត្តមាន	-10.652
បានស្លាប់ហើយ។	-10.6526
ដែលក្នុងនោះ	-10.6532
▁Game	-10.658
ម៉ូតូ	-10.6591
អូបាម៉ា	-10.6596
ម្ភៃ	-10.6596
ចាប់ពង្រត់	-10.6596
ដឺក្រេ	-10.6596
ត្រីកោណ	-10.6596
ة	-10.6596
▁អត់ទេ	-10.6596
អោន	-10.6596
ការកាត់ទោស	-10.6598
សម័យទំនើប	-10.6599
កែវពង្រីក	-10.66
ម៉ៅ	-10.6603
sky	-10.6607
▁1986	-10.6608
▁1985	-10.6609
▁Luc	-10.6649
អ៊ុ	-10.665
96	-10.6657
សមាហរណកម្ម	-10.6686
ថ្ពាល់	-10.6686
អ៊ុយក្រែន	-10.6686
រសាត់	-10.6686
ចំណូលចិត្ត	-10.6687
បន្ទាយ	-10.6689
ម៉ារីយ៉ា	-10.6693
ជនជាតិអាមេរិកាំង	-10.6694
ដីឥដ្ឋ	-10.6703
ភក់	-10.6719
▁Steve	-10.6724
ប្រាប់នាងថា	-10.6753
ភ័យស្លន់ស្លោ	-10.6777
ឃ្លាំង	-10.6777
អ៊ីនធឺណេត	-10.6777
ទទឹង	-10.6777
ទំពាំងបាយជូរ	-10.6777
បន្សល់ទុក	-10.6777
ផ្តួល	-10.6777
លេចធ្លាយ	-10.6777
▁George	-10.6777
ចង្កោម	-10.6777
ជនជាតិយូដា	-10.6777
បានកន្លងផុតទៅ	-10.6777
▁damn	-10.6777
កងកម្លាំង	-10.6777
ឃ្លាតឆ្ងាយ	-10.6777
▁Saint	-10.6777
បង្ហោះ	-10.6777
អមដោយ	-10.678
ពេលយប់	-10.6781
សមាជិកព្រឹទ្ធសភា	-10.6784
ផ្តាច់មុខ	-10.6785
មានភាពរឹងមាំ	-10.6789
ពីរបីម៉ោង	-10.6789
ត្រឹមតែ	-10.6796
សម្រស់	-10.6802
តស៊ូមតិ	-10.6804
អៀន	-10.6806
អនុសាសន៍	-10.6833
បានបញ្ជាឱ្យ	-10.6838
ឆ្នាំចុងក្រោយនេះ	-10.6863
ខែកុម្ភៈ	-10.6868
ផ្លាស់ទីលំនៅ	-10.6868
ល្បួង	-10.6868
បើមិនដូច្នេះទេ	-10.6868
ពាសពេញ	-10.6868
រស់រវើក	-10.6868
មនោសញ្ចេតនា	-10.6868
នៅខែមិថុនាឆ្នាំ	-10.6869
ស្គរ	-10.6869
ال	-10.6869
តូចចង្អៀត	-10.6869
ដ៏ធំធេង	-10.6874
ហោះ	-10.6894
ភាពស្និទ្ធស្នាល	-10.6913
បរិ	-10.6959
អេឡិចត្រូ	-10.6961
ចាត់វិធានការ	-10.6961
ដ្រាយវ៍	-10.6961
រីកដុះដាល	-10.6961
ឡាស៊ែរ	-10.6961
លីនុច	-10.6961
អាហ្វហ្គានីស្ថាន	-10.6961
ប្រឡាយ	-10.6961
ស្បូន	-10.6961
រាប់សិប	-10.6963
អណ្តាតភ្លើង	-10.6964
ប្រេងឥន្ធនៈ	-10.6964
រស់ឡើងវិញ	-10.7
5.000	-10.7044
យូរជាងនេះ	-10.7052
រ៉ាឌីកាល់	-10.7054
ឧទ្ធរណ៍	-10.7054
បោកគក់	-10.7054
ខ្ទះ	-10.7054
▁បើមិនដូច្នោះទេ	-10.7054
រណ្តៅ	-10.7054
ទៅដល់ទីនោះ	-10.7055
▁Robert	-10.7058
▁តើអ្នកដឹងទេថា	-10.7059
ប៊ិច	-10.7063
ល្បី	-10.7066
owski	-10.7074
ការពិនិត្យឡើងវិញ	-10.7099
លំហ	-10.7108
ស្ទាក់ស្ទើរ	-10.7149
ខ្សែអាត់	-10.7149
ចំណិត	-10.7149
ដ៏គួរឱ្យភ័យខ្លាច	-10.7149
ពណ៌ទឹកក្រូច	-10.7149
#	-10.7149
ប៉េងប៉ោះ	-10.7149
ប្រសព្វ	-10.7149
មិត្តភក្ដិ	-10.7149
ដល់ពេលដែលត្រូវ	-10.7149
ថ្ងៃសុក្រ	-10.7149
ក្របខ័ណ្ឌ	-10.7149
នៅខែមេសាឆ្នាំ	-10.7149
ចង្អុល	-10.7157
...	-10.716
គិតត្រឹមឆ្នាំ	-10.7161
កាន់តំណែង	-10.7164
port	-10.7174
ទេសស៊ីរីនៃស្ថិតិ	-10.7238
កម្តៅ	-10.7244
កុងសូល	-10.7244
ទ្រទ្រង់	-10.7244
ល្ងង់ខ្លៅ	-10.7244
ចំណុចប្រទាក់	-10.7244
ឆ្នើម	-10.7244
តម្រៀប	-10.7244
ថ្លែងអំណរគុណ	-10.7244
ទ្រុង	-10.7244
អព្ភូតហេតុ	-10.7244
អណ្តើក	-10.7244
ត្រួសត្រាយ	-10.7244
សាច់ញាតិ	-10.7244
ផេះ	-10.7246
ពេទ្យសត្វ	-10.725
ពពុះ	-10.725
ចុះចាញ់	-10.7251
រត់គេច	-10.7331
សហគ្រិន	-10.734
អន្តរាយ	-10.734
និរទេស	-10.734
ដីធ្លី	-10.734
បង្ហាប់	-10.734
រឹបអូស	-10.734
អុបទិក	-10.734
គ្រឿងអលង្ការ	-10.734
ទំលាប់	-10.734
វ៉ារស្សាវ៉ា	-10.734
សង្សារ	-10.734
សម្របខ្លួន	-10.734
អញ្ចាញធ្មេញ	-10.734
អរូបី	-10.734
ភួយ	-10.734
ព្រួញ	-10.7341
ចង្វាក់បេះដូង	-10.7343
បង្កគ្រោះថ្នាក់	-10.7346
សាឡាត់	-10.7359
ពេញវ័យ	-10.7382
ខិតខំ	-10.7411
ទន្ទឹមនឹងនេះ	-10.7417
ពេលព្រឹក	-10.7417
ក្រវ៉ាត់	-10.7434
ធ្យូងថ្ម	-10.7437
អតិសុខុមប្រាណ	-10.7437
អ្នកបំរើ	-10.7437
ប្រក្រតី	-10.7437
ស្ថាបត្យករ	-10.7437
ខែកុម្ភះ	-10.7437
ធ្វើកោសល្យវិច័យ	-10.7437
ទំនប់	-10.7437
▁Frank	-10.7437
អូលីវើរ	-10.7438
ចម្អិនអាហារ	-10.7443
▁សូមចងចាំថា	-10.7443
ស្ថិតិប្រ	-10.7458
សង្គ្រោះបន្ទាន់	-10.7485
ធញ្ញជាតិ	-10.753
កុំព្យួទ័រ	-10.7535
ផ្ទៀងផ្ទាត់	-10.7535
ក្រមសីលធម៌	-10.7535
អាហារូបត្ថម្ភ	-10.7535
សម្លុត	-10.7535
ស្រមោច	-10.7535
និទានកថា	-10.7535
ស្មរបន្ទាល់	-10.7535
វត្ថុធាតុដើម	-10.7536
សវនាការ	-10.7536
អនុបណ្ឌិត	-10.7537
សាច់ជ្រូក	-10.7538
ពីរបីសប្តាហ៍	-10.7548
ស្មើ	-10.7607
ប្រឆាំងនឹងមេរោគ	-10.7631
កន្ទួល	-10.7634
ម្ចាស់ក្សត្រី	-10.7634
វិកលចរិក	-10.7634
តំរងនោម	-10.7634
ដោយរបៀបណា	-10.7635
រលុង	-10.7635
ជំងឺរលាកសន្លាក់	-10.7635
បន្ធូរបន្ថយ	-10.7636
ការរីករាលដាលនៃ	-10.7664
ទទួលបន្ទុក	-10.7681
គេរាយការណ៍ថា	-10.769
ឱ	-10.7721
បំបៅ	-10.7734
ភ្លោះ	-10.7734
រ៉ូមែនទិក	-10.7734
ថនិកសត្វ	-10.7734
បំណះ	-10.7734
ទំនាញផែនដី	-10.7734
ព្រះយេហូវ៉ា	-10.7734
ត្រឡប់ទៅផ្ទះវិញ	-10.7734
ការតាំងទីលំនៅ	-10.7734
ភាពជាដៃគូ	-10.7735
ដឹកទំនិញ	-10.7735
មូលធន	-10.7735
ខែធ្នូ	-10.7736
ពងមាន់	-10.7736
អាល់ហ្វា	-10.7738
ទទួលរងពី	-10.7742
ធីធី	-10.7745
រួចទៅហើយ	-10.7753
អាចគ្រប់គ្រងបាន	-10.7807
រីកលូតលាស់	-10.7835
ស្នេហ៍	-10.7835
ភាគពាយព្យ	-10.7835
បូជាចារ្យ	-10.7835
សូហ្វវែរ	-10.7835
ម៉ៃឃើល	-10.7835
▁Coronavirus	-10.7835
ចង់ដឹងចង់ឃើញ	-10.7835
ឱ្យបានញឹកញាប់	-10.7839
បង់ថ្លៃ	-10.7847
94	-10.7847
ជ័រ	-10.7849
សារៈសំខាន់ណាស់	-10.7866
▁គិតត្រឹម	-10.7925
អាចធ្វើវាបាន	-10.7933
ដាក់ពង្រាយ	-10.7937
យេនឌ័រ	-10.7937
ផ្អែមល្ហែម	-10.7937
ព្រះយេស៊ូវ	-10.7937
អ័ព្ទ	-10.7937
ត្រូពិក	-10.7937
សិក្ខាសាលា	-10.7937
α	-10.7937
ការជជែកវែកញែក	-10.7937
សញ្ជាតិ	-10.7937
សញ្ញាបត្រ	-10.7937
នៅលីវ	-10.7938
ជនសង្ស័យ	-10.7939
វិនិយោគិន	-10.7944
សេចក្តីប្រកាស	-10.7944
បង្កប់	-10.7946
ម៉ាទីន	-10.8028
ញ៉ូម	-10.804
ជោគវាសនា	-10.804
ដើមទុន	-10.804
រឿងនិទាន	-10.804
លំអៀង	-10.804
អារម្មណ៍ធូរស្រាល	-10.804
ឌីវីឌី	-10.8041
ព្យញ្ជនៈ	-10.8041
សុពលភាព	-10.8041
អបអរ	-10.8041
មកុដ	-10.8041
ភាពជាអ្នកដឹកនាំ	-10.8041
វ៉ុល	-10.8041
ជណ្តើរយន្ត	-10.8043
uff	-10.8045
បួននាក់	-10.8101
ាក់ក្នុងការជំរឿន	-10.8121
ចងភ្ជាប់	-10.8122
ម្រេច	-10.8142
ម៉ាញេទិក	-10.8145
រោទិ៍	-10.8145
ទិន្នផល	-10.8145
បោះជំហានទៅមុខ	-10.8145
ព័រទុយហ្កាល់	-10.8145
ខ្យល់បក់	-10.8145
អមដំណើរ	-10.8146
ប្លែកៗ	-10.8147
តំណភ្ជាប់	-10.8148
ជំងឺដាច់សរសៃឈាម	-10.815
3%	-10.8178
ក្តារចុច	-10.8193
ព្រះរាជាណាចក្រ	-10.825
គម្លាត	-10.825
ទ្រព្យ	-10.825
និម្មិត	-10.825
ផ្កាកុលាប	-10.825
បណ្តាសា	-10.825
រូបិយប័ណ្ណ	-10.825
ត្រលប់មកផ្ទះវិញ	-10.825
ភាគនិរតី	-10.825
ស្វយ័ត	-10.825
▁Covid	-10.825
លាងចាន	-10.8256
ប្រវត្តិរូប	-10.8256
ville	-10.8259
តានតឹង	-10.827
ស្ករគ្រាប់	-10.8274
ត្រូវធ្វើជាមួយ	-10.8293
ត្រូវបានផ្ស	-10.8339
រួមចំណែកដល់	-10.835
លឿង	-10.8353
ការបំភាយ	-10.8356
មនសិការ	-10.8356
ថូម៉ាស	-10.8356
ពិធីបុណ្យសព	-10.8356
អនីតិជន	-10.8356
បទឧក្រិដ្ឋ	-10.8356
លោហៈ	-10.8356
ស្បៀងអាហារ	-10.8356
▁Twitter	-10.8356
▁FBI	-10.8356
អិម	-10.8356
នៅខែតុលាឆ្នាំ	-10.8356
បទសម្ភាសន៍	-10.8357
ត្រូវបានជំនួសដោយ	-10.8365
អាចធ្វើអ្វីបាន	-10.8401
បណ្តោយ	-10.8463
▁ម៉្យាងវិញទៀត	-10.8464
ខ្លឹមសារ	-10.8464
ស្ពឹក	-10.8464
កាតាឡុក	-10.8464
ខ្សែពួរ	-10.8464
ថ្កោលទោស	-10.8464
បទភ្លេង	-10.8464
ជំងឺលើសឈាម	-10.8464
បង្កាត់ពូជ	-10.8464
ដួងចិត្ត	-10.8464
▁David	-10.8464
ទំនោរ	-10.8571
ភៀសខ្លួន	-10.8572
ស្ថានទូត	-10.8573
ឈូងសមុទ្រ	-10.8573
ថ្ងៃច័ន្ទ	-10.8573
អន្ដរជាតិ	-10.8573
°	-10.8573
ភាពវឹកវរ	-10.8573
មហាក្សត្រិយានី	-10.8573
ស្វាហាប់	-10.8573
ហិង្សា	-10.8573
អាគុយម៉ង់	-10.8573
ស្ទ្រីម	-10.8573
មេរោគអេដស៍	-10.8573
ស្ថិរភាព	-10.8573
នៅខែកក្កដាឆ្នាំ	-10.8573
ឆ្នេរខ្សាច់	-10.8573
▁that	-10.8576
ដែលផលិតដោយ	-10.8586
ការជឿទុកចិត្ត	-10.8594
បែបផែន	-10.8595
នគរ	-10.8601
ផ្សារទំនើប	-10.8632
ព្រឹទ្ធសភា	-10.8673
н	-10.8682
ប៉ាគីស្ថាន	-10.8682
អាប់អួ	-10.8682
ធ្វើវិសោធនកម្ម	-10.8682
លាក់បាំង	-10.8682
សមូហភាព	-10.8682
ឯកសណ្ឋាន	-10.8682
ប្រតិទិន	-10.8682
ភ័យរន្ធត់	-10.8682
មិនប្រាកដប្រជា	-10.8682
ហ្វ្រង់	-10.8682
ឱ្យបានឆាប់តាមដែល	-10.8682
គេងលក់ស្រួល	-10.8682
ព្យាណូ	-10.8682
ស្រូវសាលី	-10.8682
ឆែក	-10.8682
ب	-10.8683
សិចស៊ី	-10.8683
មើម	-10.8683
ដំណឹង	-10.8751
កំរាលព្រំ	-10.8794
ជម្រាល	-10.8794
អភិជន	-10.8794
ហត់នឿយ	-10.8794
តម្រុយ	-10.8794
លំពែង	-10.8794
សំណាញ់	-10.8794
ពេត្រុស	-10.8794
▁Michael	-10.8794
و	-10.8794
ស្អិត	-10.8794
ចង្កេះ	-10.8794
យានអវកាស	-10.8795
ខាងវិញ្ញាណ	-10.8796
ដាច់ឆ្ងាយ	-10.8802
stein	-10.881
រក្សាវាឱ្យ	-10.8867
លួងលោម	-10.8898
រសើប	-10.8906
រួចជាស្រេច	-10.8906
រថក្រោះ	-10.8906
វិសាលគម	-10.8906
វិស្សមកាល	-10.8906
អំពើបាប	-10.8906
ក្រោកឈរឡើង	-10.8906
ជញ្ជីង	-10.8906
សុភាពរាបសា	-10.8906
ស្របគ្នា	-10.8906
ម៉ាឡេស៊ី	-10.8906
ម្ដាយ	-10.8906
ឥលូវនេះ	-10.8906
ភាពទន់ខ្សោយ	-10.8906
field	-10.8906
គ្រាមភាសា	-10.8906
មតិយោបល់	-10.8907
▁Sky	-10.8909
ារភ្ជាប់ជាមួយនឹង	-10.8997
អង្គហេតុ	-10.902
ឧកញ៉ា	-10.902
ក្លិប	-10.902
ធ្វើចំណាកស្រុក	-10.902
សម្តេចប៉ាប	-10.902
ធ្នើ	-10.902
បំរែបំរួល	-10.902
ភពព្រះអង្គារ	-10.902
ព្រំប្រទល់	-10.902
ស្មាតហ្វូន	-10.902
ចិត្ដ	-10.902
វាអាចទៅរួច	-10.902
បណ្ឌិត្យសភា	-10.902
ប្រកែក	-10.902
ការតាំងពិព័រណ៍	-10.902
▁ឧសភា	-10.902
ថ្នាំកូត	-10.902
សំលាប់សត្វល្អិត	-10.902
បទដ្ឋាន	-10.9023
អ្នកបើកយន្តហោះ	-10.9023
1%	-10.9023
ប្រកប	-10.9071
ពន្យារ	-10.913
ញាក់	-10.9134
▁គឺជាភូមិស៊ីរី	-10.9134
ដែកថែប	-10.9134
មនោគមវិជ្ជា	-10.9134
គំនរ	-10.9134
ឃោសនា	-10.9134
ប្រយោគ	-10.9134
រឿងព្រេងនិទាន	-10.9134
កញ្ជ្រោង	-10.9134
ការស្រមើលស្រមៃ	-10.9134
ជម្រុះ	-10.9134
រដុប	-10.9134
វរសេនីយ៍ឯក	-10.9134
អាហារូបករណ៍	-10.9134
ə	-10.9134
ខ្ញី	-10.9135
ភ្ញៀវទេសចរ	-10.9148
គ្របដណ្ដប់	-10.9251
តម្លាភាព	-10.9251
មូស្លីម	-10.9251
ហ្វឹកហាត់	-10.9251
ទំនួលខុសត្រូវ	-10.9251
សិប្បកម្ម	-10.9251
អនាមិក	-10.9251
នៅផ្នែកខាងលើនៃ	-10.9251
ú	-10.9251
មនុស្សយន្ត	-10.9251
ជាយក្រុង	-10.9251
ខួបកំណើត	-10.9252
ង្ស	-10.9269
ឃុំ	-10.9349
о	-10.9368
សុទិដ្ឋិនិយម	-10.9368
ឥស្សរជន	-10.9368
ហ្គ្រេ	-10.9368
អាមេរិកឡាទីន	-10.9368
សជាតិឈ្ងុយឆ្ងាញ់	-10.9368
កាំរស្មីអ៊ិច	-10.9368
ជាប់លាប់	-10.9368
និរន្តរភាព	-10.9368
ម្លប់	-10.9368
ការរញ្ជួយដី	-10.9369
ខ្ញុំរីករាយដែល	-10.9397
ស្អប់ខ្ពើម	-10.9484
и	-10.9487
ណឺរ៉ូន	-10.9487
មែកធាង	-10.9487
ស៊ើបការណ៍	-10.9487
ភាពចម្រូងចម្រាស	-10.9487
ទីក្រុងមូស្គូ	-10.9487
វីអ៊ីធី	-10.9487
សន្ទុះ	-10.9487
▁Victoria	-10.9487
ញែក	-10.9487
▁1/2	-10.9488
មីស៊ីល	-10.949
រួញ	-10.9495
ប្រភេទណាដែល	-10.9496
វាសនា	-10.9496
កាប៊ីន	-10.9518
ខ្វល់	-10.9568
បម្រើការជា	-10.9583
ខ្នាត	-10.9588
ប្រតិភូ	-10.9608
រ៉ោតទ័រ	-10.9608
កុងតឺន័រ	-10.9608
ក្រមួន	-10.9608
ខ្ទឹមបារាំង	-10.9608
ធ្វេសប្រហែស	-10.9608
មីក្រូវ៉េវ	-10.9608
រង្វិលជុំ	-10.9608
×	-10.9608
គួរឱ្យរន្ធត់	-10.9608
▁Arthur	-10.9608
អធិការ	-10.9608
នៅខែឧសភាឆ្នាំ	-10.9608
្យូម	-10.965
បានចុះផ្សាយ	-10.9658
ស្ងប់	-10.973
ធ្វើទស្សនកិច្ច	-10.973
ទីក្រុងតូក្យូ	-10.973
យ៉ាងជ្រាលជ្រៅ	-10.973
លើសលប់	-10.973
ជម្លៀស	-10.973
សេណារីយ៉ូ	-10.973
ទៅជួបគ្រូពេទ្យ	-10.9731
មានហានិភ័យខ្ពស់	-10.9763
ផ្លាស់ទៅ	-10.9822
វែកញែក	-10.9853
ងងុយគេង	-10.9853
ទំពារ	-10.9853
មគ្គុទេសក៍	-10.9853
è	-10.9853
ថ្ងៃអង្គារ	-10.9853
បន្ទះឈីប	-10.9853
ដ្យាក្រាម	-10.9853
រដូវស្លឹកឈើជ្រុះ	-10.9853
រមួល	-10.9853
ស្រោចទឹក	-10.9853
ឈ្លោះប្រកែកគ្នា	-10.9853
បែលហ្ស៊ិក	-10.9853
▁Trump	-10.9853
អង្គបដិប្រាណ	-10.9853
សប្បុរសធម៌	-10.9855
នៅនឹងកន្លែង	-10.9902
រំពឹង	-10.995
មានជាតិទឹក	-10.9962
ហត្ថលេខា	-10.9975
គំរាម	-10.9978
ខួង	-10.9978
ឈើឆ្កាង	-10.9978
ទូរទឹកកក	-10.9978
ធ្នឹម	-10.9978
សេចក្តីព្រាង	-10.9978
ថ្លៃថ្នូ	-10.9978
អស់ពីសមត្ថភាព	-10.9978
ប្រញាប់ប្រញាល់	-10.9978
ពពែ	-10.9978
▁Charles	-10.9978
វួដ	-10.9978
р	-10.9978
អំឡុង	-11.0019
អេឡិចត្រុង	-11.0105
ភ្នាស	-11.0105
លិខិតឆ្លងដែន	-11.0105
អូឌីយ៉ូ	-11.0105
ធរណីមាត្រ	-11.0105
អន្លង់	-11.0105
កាបូអ៊ីដ្រាត	-11.0105
លីនេអ៊ែរ	-11.0105
រំលឹក	-11.0105
ជីវចល	-11.0105
ចែចង់	-11.0105
លង់ទឹក	-11.0105
វាយនភាព	-11.0107
ទីក្រុងរ៉ូម	-11.0108
ហៅខ្ញុំថា	-11.0109
ទៀតផង។	-11.0139
សព្វថ្ងៃ	-11.0222
ចំណេញ	-11.0229
ចូលរួមវិភាគទាន	-11.0233
ខ្ទឹមស	-11.0233
សំភាសន៍	-11.0233
ឧត្ដម	-11.0233
គ្រីស្ទាន	-11.0233
ចារកម្ម	-11.0233
យូអេសប៊ី	-11.0233
អាណាចក្រ	-11.0233
ចុះយ៉ាងណាបើ	-11.0233
ប្រទេសប៉េរូ	-11.0233
អវយវៈ	-11.0233
ឥណ្ឌូនេស៊ី	-11.0233
▁Group	-11.0233
រូងភ្នំ	-11.0233
បន្លំ	-11.0233
អាចទុកចិត្តបាន	-11.0291
៏	-11.0328
ម៉ោន	-11.0362
សាសនាចក្រ	-11.0363
ដាច់ខាត	-11.0363
ក្រូម៉ូសូម	-11.0363
អង្គធាតុរាវ	-11.0363
ផ្លាស្ទិច	-11.0363
ស្នាមប្រេះ	-11.0363
ខុសៗគ្នា	-11.0363
ខ្ពង់ខ្ពស់	-11.0363
រីឆាត	-11.0363
អ្នកសង្កេតការណ៍	-11.0363
ឥតខ្សែ	-11.0363
រនាំង	-11.0365
▁dude	-11.0368
8%	-11.041
ចោទប្រកាន់ពីបទ	-11.045
ធំធេង	-11.0487
ខួប	-11.0493
ឌ្រី	-11.0495
ក្រៀមក្រំ	-11.0495
ច្រានចោល	-11.0495
បញ្ចោញ	-11.0495
អាំងស៊ុយលីន	-11.0495
បោះពុម្ភ	-11.0495
ផ្តេក	-11.0495
អចិន្ត្រៃយ៍	-11.0495
ការអនុវត្តន៍	-11.0495
សិង្ហបុរី	-11.0495
ហិណ្ឌូ	-11.0495
ឥតឈប់ឈរ	-11.0495
ថ្គាម	-11.0495
ទាន់ពេលវេលា	-11.0495
រូបកាយ	-11.0495
មានភាពចាស់ទុំ	-11.0495
ឥតខ្ចោះ	-11.0619
កណ្តឹង	-11.0628
ដណ្តើម	-11.0628
សំនួរ	-11.0628
ស្លូតត្រង់	-11.0628
ចាហួយ	-11.0628
ឋានសួគ៌	-11.0628
ត្អូញត្អែរ	-11.0628
យុត្តាធិការ	-11.0628
ដេរីវេ	-11.0628
បទល្មើស	-11.0628
រណសិរ្ស	-11.0628
ព្រះពុទ្ធសាសនា	-11.0628
ក្លែរ	-11.0628
មេតាណុល	-11.0628
្រលាញ់ភេទដូចគ្នា	-11.0628
▁Patric	-11.0629
ស្ត្រូ	-11.0699
បំណង	-11.072
បុព្វបុរស	-11.0763
ស្រោមសំបុត្រ	-11.0763
ទឹកខ្មះ	-11.0763
ពាក្យចចាមអារាម	-11.0763
អគ្គិភ័យ	-11.0763
អធ្រាត្រ	-11.0763
ជ័យជម្នះ	-11.0763
ប្រមាថ	-11.0763
សោកនាដកម្ម	-11.0763
β	-11.0763
ឧទ្ធម្ភាគចក្រ	-11.0763
▁Richard	-11.0763
ū	-11.0763
ស្របតាម	-11.0763
ហិកតា	-11.0763
អង់ទីប៊ីយ៉ូទិក	-11.0763
▁Black	-11.0763
Knight	-11.0763
អ្នកនាំពាក្យ	-11.0766
ដកខ្លួនចេញ	-11.0767
ខ្ញុំមិនដឹងទេ	-11.0806
ឃាត	-11.0812
ចំណូល	-11.0885
អាំងតង់ស៊ីតេ	-11.09
ជីពចរ	-11.09
បោកបញ្ឆោត	-11.09
បល្ល័ង្ក	-11.09
រាក់ទាក់	-11.09
ឧត្តមគតិ	-11.09
ក្រឡាចត្រង្គ	-11.09
ត្រួតត្រា	-11.09
កាយវិការ	-11.09
ទឹកដោះគោជូរ	-11.09
វិញ្ញាបនប័ត្រ	-11.09
សុខសប្បាយជាទេ	-11.09
ស្នែង	-11.09
អាណាឡូក	-11.09
រុះរើ	-11.09
សាមសិប	-11.09
ហៀបនឹង	-11.09
អូមេហ្គា	-11.09
អត្រាការប្រាក់	-11.09
ការគាំងបេះដូង	-11.09
លេងភ្លេង	-11.09
វាគ្មិន	-11.0903
ត្រូវគ្នានឹង	-11.092
ប៉ុនប៉ង	-11.0928
រចនាឡើងដើម្បី	-11.0979
ឈ្មួញ	-11.1039
លើកលែងទោស	-11.1039
ឆ្គង	-11.1039
ទង្វើ	-11.1039
ព្រះរាជអាជ្ញា	-11.1039
សក្ខីកម្ម	-11.1039
សេតវិមាន	-11.1039
▁peroxide	-11.1039
ក្រាហ្វិក	-11.1039
ក្រុមជំនុំ	-11.1039
រដ្ឋផ្លរីដា	-11.1039
រោងម៉ាស៊ីន	-11.1039
ធ្វើតេស្តិ៍	-11.1039
ធានាបាននូវ	-11.1039
នៅខែកុម្ភៈឆ្នាំ	-11.1039
វីរភាព	-11.1039
▁Whit	-11.1042
ដាច់ដោយឡែកពីគ្នា	-11.1051
មានចិត្តល្អ	-11.1113
អាចយល់បាន	-11.1129
អួត	-11.1177
ç	-11.118
ជំងឺអេដស៍	-11.118
ភស្ដុតាង	-11.118
មជ្ឈឹមបូព៌ា	-11.118
មមាញឹក	-11.118
អាសអាភាស	-11.118
តេស្តូស្តេរ៉ូន	-11.118
ហួសហេតុ	-11.118
ការ៉ុត	-11.118
▁Xbox	-11.118
សេរ៉ូម	-11.118
hydro	-11.118
បានថ្លែងថា	-11.1181
▁Marshal	-11.1182
អ្នកផ្តល់សេវា	-11.1265
អាងស្តុកទឹក	-11.1323
បេតិកភណ្ឌ	-11.1323
មុតស្រួច	-11.1323
សត្វពីងពាង	-11.1323
ដាស់តឿន	-11.1323
ប៉ារ៉ាស៊ីត	-11.1323
ម៉ូឌុល	-11.1323
សើចចំអក	-11.1323
ភ្លៅ	-11.1323
អាចម៍ផ្កាយ	-11.1323
សាស្ត្រាចារ្យ	-11.1323
ឧក្រិដ្ឋជន	-11.1323
រដ្ឋតិចសាស់	-11.1323
▁Henry	-11.1323
វារីអគ្គិសនី	-11.1323
គីឡូម៉ែត្រ	-11.1408
សមាជ	-11.143
ជឿទុកចិត្តលើ	-11.1458
ប្រវត្ដិសាស្ដ្រ	-11.1468
ផ្គូផ្គង	-11.1468
កណ្តាប់ដៃ	-11.1468
ក្តាប់	-11.1468
ទឹកខ្មេះ	-11.1468
សាមគ្គីភាព	-11.1468
សូចនាករ	-11.1468
ហាវ៉ៃ	-11.1468
ពិសិដ្ឋ	-11.1468
ពុម្ពអក្សរ	-11.1468
ព្រះសង្ឃ	-11.1468
លលាដ៍ក្បាល	-11.1468
ស្នាក់ការកណ្តាល	-11.1468
ឡោមព័ទ្ធ	-11.1468
~	-11.1468
ã	-11.1468
ប្លង់	-11.1468
▁Windows	-11.1468
ខ្សែស្រឡាយ	-11.1468
គ្រីស្ទសាសនា	-11.1468
ពុទ្ធ	-11.1468
ស្រួចស្រាវ	-11.1468
ម៉ូនីកា	-11.1468
ចូលទៅជិត	-11.1468
ស្គម	-11.1468
ប៊ែក	-11.1468
е	-11.1614
ថ្លឹង	-11.1615
ការគេងមិនលក់	-11.1615
ខាត់ណា	-11.1615
គ្រោងការណ៍	-11.1615
ជញ្ជក់	-11.1615
តម្រឹម	-11.1615
សមហេតុសមផល	-11.1615
ស្កុតឡេន	-11.1615
កូនក្រមុំ	-11.1615
បង្អែម	-11.1615
សាយភាយ	-11.1615
ជាតិកាហ្វេអ៊ីន	-11.1615
ដាណឺម៉ាក	-11.1615
ស្ថានសួគ៌	-11.1615
ការវិវត្តន៍	-11.1615
មហិច្ឆតា	-11.1615
របៀបវារៈ	-11.1615
ហ៊ឺ	-11.1615
នៅខែសីហាឆ្នាំ	-11.1615
ទាំងសងខាង	-11.1615
ហេនរី	-11.1615
ស្មីត	-11.1618
ច្របូកច្របល់	-11.1647
មានប្រសាសន៍ថា	-11.1737
សម្បទា	-11.1764
គំរប	-11.1764
ទស្សន៍ទាយ	-11.1764
មីក្រូទស្សន៍	-11.1764
ចំណាប់ខ្មាំង	-11.1764
ជាតិស្ករក្នុងឈាម	-11.1764
▁និយាយម៉្យាងទៀត	-11.1764
ខួរឆ្អឹងខ្នង	-11.1764
ចាប់ផ្ដើម	-11.1764
ព្រឹកព្រលឹម	-11.1764
កំបោរ	-11.1764
ផូស្វ័រ	-11.1764
ល្ងង់	-11.1764
សំរាក	-11.1764
ខ្យង	-11.1764
កងនាវា	-11.1764
គូសបញ្ជាក់	-11.1765
ប្រទេសស្វីស	-11.1765
តំរ	-11.1798
ធម្មនុញ្ញ	-11.1906
ក្នុងកំឡុង	-11.1912
ជេរប្រមាថ	-11.1915
ធូររលុង	-11.1915
សុខុមាលភាព	-11.1915
អាស័យដ្ឋាន	-11.1915
ឫសគល់	-11.1915
លោតផ្លោះ	-11.1915
ឧបមាថា	-11.1915
កម្ទេច	-11.1915
ប្រទេសកេនយ៉ា	-11.1915
ស្រោមអនាម័យ	-11.1915
ទ័ព	-11.1915
ឡូជីខល	-11.1915
បើប្រៀបធៀបនឹង	-11.1915
ជួបជុំគ្នា	-11.1915
ពណ៌ស្វាយ	-11.1915
س	-11.1915
កងពល	-11.1918
ផេន	-11.1921
បង្ហាញឱ្យឃើញ	-11.1966
ក្រអូប	-11.2053
ទោះជាយ៉ាងណា	-11.2067
ل	-11.2069
в	-11.2225
د	-11.2384
с	-11.2876
ː	-11.2876
ت	-11.2876
ê	-11.3572
>	-11.3754
μ	-11.3754
à	-11.4128
ä	-11.432
ā	-11.432
ط	-11.5128
γ	-11.5341
л	-11.5341
к	-11.5559
±	-11.5559
ɪ	-11.5559
→	-11.5559
т	-11.5781
ν	-11.6008
|	-11.6241
<	-11.6723
æ	-11.6973
м	-11.7229
ź	-11.7229
д	-11.7492
+	-11.7667
š	-11.7763
π	-11.804
ρ	-11.804
^	-11.8326
ô	-11.8326
ش	-11.862
σ	-11.862
ε	-11.8923
δ	-11.8923
ج	-11.8923
у	-11.9236
ف	-11.9236
ī	-11.9236
–	-12.0236
ć	-12.0594
ι	-12.0594
ς	-12.0594
ك	-12.0594
ï	-12.0594
ز	-12.0964
λ	-12.0964
ë	-12.0964
τ	-12.0964
·	-12.1349
ح	-12.1349
ɛ	-12.1349
я	-12.1748
κ	-12.1748
ʊ	-12.1749
č	-12.2165
ß	-12.2165
_	-12.2165
å	-12.2165
า	-12.26
ı	-12.26
$	-12.3055
ع	-12.3055
ί	-12.3055
ص	-12.3055
ه	-12.3055
θ	-12.3531
đ	-12.3531
أ	-12.3531
ì	-12.4031
子	-12.4031
⌘	-12.4031
ø	-12.4557
â	-12.4557
어	-12.4557
`	-12.4557
ù	-12.4557
ч	-12.4557
ឫ	-12.4997
ン	-12.5113
ş	-12.5113
☉	-12.5113
з	-12.5701
г	-12.5701
ệ	-12.5701
ω	-12.5701
ق	-12.5701
î	-12.5701
غ	-12.5702
®	-12.6326
ー	-12.6326
@	-12.6326
ɑ	-12.6326
η	-12.6326
ร	-12.6992
ɡ	-12.6993
⊞	-12.6993
ラ	-12.7707
ʃ	-12.7707
語	-12.7707
大	-12.7707
υ	-12.8476
ˌ	-12.8476
£	-12.8476
خ	-12.8476
ả	-12.8476
ָ	-12.8476
ト	-12.9309
⋮	-12.9309
्	-12.931
ь	-12.931
ш	-12.931
п	-13.0218
й	-13.0218
อ	-13.0218
ǎ	-13.0218
ى	-13.0218
イ	-13.0218
ά	-13.0218
õ	-13.0218
φ	-13.0219
ץ	-13.0219
ф	-13.0219
б	-13.1218
ò	-13.1218
§	-13.1218
ɒ	-13.1218
장	-13.1218
•	-13.1218
ό	-13.1219
저	-13.1219
ē	-13.1219
έ	-13.1219
ि	-13.1219
פ	-13.2329
ֿ	-13.2329
र	-13.2329
ی	-13.233
น	-13.233
전	-13.233
€	-13.233
∈	-13.233
냐	-13.233
の	-13.233
ἀ	-13.233
ा	-13.233
ม	-13.3579
ุ	-13.3579
ឪ	-13.3579
ท	-13.3579
ข	-13.358
ư	-13.358
대	-13.358
ύ	-13.358
ṭ	-13.358
⌥	-13.358
χ	-13.358
≤	-13.358
ア	-13.358
美	-13.358
학	-13.358
ý	-13.358
성	-13.358
ạ	-13.358
ц	-13.358
भ	-13.358
ส	-13.5007
ล	-13.5008
เ	-13.5008
प	-13.5008
ว	-13.5008
ル	-13.5008
ы	-13.5008
中	-13.5008
⇧	-13.5008
ス	-13.5008
ř	-13.5008
ɔ	-13.5008
ض	-13.5008
藤	-13.5008
÷	-13.5008
ě	-13.5008
ŏ	-13.5008
ơ	-13.5008
♠	-13.5008
교	-13.5008
이	-13.5008
ย	-13.5008
ζ	-13.5008
∞	-13.5008
і	-13.6674
ต	-13.6675
ă	-13.6675
ọ	-13.6675
ッ	-13.6675
ễ	-13.6675
マ	-13.6675
х	-13.6675
ိ	-13.6675
ḥ	-13.6675
ị	-13.6675
長	-13.6675
ė	-13.6675
ž	-13.6675
日	-13.6675
物	-13.6675
제	-13.6675
天	-13.6675
ħ	-13.6675
ŋ	-13.6675
☰	-13.6675
ั	-13.6675
本	-13.6675
=	-13.8017
บ	-13.8674
ע	-13.8674
ก	-13.8674
त	-13.8675
ิ	-13.8675
ロ	-13.8675
と	-13.8675
真	-13.8675
ж	-13.8675
န	-13.8675
国	-13.8675
理	-13.8675
的	-13.8675
ʒ	-13.8675
ψ	-13.8675
ث	-13.8675
¥	-13.8675
学	-13.8675
張	-13.8675
明	-13.8675
\	-13.8675
ǒ	-13.8675
ա	-13.8675
國	-13.8675
氏	-13.8675
문	-13.8675
⊕	-13.8675
⊙	-13.8675
⋯	-13.8675
城	-13.8675
海	-13.8675
사	-13.8675
여	-13.8675
♪	-13.8675
京	-13.8675
李	-13.8675
法	-13.8675
주	-13.8675
च	-13.8675
陈	-13.8675
क	-13.8675
न	-13.8675
ฟ	-14.1174
ာ	-14.1175
ი	-14.1175
摸	-14.1175
ξ	-14.1175
ウ	-14.1175
シ	-14.1175
ด	-14.1175
ğ	-14.1175
ム	-14.1175
қ	-14.1175
ी	-14.1175
ง	-14.1175
้	-14.1175
ツ	-14.1175
公	-14.1175
원	-14.1175
こ	-14.1175
夫	-14.1175
¿	-14.1175
Ś	-14.1175
إ	-14.1175
द	-14.1175
山	-14.1175
田	-14.1175
宿	-14.1175
方	-14.1175
ǐ	-14.1175
ʌ	-14.1175
ֹ	-14.1175
ঙ	-14.1175
∘	-14.1175
⋅	-14.1175
♯	-14.1175
原	-14.1175
我	-14.1175
鶴	-14.1175
ナ	-14.1175
実	-14.1175
ĩ	-14.1175
≥	-14.1175
⟩	-14.1175
ク	-14.1175
국	-14.1175
비	-14.1175
신	-14.1175
정	-14.1175
파	-14.1175
화	-14.1175
タ	-14.1175
김	-14.1175
林	-14.1175
ὸ	-14.1175
か	-14.1175
内	-14.1175
경	-14.1175
ַ	-14.1175
พ	-14.1175
ป	-14.4508
မ	-14.4508
ट	-14.4508
ა	-14.4508
ő	-14.4508
ခ	-14.4508
♭	-14.4508
グ	-14.4508
バ	-14.4508
云	-14.4508
エ	-14.4508
ミ	-14.4508
リ	-14.4508
ņ	-14.4508
カ	-14.4508
ガ	-14.4508
ヒ	-14.4508
ュ	-14.4508
家	-14.4508
의	-14.4508
처	-14.4508
þ	-14.4508
ṃ	-14.4508
ắ	-14.4508
ế	-14.4508
吉	-14.4508
그	-14.4508
ʔ	-14.4508
ふ	-14.4508
阿	-14.4508
韓	-14.4508
{	-14.4508
©	-14.4508
ũ	-14.4508
ӏ	-14.4508
ذ	-14.4508
া	-14.4508
ช	-14.4508
ấ	-14.4508
ẵ	-14.4508
ồ	-14.4508
‰	-14.4508
⇒	-14.4508
∇	-14.4508
≡	-14.4508
み	-14.4508
キ	-14.4508
コ	-14.4508
ポ	-14.4508
レ	-14.4508
代	-14.4508
伊	-14.4508
十	-14.4508
千	-14.4508
園	-14.4508
姫	-14.4508
孟	-14.4508
孫	-14.4508
學	-14.4508
文	-14.4508
會	-14.4508
札	-14.4508
東	-14.4508
皇	-14.4508
羅	-14.4508
藍	-14.4508
西	-14.4508
輝	-14.4508
高	-14.4508
鳳	-14.4508
데	-14.4508
롯	-14.4508
법	-14.4508
살	-14.4508
서	-14.4508
스	-14.4508
양	-14.4508
하	-14.4508
ġ	-14.4508
お	-14.4508
三	-14.4508
ะ	-14.4508
⏎	-14.4508
之	-14.4508
四	-14.4508
港	-14.4508
行	-14.4508
라	-14.4508
동	-14.4508
́	-14.4508
ח	-14.4508
が	-14.4508
世	-14.4508
死	-14.4508
香	-14.4508
만	-14.4508
り	-14.4508
ド	-14.4508
부	-14.4508
ὠ	-14.4508
な	-14.4508
ё	-14.4508
ֵ	-14.4508
안	-14.4508
安	-14.4508
홍	-14.4508
ू	-14.4508
โ	-14.9507
İ	-14.9508
ո	-14.9508
ւ	-14.9508
တ	-14.9508
ေ	-14.9508
ნ	-14.9508
რ	-14.9508
力	-14.9508
欧	-14.9508
造	-14.9508
품	-14.9508
¢	-14.9508
僕	-14.9508
श	-14.9508
ཟ	-14.9508
ླ	-14.9508
ြ	-14.9508
ḍ	-14.9508
ゼ	-14.9508
プ	-14.9508
伽	-14.9508
員	-14.9508
沢	-14.9508
清	-14.9508
立	-14.9508
耶	-14.9508
金	-14.9508
가	-14.9508
위	-14.9508
회	-14.9508
հ	-14.9508
յ	-14.9508
ṅ	-14.9508
ṇ	-14.9508
ỳ	-14.9508
ニ	-14.9508
托	-14.9508
渡	-14.9508
烏	-14.9508
起	-14.9508
辺	-14.9508
雄	-14.9508
들	-14.9508
림	-14.9508
ಠ	-14.9508
媛	-14.9508
弘	-14.9508
濟	-14.9508
蘇	-14.9508
酢	-14.9508
餘	-14.9508
덕	-14.9508
ċ	-14.9508
œ	-14.9508
ǝ	-14.9508
̊	-14.9508
ή	-14.9508
ն	-14.9508
ء	-14.9508
य	-14.9508
स	-14.9508
ु	-14.9508
র	-14.9508
મ	-14.9508
ํ	-14.9508
ပ	-14.9508
အ	-14.9508
ု	-14.9508
ျ	-14.9508
ṣ	-14.9508
ầ	-14.9508
ố	-14.9508
ộ	-14.9508
ὶ	-14.9508
⁄	-14.9508
←	-14.9508
↹	-14.9508
∗	-14.9508
√	-14.9508
≈	-14.9508
☆	-14.9508
い	-14.9508
け	-14.9508
よ	-14.9508
る	-14.9508
ん	-14.9508
ゴ	-14.9508
ブ	-14.9508
ワ	-14.9508
介	-14.9508
他	-14.9508
会	-14.9508
你	-14.9508
保	-14.9508
先	-14.9508
光	-14.9508
党	-14.9508
全	-14.9508
勇	-14.9508
勞	-14.9508
友	-14.9508
双	-14.9508
嘉	-14.9508
回	-14.9508
太	-14.9508
央	-14.9508
姐	-14.9508
室	-14.9508
宮	-14.9508
寒	-14.9508
寧	-14.9508
巾	-14.9508
帝	-14.9508
志	-14.9508
悠	-14.9508
想	-14.9508
成	-14.9508
持	-14.9508
揚	-14.9508
斬	-14.9508
星	-14.9508
景	-14.9508
株	-14.9508
样	-14.9508
梦	-14.9508
森	-14.9508
槍	-14.9508
正	-14.9508
民	-14.9508
洞	-14.9508
派	-14.9508
灣	-14.9508
生	-14.9508
畢	-14.9508
百	-14.9508
神	-14.9508
空	-14.9508
組	-14.9508
線	-14.9508
義	-14.9508
翻	-14.9508
肉	-14.9508
荘	-14.9508
術	-14.9508
街	-14.9508
見	-14.9508
赤	-14.9508
赵	-14.9508
近	-14.9508
過	-14.9508
野	-14.9508
龍	-14.9508
과	-14.9508
너	-14.9508
마	-14.9508
무	-14.9508
백	-14.9508
보	-14.9508
석	-14.9508
시	-14.9508
실	-14.9508
없	-14.9508
에	-14.9508
왕	-14.9508
울	-14.9508
은	-14.9508
잘	-14.9508
큼	-14.9508
한	-14.9508
후	-14.9508
¬	-14.9508
û	-14.9508
夏	-14.9508
常	-14.9508
軍	-14.9508
魔	-14.9508
기	-14.9508
유	-14.9508
조	-14.9508
В	-14.9508
ं	-14.9508
व	-14.9508
ὰ	-14.9508
く	-14.9508
ち	-14.9508
つ	-14.9508
も	-14.9508
テ	-14.9508
パ	-14.9508
仔	-14.9508
冬	-14.9508
名	-14.9508
喜	-14.9508
宗	-14.9508
小	-14.9508
榮	-14.9508
焼	-14.9508
白	-14.9508
筒	-14.9508
臣	-14.9508
谢	-14.9508
道	-14.9508
邪	-14.9508
餅	-14.9508
고	-14.9508
나	-14.9508
내	-14.9508
녀	-14.9508
락	-14.9508
명	-14.9508
방	-14.9508
쁜	-14.9508
산	-14.9508
세	-14.9508
쇼	-14.9508
수	-14.9508
연	-14.9508
육	-14.9508
일	-14.9508
자	-14.9508
ظ	-14.9508
木	-14.9508
예	-14.9508
ů	-14.9508
ɣ	-14.9508
آ	-14.9508
ู	-14.9508
း	-14.9508
ể	-14.9508
ờ	-14.9508
ἅ	-14.9508
ἐ	-14.9508
ὑ	-14.9508
ὕ	-14.9508
‧	-14.9508
ジ	-14.9508
丽	-14.9508
奇	-14.9508
机	-14.9508
王	-14.9508
秀	-14.9508
봉	-14.9508
モ	-14.9508
म	-14.9508
ケ	-14.9508
校	-14.9508
ר	-14.9508
ノ	-14.9509
상	-14.9509
ब	-14.9509
ห	-15.9507
စ	-15.9508
ံ	-15.9508
ვ	-15.9508
თ	-15.9508
ლ	-15.9508
უ	-15.9508
ậ	-15.9508
ẹ	-15.9508
ợ	-15.9508
メ	-15.9508
制	-15.9508
步	-15.9508
漫	-15.9508
瓦	-15.9508
թ	-15.9508
ր	-15.9508
े	-15.9508
แ	-15.9508
ử	-15.9508
チ	-15.9508
デ	-15.9508
争	-15.9508
人	-15.9508
休	-15.9508
務	-15.9508
基	-15.9508
委	-15.9508
戦	-15.9508
撫	-15.9508
独	-15.9508
監	-15.9508
福	-15.9508
諭	-15.9508
退	-15.9508
식	-15.9508
야	-15.9508
약	-15.9508
ओ	-15.9508
ଣ	-15.9508
ଫ	-15.9508
ି	-15.9508
మ	-15.9508
₽	-15.9508
⚙	-15.9508
希	-15.9508
科	-15.9508
貴	-15.9508
️	-15.9508
এ	-15.9508
ズ	-15.9508
习	-15.9508
伟	-15.9508
晶	-15.9508
朝	-15.9508
濊	-15.9508
益	-15.9508
翔	-15.9508
莊	-15.9508
貊	-15.9508
鮮	-15.9508
未	-15.9508
诗	-15.9508
¡	-15.9508
ÿ	-15.9508
ų	-15.9508
ȫ	-15.9508
ʕ	-15.9508
̅	-15.9508
̋	-15.9508
̧	-15.9508
ο	-15.9508
ϊ	-15.9508
ώ	-15.9508
М	-15.9508
ю	-15.9508
є	-15.9508
ֶ	-15.9508
א	-15.9508
ו	-15.9508
ئ	-15.9508
ग	-15.9508
ङ	-15.9508
छ	-15.9508
ज	-15.9508
ण	-15.9508
ो	-15.9508
ব	-15.9508
ল	-15.9508
ী	-15.9508
ৌ	-15.9508
દ	-15.9508
ி	-15.9508
ಕ	-15.9508
จ	-15.9508
ธ	-15.9508
ผ	-15.9508
ี	-15.9508
่	-15.9508
བ	-15.9508
င	-15.9508
ဇ	-15.9508
ဒ	-15.9508
ဖ	-15.9508
ရ	-15.9508
ဝ	-15.9508
ီ	-15.9508
დ	-15.9508
ე	-15.9508
მ	-15.9508
ሃ	-15.9508
ሪ	-15.9508
ቅ	-15.9508
ታ	-15.9508
ና	-15.9508
ን	-15.9508
ḩ	-15.9508
ẻ	-15.9508
ủ	-15.9508
ứ	-15.9508
ỹ	-15.9508
ἰ	-15.9508
ᾶ	-15.9508
ῖ	-15.9508
₹	-15.9508
↓	-15.9508
⇔	-15.9508
∀	-15.9508
≃	-15.9508
≅	-15.9508
⊆	-15.9508
⊇	-15.9508
⏭	-15.9508
■	-15.9508
○	-15.9508
☺	-15.9508
⟨	-15.9508
⟼	-15.9508
」	-15.9508
う	-15.9508
ぐ	-15.9508
さ	-15.9508
し	-15.9508
じ	-15.9508
だ	-15.9508
て	-15.9508
に	-15.9508
は	-15.9508
ぷ	-15.9508
ぼ	-15.9508
め	-15.9508
ゃ	-15.9508
ォ	-15.9508
ギ	-15.9508
セ	-15.9508
ネ	-15.9508
ハ	-15.9508
フ	-15.9508
ペ	-15.9508
ャ	-15.9508
上	-15.9508
下	-15.9508
为	-15.9508
九	-15.9508
也	-15.9508
二	-15.9508
令	-15.9508
仰	-15.9508
伏	-15.9508
伴	-15.9508
佃	-15.9508
位	-15.9508
住	-15.9508
佐	-15.9508
作	-15.9508
佳	-15.9508
便	-15.9508
偵	-15.9508
像	-15.9508
儀	-15.9508
元	-15.9508
克	-15.9508
內	-15.9508
兴	-15.9508
冠	-15.9508
初	-15.9508
利	-15.9508
則	-15.9508
勁	-15.9508
化	-15.9508
单	-15.9508
単	-15.9508
博	-15.9508
卹	-15.9508
厂	-15.9508
口	-15.9508
句	-15.9508
史	-15.9508
右	-15.9508
同	-15.9508
吧	-15.9508
吳	-15.9508
吸	-15.9508
和	-15.9508
品	-15.9508
哲	-15.9508
啟	-15.9508
团	-15.9508
在	-15.9508
垂	-15.9508
墟	-15.9508
夕	-15.9508
外	-15.9508
奭	-15.9508
女	-15.9508
妙	-15.9508
妹	-15.9508
姉	-15.9508
娘	-15.9508
孔	-15.9508
字	-15.9508
守	-15.9508
宏	-15.9508
定	-15.9508
富	-15.9508
專	-15.9508
尹	-15.9508
尽	-15.9508
尾	-15.9508
屋	-15.9508
岡	-15.9508
岸	-15.9508
崎	-15.9508
嶋	-15.9508
州	-15.9508
帮	-15.9508
帽	-15.9508
平	-15.9508
幸	-15.9508
幹	-15.9508
庁	-15.9508
庚	-15.9508
府	-15.9508
廉	-15.9508
廣	-15.9508
式	-15.9508
弓	-15.9508
引	-15.9508
強	-15.9508
弾	-15.9508
彗	-15.9508
彙	-15.9508
形	-15.9508
役	-15.9508
律	-15.9508
微	-15.9508
德	-15.9508
徹	-15.9508
心	-15.9508
忠	-15.9508
性	-15.9508
怪	-15.9508
恵	-15.9508
悟	-15.9508
情	-15.9508
惣	-15.9508
慘	-15.9508
憲	-15.9508
戸	-15.9508
所	-15.9508
技	-15.9508
抗	-15.9508
拉	-15.9508
探	-15.9508
政	-15.9508
斎	-15.9508
新	-15.9508
施	-15.9508
族	-15.9508
无	-15.9508
春	-15.9508
昭	-15.9508
是	-15.9508
時	-15.9508
曬	-15.9508
曲	-15.9508
書	-15.9508
曾	-15.9508
杂	-15.9508
杉	-15.9508
枳	-15.9508
染	-15.9508
查	-15.9508
柱	-15.9508
柴	-15.9508
栗	-15.9508
桂	-15.9508
案	-15.9508
楽	-15.9508
標	-15.9508
橋	-15.9508
橘	-15.9508
橫	-15.9508
欢	-15.9508
武	-15.9508
歳	-15.9508
殷	-15.9508
毓	-15.9508
永	-15.9508
汁	-15.9508
江	-15.9508
沙	-15.9508
河	-15.9508
治	-15.9508
淵	-15.9508
游	-15.9508
源	-15.9508
漢	-15.9508
濱	-15.9508
瀬	-15.9508
無	-15.9508
煮	-15.9508
燮	-15.9508
玄	-15.9508
琦	-15.9508
瑞	-15.9508
用	-15.9508
由	-15.9508
电	-15.9508
男	-15.9508
盟	-15.9508
目	-15.9508
省	-15.9508
知	-15.9508
碈	-15.9508
碎	-15.9508
碩	-15.9508
社	-15.9508
祐	-15.9508
章	-15.9508
竹	-15.9508
竺	-15.9508
简	-15.9508
簡	-15.9508
粉	-15.9508
粥	-15.9508
粹	-15.9508
精	-15.9508
紀	-15.9508
紅	-15.9508
納	-15.9508
紓	-15.9508
紗	-15.9508
結	-15.9508
經	-15.9508
纾	-15.9508
结	-15.9508
缘	-15.9508
罩	-15.9508
置	-15.9508
羊	-15.9508
羘	-15.9508
群	-15.9508
羹	-15.9508
羽	-15.9508
耀	-15.9508
耿	-15.9508
聲	-15.9508
育	-15.9508
胆	-15.9508
膝	-15.9508
舞	-15.9508
航	-15.9508
良	-15.9508
芋	-15.9508
花	-15.9508
苔	-15.9508
英	-15.9508
茅	-15.9508
莽	-15.9508
華	-15.9508
萬	-15.9508
葉	-15.9508
蔽	-15.9508
蕭	-15.9508
藥	-15.9508
虚	-15.9508
虫	-15.9508
衫	-15.9508
裂	-15.9508
裳	-15.9508
言	-15.9508
記	-15.9508
話	-15.9508
調	-15.9508
論	-15.9508
諸	-15.9508
證	-15.9508
譚	-15.9508
譯	-15.9508
護	-15.9508
译	-15.9508
语	-15.9508
谶	-15.9508
豚	-15.9508
賀	-15.9508
賢	-15.9508
賴	-15.9508
贞	-15.9508
赫	-15.9508
越	-15.9508
趙	-15.9508
路	-15.9508
身	-15.9508
躰	-15.9508
車	-15.9508
这	-15.9508
通	-15.9508
遊	-15.9508
郁	-15.9508
郊	-15.9508
部	-15.9508
郷	-15.9508
都	-15.9508
里	-15.9508
重	-15.9508
釗	-15.9508
鋒	-15.9508
鎮	-15.9508
钱	-15.9508
開	-15.9508
間	-15.9508
间	-15.9508
陛	-15.9508
陵	-15.9508
陸	-15.9508
隊	-15.9508
随	-15.9508
集	-15.9508
雪	-15.9508
霊	-15.9508
靖	-15.9508
静	-15.9508
韆	-15.9508
音	-15.9508
順	-15.9508
願	-15.9508
飛	-15.9508
飞	-15.9508
飥	-15.9508
马	-15.9508
髪	-15.9508
麗	-15.9508
麻	-15.9508
黃	-15.9508
黒	-15.9508
갈	-15.9508
감	-15.9508
같	-15.9508
겨	-15.9508
광	-15.9508
군	-15.9508
금	-15.9508
길	-15.9508
꽃	-15.9508
끝	-15.9508
날	-15.9508
낭	-15.9508
낮	-15.9508
네	-15.9508
농	-15.9508
느	-15.9508
는	-15.9508
돈	-15.9508
돌	-15.9508
따	-15.9508
땅	-15.9508
람	-15.9508
랑	-15.9508
러	-15.9508
령	-15.9508
루	-15.9508
리	-15.9508
먼	-15.9508
못	-15.9508
미	-15.9508
밤	-15.9508
변	-15.9508
별	-15.9508
봄	-15.9508
불	-15.9508
선	-15.9508
소	-15.9508
송	-15.9508
순	-15.9508
쉬	-15.9508
슈	-15.9508
싶	-15.9508
씨	-15.9508
아	-15.9508
앙	-15.9508
업	-15.9508
엔	-15.9508
열	-15.9508
옥	-15.9508
요	-15.9508
윙	-15.9508
윤	-15.9508
융	-15.9508
인	-15.9508
있	-15.9508
재	-15.9508
죤	-15.9508
중	-15.9508
줘	-15.9508
진	-15.9508
째	-15.9508
타	-15.9508
터	-15.9508
테	-15.9508
통	-15.9508
트	-15.9508
특	-15.9508
퍼	-15.9508
평	-15.9508
피	-15.9508
핑	-15.9508
해	-15.9508
행	-15.9508
헌	-15.9508
현	-15.9508
호	-15.9508
훈	-15.9508
Đ	-15.9508
̄	-15.9508
̇	-15.9508
ฐ	-15.9508
⊗	-15.9508
北	-15.9508
歌	-15.9508
爆	-15.9508
登	-15.9508
磐	-15.9508
鈴	-15.9508
陳	-15.9508
餺	-15.9508
강	-15.9508
딴	-15.9508
맥	-15.9508
싫	-15.9508
크	-15.9508
Б	-15.9508
И	-15.9508
ս	-15.9508
տ	-15.9508
ִ	-15.9508
ܠ	-15.9508
ܬ	-15.9508
औ	-15.9508
ै	-15.9508
ौ	-15.9508
ণ	-15.9508
ফ	-15.9508
ภ	-15.9508
ẽ	-15.9508
ổ	-15.9508
ὐ	-15.9508
あ	-15.9508
き	-15.9508
た	-15.9508
っ	-15.9508
ぴ	-15.9508
や	-15.9508
与	-15.9508
但	-15.9508
侯	-15.9508
凶	-15.9508
后	-15.9508
場	-15.9508
塘	-15.9508
好	-15.9508
幽	-15.9508
思	-15.9508
恋	-15.9508
愿	-15.9508
懦	-15.9508
手	-15.9508
束	-15.9508
構	-15.9508
歸	-15.9508
水	-15.9508
照	-15.9508
牧	-15.9508
犬	-15.9508
盗	-15.9508
舜	-15.9508
남	-15.9508
넙	-15.9508
두	-15.9508
레	-15.9508
바	-15.9508
뱅	-15.9508
번	-15.9508
범	-15.9508
영	-15.9508
웃	-15.9508
종	-15.9508
지	-15.9508
체	-15.9508
치	-15.9508
콜	-15.9508
텔	-15.9508
흥	-15.9508
Н	-15.9508
י	-15.9508
ถ	-15.9508
ื	-15.9508
ไ	-15.9508
က	-15.9508
∫	-15.9508
味	-15.9508
场	-15.9508
姚	-15.9508
専	-15.9508
峰	-15.9508
庵	-15.9508
送	-15.9508
늘	-15.9508
혁	-15.9508
洋	-15.9509
ק	-15.9509
ש	-15.9509
「	-15.9509
不	-15.9509
圾	-15.9509
垃	-15.9509
嫌	-15.9509
岭	-15.9509
放	-15.9509
機	-15.9509
秘	-15.9509
蔵	-15.9509
ឍ	-15.9509
商	-15.9509
洪	-15.9509
