<unk>	0
<s>	0
</s>	0
▁the	-2.70037
,	-2.7606
▁of	-3.30793
▁and	-3.4668
.	-3.58234
▁to	-3.83818
▁in	-4.4154
;	-4.49935
▁you	-4.52078
▁And	-4.57568
▁Lord	-4.73285
▁a	-4.76101
s	-4.7826
▁his	-4.80854
▁s	-4.82782
▁he	-4.85879
hall	-4.86655
▁“	-4.93117
▁I	-4.94111
▁with	-4.96091
▁for	-4.99745
▁that	-5.00643
▁your	-5.06973
▁is	-5.07751
▁it	-5.10318
▁all	-5.12459
▁not	-5.15723
▁him	-5.2091
▁them	-5.21847
▁be	-5.22696
▁from	-5.24425
▁they	-5.24574
▁who	-5.31026
▁said	-5.35132
▁will	-5.3567
▁was	-5.3592
▁on	-5.38071
▁God	-5.44958
▁have	-5.45924
▁my	-5.4785
▁their	-5.49236
.”	-5.54735
▁w	-5.55055
▁me	-5.56107
▁Israel	-5.58849
▁Then	-5.60176
▁The	-5.63012
▁as	-5.6386
▁He	-5.6706
▁So	-5.68406
▁king	-5.72346
▁were	-5.72941
▁son	-5.78492
’	-5.79126
ed	-5.7915
hich	-5.81462
▁had	-5.8257
▁are	-5.85121
▁You	-5.89011
▁out	-5.89594
▁	-5.89696
▁people	-5.91685
▁up	-5.94835
▁one	-6.02281
y	-6.03766
▁has	-6.04434
▁man	-6.06201
▁by	-6.06361
:	-6.06599
▁sons	-6.11729
▁house	-6.13812
▁land	-6.13825
▁this	-6.15618
▁before	-6.15705
▁Your	-6.16181
▁there	-6.17072
▁But	-6.17249
▁when	-6.18787
▁children	-6.20728
?	-6.24421
▁at	-6.26086
▁His	-6.27413
▁again	-6.28015
st	-6.29791
▁For	-6.30555
▁David	-6.3098
▁came	-6.31182
▁her	-6.32518
▁went	-6.33716
▁men	-6.33771
▁do	-6.34791
-	-6.35652
▁hand	-6.36934
▁day	-6.40413
▁Now	-6.40927
▁‘	-6.41476
▁made	-6.42752
▁its	-6.43402
▁may	-6.44518
▁go	-6.48078
ing	-6.53567
▁did	-6.54509
▁Moses	-6.54903
▁us	-6.55724
d	-6.58703
▁over	-6.59037
▁offering	-6.60647
▁father	-6.61596
▁saying	-6.63357
▁or	-6.63459
▁into	-6.63791
▁also	-6.64731
▁but	-6.65315
▁come	-6.65515
▁no	-6.71432
▁down	-6.71811
▁an	-6.71981
▁so	-6.72588
▁My	-6.72632
▁name	-6.76719
▁put	-6.79602
▁place	-6.80817
▁O	-6.8099
▁we	-6.8103
ould	-6.82838
▁let	-6.83039
▁she	-6.83446
ose	-6.8392
▁according	-6.84975
!	-6.85707
▁heart	-6.86269
▁our	-6.86487
▁brought	-6.86591
▁th	-6.91565
▁two	-6.91839
▁like	-6.92361
▁hundred	-6.92878
▁took	-6.92958
▁Judah	-6.93329
▁make	-6.94429
▁days	-6.94739
▁am	-6.98176
▁then	-6.98223
▁earth	-6.99506
I	-7.00345
—	-7.02402
▁if	-7.02448
on	-7.02502
?”	-7.07129
▁these	-7.07754
▁take	-7.08389
▁city	-7.09931
▁give	-7.10451
because	-7.11311
▁away	-7.1202
ng	-7.13228
▁years	-7.13463
▁priest	-7.15711
▁bring	-7.16643
f	-7.16881
t	-7.17322
▁Egypt	-7.18265
▁Jerusalem	-7.18765
▁sent	-7.19022
▁amo	-7.1945
▁great	-7.20709
▁what	-7.20771
▁Saul	-7.21296
▁thousand	-7.21746
▁Him	-7.23102
▁every	-7.23382
▁fathers	-7.23849
▁gold	-7.24691
▁servant	-7.24915
▁spoke	-7.26527
▁know	-7.27049
.’	-7.28461
▁servants	-7.28764
▁A	-7.29152
▁eat	-7.29404
▁burn	-7.30811
il	-7.31367
▁good	-7.31541
▁nor	-7.32671
▁When	-7.33035
▁set	-7.33252
▁Aaron	-7.34998
▁say	-7.35214
▁after	-7.3704
▁commanded	-7.37794
▁way	-7.39607
▁any	-7.39957
▁altar	-7.40211
▁done	-7.40739
▁whom	-7.42711
▁time	-7.43394
▁water	-7.4404
▁cities	-7.44217
▁words	-7.44269
▁own	-7.45157
▁called	-7.46917
▁gave	-7.47493
▁unt	-7.47522
▁three	-7.47533
▁tabernacle	-7.48494
▁Therefore	-7.48514
▁wife	-7.4985
▁seven	-7.50196
▁Solomon	-7.51221
▁B	-7.51381
▁eyes	-7.51715
▁fire	-7.51914
▁now	-7.52321
▁Th	-7.5381
▁saw	-7.55095
▁work	-7.56897
▁see	-7.5755
▁sin	-7.58085
▁woman	-7.58379
▁Let	-7.58509
▁back	-7.58963
▁holy	-7.59128
!”	-7.59517
▁other	-7.59779
▁year	-7.598
▁In	-7.59805
▁Me	-7.59846
▁should	-7.611
▁word	-7.61716
▁heard	-7.61874
▁forever	-7.62097
▁evil	-7.6216
▁priests	-7.62705
▁Jacob	-7.62938
▁old	-7.62942
▁given	-7.63366
You	-7.63392
e	-7.63407
▁than	-7.63735
▁life	-7.64499
▁Levites	-7.64979
▁twenty	-7.65302
The	-7.65357
▁young	-7.66372
▁wicked	-7.66444
▁hands	-7.66687
▁brother	-7.66875
▁keep	-7.6712
▁It	-7.6735
▁silver	-7.68114
▁blood	-7.68115
▁Pharaoh	-7.68527
▁where	-7.68534
▁King	-7.68539
▁things	-7.69655
▁therefore	-7.69763
▁camp	-7.70606
▁side	-7.70623
▁mouth	-7.70985
▁answered	-7.71131
▁been	-7.72023
▁”	-7.72302
▁Philistines	-7.72409
▁under	-7.73149
▁can	-7.73154
▁head	-7.74098
This	-7.74822
▁pass	-7.74841
▁voice	-7.74882
▁face	-7.75002
▁right	-7.75265
▁himself	-7.75761
▁more	-7.75763
▁first	-7.7621
ly	-7.7625
▁soul	-7.77595
▁Who	-7.77939
▁ark	-7.78006
▁sight	-7.78902
▁offerings	-7.8024
▁found	-7.80275
▁does	-7.80342
▁each	-7.80761
in	-7.81957
▁tribe	-7.82757
▁daughter	-7.83219
▁thing	-7.84018
▁Joshua	-7.84042
▁killed	-7.84278
▁together	-7.85006
▁enemies	-7.85491
▁peace	-7.85491
▁heaven	-7.85642
▁Joseph	-7.86473
▁death	-7.86962
▁mother	-7.87458
▁covenant	-7.87459
▁bread	-7.87954
▁fear	-7.88412
▁told	-7.89306
▁inheritance	-7.89462
▁around	-7.90479
▁rest	-7.90725
▁brethren	-7.90992
▁far	-7.92016
▁speak	-7.92083
▁off	-7.92155
▁kings	-7.92166
at	-7.92514
▁dwell	-7.92611
▁sword	-7.94297
▁near	-7.94655
▁grain	-7.94658
▁left	-7.9466
▁night	-7.94871
▁dwelt	-7.95192
▁offer	-7.95939
▁some	-7.96295
▁Do	-7.97542
▁field	-7.98179
▁war	-7.98401
▁To	-7.98619
▁daughters	-7.98872
▁(	-7.99018
▁Jordan	-7.99018
▁cut	-7.99576
▁gathered	-8.00268
▁hear	-8.00508
ward	-8.01115
▁nations	-8.01517
▁morning	-8.01843
▁All	-8.02465
▁became	-8.03003
▁drink	-8.03129
▁die	-8.03181
▁built	-8.03577
▁These	-8.03658
▁died	-8.03735
▁five	-8.04278
▁mercy	-8.04755
▁stood	-8.0477
▁month	-8.05099
▁temple	-8.05342
▁high	-8.06535
▁Abraham	-8.06539
▁Also	-8.06566
▁reigned	-8.06651
▁lord	-8.06901
▁kill	-8.07446
▁begot	-8.07851
▁gods	-8.0792
▁families	-8.08354
very	-8.08834
▁oil	-8.08971
▁turned	-8.09236
▁righteous	-8.09528
▁themselves	-8.09585
▁through	-8.10182
▁another	-8.10207
▁mighty	-8.10398
▁well	-8.10807
▁thirty	-8.10832
▁between	-8.10834
▁above	-8.10835
cause	-8.11088
▁about	-8.11463
▁F	-8.1369
▁ten	-8.13734
▁unclean	-8.14658
▁Nor	-8.15322
▁battle	-8.16379
▁both	-8.16643
▁C	-8.16969
▁As	-8.17399
▁deliver	-8.17575
▁cast	-8.17816
▁indeed	-8.17984
▁army	-8.18033
▁meeting	-8.18746
▁destroy	-8.1886
▁Wh	-8.19362
▁taken	-8.19405
▁wilderness	-8.1947
▁turn	-8.19559
▁delivered	-8.19638
▁says	-8.19888
What	-8.20423
▁c	-8.20609
▁many	-8.20662
w	-8.20889
▁strength	-8.21387
▁Manasseh	-8.21402
▁Benjamin	-8.21403
▁surely	-8.21411
▁sacrifice	-8.21828
▁male	-8.21967
▁Joab	-8.22104
▁happened	-8.22836
▁become	-8.23535
out	-8.23823
▁four	-8.24769
▁flesh	-8.27138
▁Samuel	-8.27144
▁return	-8.2758
▁There	-8.28001
▁command	-8.28096
▁here	-8.28342
▁congregation	-8.28625
▁food	-8.28625
▁six	-8.28711
▁fifty	-8.29378
▁wisdom	-8.29412
▁number	-8.29625
▁returned	-8.30441
▁long	-8.30534
▁stand	-8.30683
▁dead	-8.30898
▁arose	-8.30898
▁wh	-8.30927
▁waters	-8.31339
▁might	-8.32305
▁anger	-8.32448
▁brothers	-8.32481
ever	-8.32616
▁serve	-8.33116
▁mountains	-8.33176
▁poor	-8.33224
▁written	-8.33225
▁struck	-8.33232
▁wise	-8.33239
▁descendants	-8.33247
ong	-8.33251
▁full	-8.33749
▁seek	-8.33946
▁bow	-8.33974
▁ground	-8.34011
▁firstborn	-8.34013
ecause	-8.34256
▁walk	-8.34512
▁lay	-8.34818
▁seen	-8.34975
Go	-8.35142
▁whose	-8.3534
rom	-8.35451
▁family	-8.35605
▁cubits	-8.35769
▁praise	-8.36239
▁wood	-8.36395
▁still	-8.36413
▁Or	-8.36465
▁law	-8.36533
And	-8.36924
▁today	-8.37262
▁Gilead	-8.38016
▁sea	-8.38634
▁common	-8.38872
▁blessed	-8.39132
▁send	-8.39704
▁forty	-8.39878
▁iniquity	-8.40544
▁sheep	-8.40545
▁bore	-8.41392
▁gone	-8.41397
▁find	-8.414
▁while	-8.41426
uch	-8.41789
▁stones	-8.42146
▁Jonathan	-8.42246
▁half	-8.42246
▁spoken	-8.42322
▁heads	-8.43031
ther	-8.43032
▁master	-8.43108
▁tell	-8.43109
▁throughout	-8.43145
▁end	-8.43838
▁bronze	-8.43978
▁only	-8.44016
▁W	-8.44491
▁righteousness	-8.44868
▁mountain	-8.44908
▁destroyed	-8.45245
▁comes	-8.4542
▁lest	-8.45744
▁fine	-8.4575
▁elders	-8.45766
er	-8.46135
▁On	-8.4615
▁commandments	-8.46161
Let	-8.46328
▁how	-8.46328
▁love	-8.46503
▁yourself	-8.46633
▁wrath	-8.46642
▁door	-8.47653
▁light	-8.48108
▁even	-8.48213
▁child	-8.48438
▁afraid	-8.48443
▁second	-8.48468
▁border	-8.48493
the	-8.48658
▁Beth	-8.49144
▁Ephraim	-8.49332
▁midst	-8.49368
▁nothing	-8.49368
▁numbered	-8.49724
▁wine	-8.50068
▁live	-8.50229
n	-8.50267
▁inhabitants	-8.50286
▁feet	-8.50286
▁just	-8.50293
▁burned	-8.50343
▁houses	-8.50695
▁fell	-8.51203
▁Isaac	-8.51225
▁much	-8.51241
▁cause	-8.51331
▁assembly	-8.52164
▁glory	-8.52164
▁Absalom	-8.52168
▁kingdom	-8.52277
▁departed	-8.52343
Do	-8.52818
▁sun	-8.53047
▁stone	-8.53098
▁little	-8.53116
▁evening	-8.53268
▁fled	-8.54091
▁Thu	-8.5487
▁build	-8.54894
▁Moab	-8.55039
▁money	-8.55049
▁Mount	-8.56036
▁wall	-8.5644
▁S	-8.56991
▁women	-8.57019
▁understanding	-8.5708
▁fat	-8.57252
▁tent	-8.57294
▁bless	-8.57347
▁ways	-8.57714
▁sanctuary	-8.58023
▁With	-8.5804
▁beside	-8.58178
▁statutes	-8.58293
th	-8.5873
▁yourselves	-8.59029
▁twelve	-8.59038
▁gate	-8.59223
ir	-8.59345
▁places	-8.59888
▁T	-8.60042
▁Jeroboam	-8.6005
▁kept	-8.6005
Behold	-8.60065
Thu	-8.60852
▁same	-8.61085
▁whole	-8.61118
▁shekels	-8.61424
▁help	-8.61785
▁meet	-8.61988
▁wives	-8.62129
▁concerning	-8.62134
▁bull	-8.62339
▁cross	-8.62486
▁times	-8.62746
▁Yet	-8.63196
▁rejoice	-8.63223
Wh	-8.63683
▁look	-8.64135
▁strong	-8.64191
▁service	-8.64239
▁third	-8.6429
▁seventh	-8.64315
▁incense	-8.65314
▁book	-8.65315
▁works	-8.65605
▁offered	-8.65915
▁presence	-8.66401
▁cried	-8.66406
▁bear	-8.66621
▁heavens	-8.68278
▁call	-8.68412
▁throne	-8.68611
▁Hezekiah	-8.68613
▁Ahab	-8.68613
▁lips	-8.68626
▁none	-8.68626
▁Baal	-8.68877
▁tree	-8.68904
ether	-8.69547
▁clean	-8.69561
▁answer	-8.6969
▁Esau	-8.69735
▁appointed	-8.6982
▁Lordis	-8.69882
▁spirit	-8.69987
▁show	-8.70619
▁t	-8.70744
▁knowledge	-8.70871
▁behold	-8.70875
▁laid	-8.70876
▁favor	-8.71489
not	-8.71701
▁atonement	-8.72021
▁yet	-8.72021
▁buried	-8.72023
▁hold	-8.72024
▁leaders	-8.7265
▁Canaan	-8.73158
▁heed	-8.73309
▁pillars	-8.7359
▁trust	-8.74061
▁She	-8.74183
▁whatever	-8.74471
▁Be	-8.74564
al	-8.75739
▁trouble	-8.75755
▁able	-8.75765
▁neighbor	-8.75878
▁goats	-8.75988
▁open	-8.76301
two	-8.7645
▁lives	-8.76627
▁sweet	-8.76756
▁possession	-8.7714
▁tribes	-8.7767
▁Jehoshaphat	-8.77975
▁livestock	-8.77975
▁outside	-8.77987
▁coming	-8.77989
▁captains	-8.7834
▁prophet	-8.78377
▁generations	-8.78433
▁honor	-8.78895
When	-8.7892
▁must	-8.78995
▁east	-8.79196
▁power	-8.79204
▁known	-8.79328
▁ram	-8.79649
▁charge	-8.7981
▁trees	-8.80133
▁gates	-8.80228
▁Ammon	-8.80433
▁country	-8.80457
▁anything	-8.80469
▁sister	-8.80767
▁chariots	-8.80971
▁forth	-8.81221
▁born	-8.817
▁Samaria	-8.81725
▁oxen	-8.81735
▁clothes	-8.81775
▁Egyptians	-8.81965
▁please	-8.82013
▁husband	-8.8205
▁peoples	-8.82686
Will	-8.82692
▁cry	-8.82821
▁anointed	-8.83187
▁fall	-8.83279
▁person	-8.83465
▁gather	-8.83854
Now	-8.84017
▁After	-8.84274
▁seventy	-8.8433
▁lies	-8.85104
▁darkness	-8.85624
▁present	-8.85779
▁What	-8.86284
▁ate	-8.86414
▁enemy	-8.86955
▁pure	-8.86958
▁salvation	-8.8696
▁since	-8.86969
▁Gad	-8.87103
▁How	-8.87128
▁household	-8.87444
▁chief	-8.87474
▁villages	-8.88313
),	-8.88316
▁Moreover	-8.88338
▁rock	-8.8877
▁lie	-8.89243
We	-8.89375
▁female	-8.89676
▁rose	-8.89686
▁everyone	-8.89724
▁Amorites	-8.89786
▁looked	-8.90053
▁lambs	-8.90366
▁possess	-8.9074
▁Assyria	-8.91065
ah	-8.91094
▁princes	-8.912
▁rain	-8.91453
▁We	-8.91533
▁rise	-8.91623
▁stranger	-8.91627
▁cloud	-8.91633
▁donkey	-8.91638
en	-8.91704
Please	-8.92163
▁living	-8.92474
▁Selah	-8.92474
▁Eleazar	-8.92476
▁dust	-8.92476
▁spread	-8.9248
▁foot	-8.92484
▁thus	-8.9252
▁endure	-8.92547
▁truth	-8.92872
ites	-8.92955
▁ear	-8.92999
▁judgment	-8.93068
▁garments	-8.93183
▁prophets	-8.93434
▁fight	-8.93745
▁Hebron	-8.93897
▁obey	-8.93904
▁finished	-8.93928
▁moved	-8.93943
▁goes	-8.9407
▁top	-8.94375
▁wash	-8.94586
▁stay	-8.9521
▁Reuben	-8.95323
▁broken	-8.95366
▁lifted	-8.9556
▁Oh	-8.95616
es	-8.96097
h	-8.96132
law	-8.96516
▁body	-8.96824
▁names	-8.96894
all	-8.96902
▁Bless	-8.96955
▁established	-8.9698
an	-8.97125
▁makes	-8.97171
▁plague	-8.97261
▁judge	-8.97332
▁court	-8.97461
▁judgments	-8.97688
▁passed	-8.97857
▁linen	-8.98321
▁wind	-8.9833
▁prepared	-8.98405
▁Sea	-8.98433
▁acts	-8.98568
▁drive	-8.98575
▁messengers	-8.98586
▁sins	-8.98744
▁tongue	-8.98874
▁fruit	-8.98919
▁save	-8.99767
▁Abimelech	-8.99829
▁swore	-8.99829
▁justice	-8.99831
▁Elijah	-8.99842
m	-8.99858
▁Dan	-9.00006
▁curse	-9.00365
▁leader	-9.00548
▁flocks	-9.00568
five	-9.01082
B	-9.0124
▁Shechem	-9.01368
▁behind	-9.01368
▁multitude	-9.01368
▁chosen	-9.01378
▁prayer	-9.01417
▁reign	-9.01745
▁sat	-9.01948
▁fool	-9.02086
▁skin	-9.02098
▁observe	-9.02198
▁pray	-9.02423
▁dwelling	-9.02513
My	-9.02639
▁ones	-9.02833
▁Valley	-9.0293
▁nei	-9.02932
▁alone	-9.02933
r	-9.02944
▁greatly	-9.03195
▁depart	-9.03259
▁cover	-9.0406
ll	-9.04072
▁sinned	-9.04524
▁wickedness	-9.04571
▁eaten	-9.04598
▁filled	-9.04631
▁aside	-9.04661
?’	-9.04685
Who	-9.04704
▁served	-9.04812
▁remain	-9.04834
ite	-9.05025
▁break	-9.05301
▁remember	-9.05636
O	-9.05698
Come	-9.05817
But	-9.05828
▁south	-9.06103
▁Mordecai	-9.06131
▁going	-9.06418
Tak	-9.06582
▁rams	-9.0722
i	-9.07241
Look	-9.07459
▁leave	-9.07744
giving	-9.07768
▁Abram	-9.0777
▁oath	-9.0777
▁alive	-9.07771
▁Jehu	-9.07773
▁front	-9.07779
▁territory	-9.0778
▁desire	-9.08439
▁garment	-9.08602
▁lamb	-9.08603
▁sound	-9.09171
▁articles	-9.09437
▁River	-9.09445
▁Abner	-9.0945
▁Nevertheless	-9.0945
▁Jews	-9.09585
▁covered	-9.09754
▁sing	-9.10205
▁perish	-9.10636
▁P	-9.10648
▁ox	-9.11121
▁flour	-9.11129
▁angry	-9.11132
▁attack	-9.11141
▁Bethel	-9.11142
▁better	-9.11195
▁Edom	-9.11208
▁wept	-9.1123
▁Elisha	-9.11272
▁labor	-9.1164
▁abomination	-9.12008
▁flock	-9.12021
▁too	-9.12125
▁donkeys	-9.12148
▁hate	-9.12398
▁Levi	-9.12853
▁next	-9.12856
▁Balaam	-9.12859
▁utterly	-9.1287
▁defeated	-9.12895
▁Asa	-9.12904
▁sought	-9.12938
▁bones	-9.13024
land	-9.13472
▁walked	-9.13517
▁edge	-9.13699
▁commandment	-9.13785
▁sake	-9.14112
▁deep	-9.14564
▁inquire	-9.1461
▁fought	-9.14611
▁strike	-9.14704
▁Canaanites	-9.14787
▁Syrians	-9.14798
▁pieces	-9.15064
▁upright	-9.16343
▁Syria	-9.16369
▁Esther	-9.16396
ur	-9.1684
Whoever	-9.17053
▁hide	-9.17331
▁pre	-9.17338
▁new	-9.17371
▁lot	-9.17382
▁gives	-9.17509
▁joy	-9.17615
▁listen	-9.17747
ity	-9.17801
▁declare	-9.18053
▁witness	-9.18199
▁surround	-9.18214
▁Laban	-9.18217
▁Job	-9.18222
▁sacrifices	-9.18562
lands	-9.18778
▁wait	-9.18866
▁flee	-9.19574
ar	-9.19699
▁trespass	-9.19746
Is	-9.19757
▁tents	-9.19758
▁Jericho	-9.20066
▁till	-9.20073
▁along	-9.20075
▁sixty	-9.20089
and	-9.20244
▁horses	-9.2042
▁journey	-9.20753
▁feast	-9.20941
▁rod	-9.21052
▁delight	-9.21081
▁river	-9.21102
▁lion	-9.21126
▁certain	-9.21946
▁portion	-9.21954
▁began	-9.21955
▁Praise	-9.21956
▁Haman	-9.21961
▁At	-9.2281
▁Of	-9.22821
▁nation	-9.23045
▁eye	-9.23048
ilderness	-9.23486
▁redeem	-9.23577
▁Eli	-9.23674
▁free	-9.23689
▁glad	-9.23868
▁north	-9.24022
▁asked	-9.24044
▁lived	-9.24186
,”	-9.24854
▁hair	-9.24927
▁bed	-9.24971
▁Sabbath	-9.24972
▁matter	-9.24978
▁image	-9.24999
▁rested	-9.25028
He	-9.2511
For	-9.25535
▁Babylon	-9.25837
▁Jehoiada	-9.25837
▁ephod	-9.25837
▁mixed	-9.25846
ness	-9.26124
▁counsel	-9.26875
a	-9.26908
▁forsake	-9.27816
▁Bashan	-9.27837
▁iron	-9.27837
▁Like	-9.2784
▁continually	-9.27841
▁early	-9.27897
▁seat	-9.28334
▁chariot	-9.29044
▁hearts	-9.2906
▁carrie	-9.2913
Speak	-9.29542
▁enter	-9.29578
▁deal	-9.297
▁never	-9.29822
▁small	-9.29855
▁Zadok	-9.29877
▁abundance	-9.29877
▁cattle	-9.29877
▁Rehoboam	-9.29881
▁refuge	-9.29881
As	-9.29943
▁Which	-9.3064
▁teach	-9.30904
▁table	-9.30921
▁beast	-9.31137
▁lift	-9.31662
▁order	-9.31667
▁guard	-9.3196
▁Passover	-9.31961
▁hope	-9.31961
▁spoil	-9.31961
▁Gate	-9.31964
one	-9.32003
▁anyone	-9.32033
▁though	-9.32093
▁D	-9.32381
It	-9.3249
▁carri	-9.32782
▁destruction	-9.3308
▁grave	-9.33135
▁kind	-9.33159
▁spear	-9.33225
How	-9.33751
▁anoint	-9.33789
▁doing	-9.33881
▁doors	-9.33954
▁home	-9.3397
▁myself	-9.34088
▁large	-9.34088
▁Joash	-9.34089
▁Law	-9.34091
▁beyond	-9.34092
▁riches	-9.34101
▁being	-9.34137
cious	-9.34205
▁followed	-9.34314
▁ever	-9.34582
▁trumpets	-9.34623
▁stretch	-9.34678
▁Ma	-9.34735
ngel	-9.35444
▁bulls	-9.35811
!’	-9.35934
▁Lebanon	-9.36262
▁womb	-9.36262
▁famine	-9.36262
▁Rachel	-9.36263
▁hidden	-9.36263
▁Naphtali	-9.36266
▁everything	-9.3627
▁Noah	-9.36272
▁Even	-9.36281
▁sockets	-9.36364
▁One	-9.36412
▁Surely	-9.36531
No	-9.36532
▁’	-9.36559
▁d	-9.37331
▁shame	-9.37466
pt	-9.37482
▁generation	-9.37651
hose	-9.38115
oven	-9.38302
▁reproach	-9.38471
▁Spirit	-9.38484
▁blue	-9.38484
▁sleep	-9.38484
▁Zion	-9.38491
▁removed	-9.38574
▁boards	-9.38589
▁exalted	-9.38648
▁Give	-9.3867
▁remained	-9.38906
▁Is	-9.39093
▁judges	-9.39752
most	-9.40057
four	-9.40444
▁goat	-9.40604
▁carry	-9.40606
▁Hav	-9.4068
hief	-9.40701
▁entrance	-9.40757
▁manner	-9.40757
▁Almighty	-9.40757
▁cherubim	-9.4076
▁separate	-9.40767
▁sold	-9.40971
▁Ben	-9.41425
▁Ye	-9.41642
▁part	-9.41826
▁animal	-9.42241
▁blessing	-9.42533
Then	-9.42926
▁broke	-9.43059
▁rich	-9.43069
▁get	-9.43085
▁armies	-9.43087
▁consider	-9.43091
▁road	-9.43094
▁Indeed	-9.43349
▁thousands	-9.43631
▁seed	-9.44057
▁dream	-9.4429
▁understand	-9.44404
▁cedar	-9.446
▁shield	-9.44615
▁pillar	-9.44635
to	-9.44926
▁exce	-9.44968
▁worship	-9.45176
for	-9.45179
▁dre	-9.45239
Your	-9.45261
▁blemish	-9.45464
▁slaughter	-9.45464
▁Azariah	-9.45464
▁Shimei	-9.45468
▁forget	-9.45473
▁shut	-9.45486
ook	-9.45528
oth	-9.45592
▁rings	-9.45738
ers	-9.45924
▁opened	-9.46085
▁birds	-9.46146
▁hill	-9.46631
▁minister	-9.46665
▁sh	-9.46737
▁takes	-9.47151
▁weight	-9.47303
ver	-9.47768
▁Nathan	-9.47903
▁produce	-9.47903
▁aroma	-9.47904
▁committed	-9.47904
▁nakedness	-9.47905
▁encamped	-9.47959
S	-9.48004
▁consumed	-9.48035
▁officers	-9.48251
▁images	-9.48958
▁widow	-9.4948
▁shekel	-9.49575
▁sit	-9.49722
▁Zebulun	-9.49845
Here	-9.50082
Surely	-9.50095
ough	-9.50194
▁eight	-9.5036
▁Simeon	-9.50391
▁Asher	-9.50395
▁Jesse	-9.50403
▁beloved	-9.50403
▁captivity	-9.50403
▁unleavened	-9.50403
▁Merari	-9.50403
▁honey	-9.50403
▁scarlet	-9.50403
▁Gibeah	-9.50403
▁lying	-9.50405
▁Balak	-9.50417
▁lad	-9.50417
▁lead	-9.5043
▁camels	-9.5052
▁white	-9.50523
▁increase	-9.5195
▁plain	-9.52067
▁valley	-9.52103
▁Shall	-9.52421
▁pour	-9.52494
three	-9.52666
▁rebuke	-9.52818
▁length	-9.52825
▁prepare	-9.52837
▁bound	-9.52963
▁harvest	-9.52967
▁multiply	-9.52967
▁inherit	-9.5297
▁Issachar	-9.52971
▁affliction	-9.52973
▁touches	-9.52975
▁However	-9.53025
▁talents	-9.53153
▁fourth	-9.53163
▁loved	-9.53387
▁hearing	-9.53638
ion	-9.54426
▁maidservant	-9.54727
▁pit	-9.55036
Yes	-9.55254
▁snare	-9.55435
im	-9.5551
▁Bethlehem	-9.5559
▁harlot	-9.55596
▁chronicles	-9.55598
▁floor	-9.55598
▁valor	-9.55598
▁Benaiah	-9.55599
▁dry	-9.55602
▁Ahaziah	-9.55603
▁last	-9.55605
▁pay	-9.55639
▁poles	-9.55655
▁Ai	-9.55665
▁kne	-9.557
▁carv	-9.55723
▁Where	-9.55908
▁months	-9.56697
▁E	-9.56703
▁wave	-9.57358
▁altars	-9.57462
inner	-9.57824
Indeed	-9.57993
▁perform	-9.57994
▁watch	-9.58128
▁Mo	-9.58216
▁Amaziah	-9.58301
▁everlasting	-9.58301
▁lampstand	-9.58302
▁Gideon	-9.58302
▁quickly	-9.58302
▁aroused	-9.58305
▁singers	-9.58328
▁fallen	-9.58366
▁defiled	-9.58387
▁Sheba	-9.58401
▁consecrated	-9.58406
▁ready	-9.58456
▁redeemed	-9.58729
▁commander	-9.58745
▁rulers	-9.59056
▁dwells	-9.59951
▁youth	-9.60195
ccording	-9.60205
▁captive	-9.60222
▁captain	-9.60245
▁sign	-9.6026
▁meat	-9.60369
▁west	-9.60432
▁establish	-9.60779
▁Gath	-9.60812
▁Himself	-9.61079
▁Testimony	-9.61079
▁herself	-9.61079
▁purple	-9.61079
▁width	-9.61079
▁crown	-9.6108
▁veil	-9.61084
▁Caleb	-9.61084
▁Sarah	-9.61086
▁Zechariah	-9.61092
▁Samson	-9.61092
▁ran	-9.6111
▁seem	-9.6118
▁escaped	-9.61181
▁thanks	-9.61295
▁covering	-9.61359
▁afterward	-9.61395
▁poured	-9.61408
▁caused	-9.61515
▁divisions	-9.61544
▁horns	-9.6162
▁tore	-9.6223
est	-9.62255
▁dies	-9.6233
▁continue	-9.6239
▁arm	-9.62548
▁follow	-9.62614
▁friend	-9.63038
▁ordinance	-9.63074
able	-9.63113
.)	-9.63616
▁Midian	-9.63915
▁Sinai	-9.63937
▁run	-9.63937
▁Shemaiah	-9.63937
▁threshing	-9.63938
▁branches	-9.6394
▁Sihon	-9.63941
▁buy	-9.63948
▁idols	-9.63998
▁divided	-9.64104
▁divide	-9.64129
▁knows	-9.64145
▁hosts	-9.64365
▁Please	-9.64573
▁No	-9.6494
▁clouds	-9.65681
▁re	-9.65786
▁arise	-9.65927
▁shadow	-9.6595
▁height	-9.66015
▁bird	-9.66039
▁Philistine	-9.66047
▁scribe	-9.66063
▁god	-9.66498
▁distress	-9.66551
tenth	-9.6657
k	-9.66671
that	-9.66694
▁lack	-9.66715
▁Ahaz	-9.66876
▁Gilgal	-9.66877
▁ashamed	-9.66877
▁heavy	-9.66877
▁milk	-9.66877
▁fortified	-9.66877
▁satisfied	-9.66884
▁Leah	-9.66884
▁overlaid	-9.66885
▁Kirjath	-9.6689
▁kindness	-9.66891
▁gatekeepers	-9.66891
▁promised	-9.66905
▁Seir	-9.66906
▁shown	-9.6694
▁pursued	-9.6707
▁eighty	-9.67161
▁appeared	-9.67177
▁worshiped	-9.67253
ld	-9.67256
▁wings	-9.67342
▁add	-9.67886
▁ears	-9.68645
rew	-9.68654
▁feared	-9.68688
▁vow	-9.6875
▁statute	-9.69075
▁ruler	-9.69078
Where	-9.69599
All	-9.69638
▁guilt	-9.69661
▁haste	-9.69679
▁fast	-9.6977
▁hard	-9.69821
▁draw	-9.69887
▁Josiah	-9.69908
▁exceedingly	-9.69908
▁torn	-9.69909
▁Ramah	-9.69911
▁custom	-9.69913
▁Lot	-9.69921
▁conceived	-9.69946
▁tablets	-9.69947
or	-9.69965
▁slain	-9.69971
▁Lest	-9.7004
▁provoke	-9.70455
▁males	-9.70505
ary	-9.70679
▁beasts	-9.71149
▁possessions	-9.72049
▁neck	-9.72165
▁vineyard	-9.7219
)	-9.72549
seven	-9.72694
Bring	-9.72712
will	-9.72738
▁shout	-9.72814
▁loves	-9.72822
▁grow	-9.72985
▁Gibeon	-9.73008
▁flow	-9.73011
▁utensils	-9.73033
▁wrote	-9.73033
▁Beersheba	-9.73033
▁grew	-9.73035
▁feed	-9.73035
▁Asaph	-9.73039
▁few	-9.73039
▁blameless	-9.73041
▁forsaken	-9.73071
▁despised	-9.73145
▁praises	-9.73146
▁raised	-9.73157
▁wonders	-9.73183
▁led	-9.73211
▁U	-9.7325
▁hated	-9.73343
▁sore	-9.73367
▁presented	-9.73757
▁breath	-9.7444
▁hills	-9.74697
ake	-9.74754
▁persons	-9.75105
▁cease	-9.75107
▁receive	-9.75191
▁cave	-9.75264
▁robe	-9.75372
▁room	-9.75419
▁piece	-9.75438
▁regard	-9.7579
cross	-9.75949
There	-9.75981
▁restore	-9.76124
▁ends	-9.76128
▁close	-9.7613
▁careful	-9.76216
▁Kohath	-9.76245
▁Jezreel	-9.76246
▁company	-9.76258
▁drank	-9.76258
▁tribute	-9.76258
▁beginning	-9.76258
▁ephah	-9.76258
▁horsemen	-9.76259
▁instruction	-9.76262
▁wild	-9.76265
▁fierce	-9.76265
▁bind	-9.76272
▁former	-9.763
▁instruments	-9.76328
▁Every	-9.76374
▁once	-9.76562
▁armed	-9.76605
▁angel	-9.76697
▁song	-9.76722
▁entered	-9.76741
▁search	-9.76814
▁H	-9.76941
▁Go	-9.77168
▁fields	-9.77959
as	-9.7796
▁speaks	-9.78276
▁lands	-9.78341
▁trumpet	-9.78754
▁appear	-9.79294
▁preserve	-9.79441
▁Abiathar	-9.79592
▁Ahasuerus	-9.79592
▁Heshbon	-9.79592
▁Mizpah	-9.79592
▁Rebekah	-9.79592
▁examine	-9.79592
▁Nun	-9.79592
▁decree	-9.79592
▁kid	-9.79593
▁thread	-9.79593
el	-9.79606
▁Holy	-9.79612
▁Obed	-9.79613
▁received	-9.79749
▁following	-9.79765
▁afflicted	-9.79823
▁towns	-9.79865
▁saved	-9.79921
God	-9.79963
▁arrows	-9.79979
▁herds	-9.80019
▁standing	-9.80241
▁vineyards	-9.80499
▁animals	-9.80818
▁prosper	-9.81527
▁drove	-9.81916
▁garden	-9.82119
ous	-9.82139
▁bowl	-9.82213
▁thought	-9.82339
▁ask	-9.82345
▁plunder	-9.82721
▁age	-9.82749
▁hid	-9.82985
▁Jephthah	-9.8304
▁Shiloh	-9.8304
▁countenance	-9.8304
▁tomorrow	-9.8304
▁yield	-9.8304
▁fifteen	-9.8304
▁Jeshua	-9.8304
▁enough	-9.83041
▁vanity	-9.83067
▁eighth	-9.83076
▁steps	-9.83085
▁clothing	-9.83089
▁R	-9.83103
▁fatherless	-9.83139
▁goodness	-9.83157
▁bars	-9.83209
▁pleased	-9.83439
▁sacrificed	-9.83808
▁friends	-9.8407
▁fools	-9.84943
▁sorrow	-9.85721
eight	-9.85888
▁uncover	-9.863
Hear	-9.86318
▁humble	-9.86467
▁sprinkle	-9.86483
▁consume	-9.86525
▁High	-9.8661
▁innocent	-9.86611
▁royal	-9.86611
▁pronounce	-9.86611
▁always	-9.86612
▁olive	-9.86612
▁grass	-9.86612
▁harm	-9.86618
▁sell	-9.86624
▁spices	-9.86657
▁South	-9.86659
▁Remember	-9.86707
▁scattered	-9.86728
▁clothed	-9.86741
▁heave	-9.86801
▁Di	-9.87038
▁Look	-9.87307
▁belongs	-9.8734
▁speaking	-9.87638
▁signs	-9.87711
▁news	-9.88303
ied	-9.88545
▁pursue	-9.893
▁heap	-9.89507
ty	-9.89525
▁count	-9.89916
Give	-9.90007
▁discharge	-9.90126
▁remove	-9.90175
▁best	-9.9018
▁consecrate	-9.90192
cacia	-9.90239
▁proud	-9.90277
six	-9.90278
▁Korah	-9.9028
▁oppos	-9.90304
▁Baasha	-9.90315
▁Yourself	-9.90315
▁merciful	-9.90315
▁pleasant	-9.90315
▁sworn	-9.90315
▁middle	-9.90315
▁yoke	-9.90315
▁Joram	-9.90316
▁perverse	-9.90318
▁Ramoth	-9.90318
▁ashes	-9.90319
▁calamity	-9.9032
▁Amnon	-9.90322
▁Micah	-9.90322
▁empty	-9.90322
▁hired	-9.90329
rook	-9.90333
▁Hilkiah	-9.90333
▁bury	-9.90341
▁En	-9.90392
▁longer	-9.90419
▁Make	-9.90454
▁suddenly	-9.90525
▁inside	-9.90665
”;	-9.90673
iel	-9.90704
▁cursed	-9.90782
▁See	-9.91041
▁paths	-9.91069
▁chooses	-9.9107
▁curtains	-9.9107
▁Ezra	-9.91573
ile	-9.92192
▁rule	-9.93117
▁Levite	-9.93335
▁Fea	-9.93565
Bless	-9.93864
▁refuse	-9.94015
▁Damascus	-9.94161
▁Kadesh	-9.94161
▁advice	-9.94161
▁Zeruiah	-9.94161
▁spare	-9.9418
▁saints	-9.9418
▁hail	-9.9418
▁gladness	-9.9418
▁visit	-9.94192
▁past	-9.94204
▁sure	-9.94227
▁dedicated	-9.94323
▁needy	-9.94329
Curse	-9.94576
▁repairs	-9.94646
▁provinces	-9.94745
ies	-9.95905
▁per	-9.96007
▁remains	-9.96235
▁falls	-9.96749
▁Sh	-9.97079
▁secret	-9.97169
▁supplication	-9.97294
▁Hittite	-9.97313
▁cubit	-9.97337
ise	-9.97356
iah	-9.97442
▁walls	-9.97537
Hadad	-9.97845
See	-9.9785
▁believe	-9.98008
▁mold	-9.98012
▁despise	-9.98016
▁Ishmael	-9.98132
▁Nebat	-9.98161
▁barley	-9.98161
▁breastplate	-9.98161
▁genealogy	-9.98161
▁treasuries	-9.98161
▁world	-9.98161
▁Meshullam	-9.98161
▁Shemesh	-9.98161
▁swallow	-9.98161
▁wheat	-9.98162
▁Abijah	-9.98163
▁Abishai	-9.98164
▁anymore	-9.98166
▁eighteen	-9.98168
▁Hiram	-9.98168
▁beautiful	-9.98169
▁Adonijah	-9.9817
▁bought	-9.98181
▁Uriah	-9.98186
▁circumcised	-9.98195
▁mourning	-9.98236
▁hav	-9.98304
▁deeds	-9.98353
▁fifth	-9.98359
▁nine	-9.98366
o	-9.98429
am	-9.98605
▁troubled	-9.98657
▁Has	-9.98703
▁profane	-9.98888
▁Hear	-9.99251
▁sees	-9.99355
▁lords	-9.99778
▁hears	-10.0018
▁bringing	-10.0063
▁belong	-10.0118
▁region	-10.0121
▁escape	-10.0123
▁thigh	-10.0133
Be	-10.0134
▁serpent	-10.0145
▁choose	-10.0148
▁curtain	-10.0148
▁transgression	-10.0149
▁letter	-10.015
▁path	-10.0152
▁exalt	-10.0203
So	-10.0203
▁fill	-10.0204
▁appoint	-10.0205
▁read	-10.021
▁bitter	-10.0228
▁loud	-10.023
▁dark	-10.023
▁transgress	-10.0231
▁Amalek	-10.0231
▁Gershon	-10.0232
▁Jabesh	-10.0233
▁Jehoahaz	-10.0233
▁hot	-10.0233
▁hurt	-10.0233
▁leprosy	-10.0233
▁mercies	-10.0233
▁testimonies	-10.0233
▁upper	-10.0233
▁valuation	-10.0233
▁Shallum	-10.0233
▁Ahijah	-10.0233
▁birth	-10.0234
▁instead	-10.0234
▁Boaz	-10.0234
▁repay	-10.0234
▁wealth	-10.0237
▁stars	-10.0239
▁awesome	-10.0242
▁Amalekites	-10.0243
▁harden	-10.025
▁repaired	-10.0252
▁restored	-10.0252
▁oppressed	-10.0253
▁Can	-10.0256
▁belonged	-10.0264
▁guilty	-10.0267
▁judged	-10.0279
▁Jebusites	-10.0286
▁rejoiced	-10.0292
▁tenth	-10.0297
▁lamps	-10.0304
▁remembered	-10.0314
Shall	-10.0324
he	-10.0328
▁test	-10.0383
▁ended	-10.0395
▁kinds	-10.0402
▁met	-10.048
▁fail	-10.0528
g	-10.0531
▁sha	-10.0549
▁pleasure	-10.0568
▁thunder	-10.0575
▁governor	-10.0581
▁concubine	-10.0582
▁creep	-10.0582
▁horn	-10.0583
▁harp	-10.0584
▁horse	-10.0584
▁Egyptian	-10.0586
▁comfort	-10.0633
F	-10.0633
▁plead	-10.0635
▁afflict	-10.0636
▁tower	-10.0637
ach	-10.0638
▁change	-10.0653
▁f	-10.0664
▁foolish	-10.0664
▁valiant	-10.0664
▁Shem	-10.0664
▁perfect	-10.0667
▁music	-10.0667
▁choice	-10.0668
▁entrails	-10.0668
▁lovingkindness	-10.0668
▁Jehoram	-10.0668
▁flood	-10.0668
▁green	-10.0668
▁Arnon	-10.0668
▁pledge	-10.0668
▁Adam	-10.0668
▁Machir	-10.0668
▁profit	-10.0668
▁sacr	-10.0669
▁dew	-10.0669
▁Phinehas	-10.067
▁Deliver	-10.0671
▁Sodom	-10.0672
▁secretly	-10.0672
▁sixth	-10.0682
▁attend	-10.0682
▁An	-10.0686
ful	-10.0687
▁strengthened	-10.0688
In	-10.0702
On	-10.0702
▁Red	-10.0717
Hav	-10.0726
▁vessels	-10.0726
▁L	-10.0728
▁seer	-10.0741
▁prayed	-10.0754
▁sow	-10.0775
▁hundreds	-10.0814
▁joyful	-10.0814
ally	-10.0864
ern	-10.0913
A	-10.0983
hap	-10.1004
▁square	-10.1012
▁vine	-10.1034
▁messenger	-10.1039
▁swear	-10.1042
▁air	-10.1049
▁mock	-10.1049
▁low	-10.1051
▁ei	-10.1068
▁act	-10.107
▁faces	-10.1084
though	-10.1095
▁reward	-10.1095
These	-10.1096
▁Persia	-10.1096
▁Jezebel	-10.1122
▁Jubilee	-10.1122
▁Nabal	-10.1122
▁Rimmon	-10.1122
▁contend	-10.1122
▁firstfruits	-10.1122
▁perceive	-10.1122
▁queen	-10.1122
▁speech	-10.1122
▁silent	-10.1122
▁Hazael	-10.1122
▁bondage	-10.1122
▁ships	-10.1122
▁stopped	-10.1122
▁cup	-10.1122
▁folly	-10.1123
▁Tamar	-10.1123
▁sixteen	-10.1124
▁Qu	-10.1126
▁nobles	-10.1136
▁Midianites	-10.1142
l	-10.115
▁weary	-10.1155
▁Are	-10.1158
▁greater	-10.1162
▁slaves	-10.1172
▁G	-10.1177
▁journeyed	-10.1198
▁Come	-10.1212
▁bowls	-10.1236
▁vows	-10.1252
ai	-10.1283
▁abominations	-10.1352
▁hates	-10.1353
▁burning	-10.1367
▁breaks	-10.1368
▁skins	-10.1377
▁measure	-10.1385
▁strangers	-10.1405
▁boil	-10.1491
ce	-10.1498
▁pan	-10.1513
▁spring	-10.1517
less	-10.154
een	-10.1543
).	-10.1547
Lord	-10.1567
▁armor	-10.1568
▁devour	-10.1571
▁goods	-10.1576
▁provide	-10.1584
▁defile	-10.1584
▁raise	-10.1586
▁Kish	-10.1587
▁faithful	-10.1594
▁regular	-10.1594
▁prison	-10.1595
▁quiet	-10.1597
▁Zerah	-10.1598
▁reject	-10.1598
▁Ithamar	-10.1598
▁array	-10.1598
▁authority	-10.1598
▁beauty	-10.1598
▁compassion	-10.1598
▁iniquities	-10.1598
▁reveal	-10.1598
▁thirteen	-10.1598
▁Shushan	-10.1598
▁Hadadezer	-10.1598
▁Achish	-10.1598
▁dominion	-10.1598
▁pervert	-10.1598
▁rebelled	-10.1599
▁Uzziah	-10.1599
▁memorial	-10.1599
▁assembled	-10.1599
▁vain	-10.16
▁caught	-10.16
▁tender	-10.1601
▁Again	-10.1601
▁bad	-10.1602
▁Abel	-10.1603
▁afar	-10.1605
▁joined	-10.1605
▁sanctify	-10.1607
▁cleansed	-10.1611
▁chose	-10.1611
▁Og	-10.1612
▁greatness	-10.1617
▁borne	-10.1618
▁sitting	-10.1618
▁hanging	-10.1623
▁Hamath	-10.1626
▁corners	-10.1647
▁treasures	-10.1659
▁letters	-10.1696
▁Hittites	-10.1701
be	-10.1741
▁shields	-10.1772
▁worker	-10.1833
▁waste	-10.1899
▁chiefs	-10.1908
▁un	-10.191
▁pleases	-10.1926
▁finger	-10.2009
▁stronghold	-10.201
▁lamp	-10.2014
▁division	-10.2014
▁foundation	-10.2014
▁request	-10.2066
Are	-10.2068
Edom	-10.2068
▁fulfill	-10.2068
Therefore	-10.2068
▁require	-10.2083
▁line	-10.2096
▁Jotham	-10.2098
▁Lachish	-10.2098
▁ambush	-10.2098
▁bosom	-10.2098
▁couple	-10.2098
▁daily	-10.2098
▁genealogies	-10.2098
▁language	-10.2098
▁palm	-10.2098
▁sackcloth	-10.2098
▁strife	-10.2098
▁teeth	-10.2098
▁ourselves	-10.2098
▁Hezron	-10.2098
▁Eliab	-10.2099
▁Joel	-10.2099
▁Elkanah	-10.2099
▁Naomi	-10.2099
▁faithfulness	-10.2099
▁grieved	-10.2099
▁Mine	-10.21
▁fruitful	-10.21
▁fourteenth	-10.21
▁extend	-10.21
▁thanksgiving	-10.21
▁Naboth	-10.2101
▁thick	-10.2101
▁grown	-10.2103
▁advance	-10.2108
▁forgive	-10.2109
▁utter	-10.211
▁kissed	-10.2111
▁slay	-10.2113
▁officials	-10.2118
▁grapes	-10.2118
from	-10.2118
▁humbled	-10.212
▁sick	-10.2126
▁younger	-10.2126
▁cakes	-10.2153
▁ble	-10.219
▁praised	-10.2197
▁helped	-10.2249
▁parts	-10.2287
▁Ham	-10.2319
▁touch	-10.2326
▁rivers	-10.233
▁lions	-10.2331
▁al	-10.2348
▁El	-10.2386
▁allow	-10.2517
▁base	-10.253
▁palace	-10.2534
▁burden	-10.2539
▁companion	-10.2539
▁gift	-10.254
▁cart	-10.2541
▁kingdoms	-10.2566
▁commit	-10.2577
▁shed	-10.2583
Arise	-10.2593
tribe	-10.2594
▁plant	-10.2597
Oh	-10.2599
▁wander	-10.2601
▁hasten	-10.2606
▁bathe	-10.2606
▁false	-10.262
▁bake	-10.2622
▁conspir	-10.2625
▁Succoth	-10.2625
▁consult	-10.2625
▁corpse	-10.2625
▁integrity	-10.2625
▁Obadiah	-10.2625
▁due	-10.2625
▁plot	-10.2625
▁fountain	-10.2625
▁dug	-10.2625
▁foreign	-10.2625
▁prophesied	-10.2625
▁defect	-10.2625
▁completely	-10.2625
▁oppression	-10.2625
▁Nadab	-10.2626
▁Sisera	-10.2627
▁multiplied	-10.2627
▁subdued	-10.263
▁account	-10.263
▁depths	-10.2632
▁uncleanness	-10.2633
▁smoke	-10.2635
▁pitch	-10.2638
▁prevailed	-10.2644
▁refused	-10.2645
▁sprinkled	-10.2647
▁proclaimed	-10.2652
▁Arise	-10.2656
▁fulfilled	-10.2657
ped	-10.268
▁bands	-10.2692
me	-10.2696
▁washed	-10.2768
▁showed	-10.2772
▁Ne	-10.2796
rust	-10.2809
ted	-10.3022
▁need	-10.307
▁maid	-10.3086
▁virgin	-10.3091
▁window	-10.3092
▁tomb	-10.3093
▁tear	-10.3094
▁foreigner	-10.3095
▁province	-10.3096
▁host	-10.3096
▁shoulder	-10.3126
▁wrong	-10.3147
Get	-10.3148
Amen	-10.3148
▁report	-10.3149
▁reason	-10.3151
▁Man	-10.3169
▁Unt	-10.3175
▁reap	-10.3176
▁carcass	-10.3179
▁Eliashib	-10.318
▁Jearim	-10.318
▁Keilah	-10.318
▁Maaseiah	-10.318
▁Nethinim	-10.318
▁Tirzah	-10.318
▁desolate	-10.318
▁duty	-10.318
▁gird	-10.318
▁heritage	-10.318
▁remnant	-10.318
▁Tyre	-10.318
▁calf	-10.318
▁Manoah	-10.318
▁itself	-10.318
▁Nahor	-10.318
▁Hazor	-10.318
▁Cyrus	-10.318
▁Michal	-10.318
▁simple	-10.318
▁screen	-10.318
▁Haran	-10.3181
▁hammer	-10.3181
▁leprous	-10.3181
▁Perez	-10.3181
▁staff	-10.3181
▁married	-10.3182
▁sanctified	-10.3182
▁pain	-10.3182
▁Ahithophel	-10.3183
▁Micaiah	-10.3183
▁knees	-10.3183
▁moon	-10.3183
▁apart	-10.3184
▁spy	-10.3187
▁Keep	-10.3187
▁youngest	-10.319
▁stronger	-10.3192
▁sides	-10.3194
▁wide	-10.3196
▁wounded	-10.3197
▁Perizzites	-10.3202
▁pomegranates	-10.3217
▁remaining	-10.3233
▁desired	-10.3235
▁dis	-10.3251
▁forces	-10.3264
▁building	-10.3267
▁carts	-10.3271
▁lo	-10.3292
▁K	-10.3326
▁used	-10.334
▁sand	-10.3406
▁approach	-10.3421
▁desires	-10.3476
▁Re	-10.353
▁rises	-10.3531
▁Hor	-10.3535
C	-10.3626
▁looks	-10.3631
us	-10.3631
▁blow	-10.3663
▁basket	-10.3674
▁move	-10.3677
▁relative	-10.3681
▁brook	-10.3682
▁string	-10.3682
▁officer	-10.3685
▁Moabites	-10.3705
▁talk	-10.3723
▁grant	-10.3738
nine	-10.3738
Also	-10.3738
▁proclaim	-10.3738
Ma	-10.3747
▁learn	-10.3752
▁cleanse	-10.3756
▁courage	-10.3762
▁Ekron	-10.3767
▁abhor	-10.3767
▁gracious	-10.3767
▁overthrow	-10.3767
▁Amasa	-10.3767
▁severe	-10.3767
▁barren	-10.3767
▁bright	-10.3767
▁explain	-10.3768
▁Abigail	-10.3768
▁Myself	-10.3768
▁Omri	-10.3768
▁Place	-10.3768
▁grief	-10.3768
▁loyal	-10.3768
▁timber	-10.3768
▁twilight	-10.3768
▁uncircumcised	-10.3768
▁furnishings	-10.3768
▁glorious	-10.3768
▁Jehoash	-10.3768
▁net	-10.3768
▁running	-10.3768
▁Shaphan	-10.3768
▁terebinth	-10.3769
▁Naaman	-10.3769
▁unintentionally	-10.3769
▁safety	-10.3769
▁offspring	-10.3769
▁fish	-10.3769
▁unless	-10.3769
▁skillful	-10.3769
▁armorbearer	-10.377
▁true	-10.377
▁created	-10.377
▁diligently	-10.377
▁Elah	-10.3771
▁Hur	-10.3771
▁case	-10.3771
▁Ner	-10.3772
▁forgotten	-10.3774
▁grace	-10.3775
▁wages	-10.378
▁cows	-10.3782
▁Afterward	-10.3784
▁ride	-10.3786
▁weapons	-10.3792
▁hanged	-10.3796
▁talked	-10.38
▁snow	-10.3807
▁means	-10.3818
▁cords	-10.3818
▁stands	-10.3832
▁Hebrews	-10.3849
▁companions	-10.3865
ive	-10.3867
▁springs	-10.3875
▁write	-10.3901
▁turns	-10.3913
Di	-10.3917
▁Je	-10.3932
▁p	-10.3964
▁plains	-10.397
▁sits	-10.4004
▁dwellings	-10.4106
▁courts	-10.412
▁confess	-10.4143
▁M	-10.4158
▁play	-10.4272
ch	-10.4281
▁worked	-10.4287
▁convocation	-10.4294
▁shine	-10.4296
▁season	-10.4301
▁chamber	-10.4308
▁Hebrew	-10.4308
▁vessel	-10.4309
▁row	-10.4309
ment	-10.4313
▁acc	-10.4359
fifth	-10.4362
third	-10.4364
was	-10.4367
fourth	-10.4368
aught	-10.439
▁record	-10.4391
▁eleven	-10.4391
▁drunk	-10.4392
▁Uzziel	-10.4392
▁Carmel	-10.4392
▁unfaithful	-10.4392
▁fourteen	-10.4393
▁deceit	-10.4393
▁cherub	-10.4393
▁else	-10.4393
▁Ahimelech	-10.4393
▁Jephunneh	-10.4393
▁citadel	-10.4393
▁cymbals	-10.4393
▁kidneys	-10.4393
▁vengeance	-10.4393
▁violence	-10.4393
▁Great	-10.4393
▁Hermon	-10.4393
▁Libnah	-10.4393
▁Mattaniah	-10.4393
▁Horeb	-10.4393
▁pride	-10.4393
▁signet	-10.4394
▁Amram	-10.4394
▁want	-10.4394
▁platter	-10.4394
▁Isaiah	-10.4394
▁issue	-10.4394
▁flatter	-10.4394
▁Elam	-10.4394
▁dried	-10.4395
▁Athaliah	-10.4395
▁mine	-10.4395
▁Sarai	-10.4395
▁Cain	-10.4395
▁hin	-10.4396
▁determined	-10.4396
▁Kohathites	-10.4396
▁Maachah	-10.4397
▁Asahel	-10.4397
▁price	-10.4397
▁astray	-10.4397
▁Aram	-10.4397
▁majesty	-10.4397
▁drawn	-10.4405
▁jealousy	-10.4407
▁willingly	-10.4407
▁forgiven	-10.4408
▁provided	-10.4413
▁Heman	-10.4415
▁mourned	-10.4418
▁Say	-10.4421
▁woods	-10.4421
▁overtake	-10.4422
▁accepted	-10.4422
▁capitals	-10.4424
Th	-10.4426
▁increased	-10.4435
▁touched	-10.4437
▁tested	-10.444
▁counted	-10.4447
▁Not	-10.446
▁wickedly	-10.4464
▁chambers	-10.448
▁force	-10.4482
rous	-10.4485
▁transgressions	-10.4525
▁thoughts	-10.4552
▁trusted	-10.4562
▁arms	-10.4587
▁ordinances	-10.4588
);	-10.4619
each	-10.462
eth	-10.4676
▁testif	-10.4799
▁store	-10.4835
▁mind	-10.4836
▁rebel	-10.4844
▁troubles	-10.4861
ced	-10.4872
▁happen	-10.4944
▁repair	-10.4945
▁execute	-10.4946
▁treasure	-10.4961
▁spot	-10.4973
▁tithe	-10.4974
▁Jebusite	-10.4976
▁band	-10.4976
▁pot	-10.4976
▁hang	-10.4999
▁keeper	-10.5001
▁dog	-10.5002
▁prolong	-10.5027
▁accept	-10.5038
▁strengthen	-10.5043
▁release	-10.5045
▁devise	-10.5048
▁deceitful	-10.5057
▁blind	-10.5059
Tomorrow	-10.506
▁Ahitub	-10.506
▁Aroer	-10.506
▁Artaxerxes	-10.506
▁Dagon	-10.506
▁Goshen	-10.506
▁Hashabiah	-10.506
▁Jeremiah	-10.506
▁Nebuchadnezzar	-10.506
▁Ziklag	-10.506
▁adversaries	-10.506
▁dismayed	-10.506
▁remembrance	-10.506
▁shoot	-10.506
▁showbread	-10.506
▁twelfth	-10.506
▁Ahimaaz	-10.506
▁poverty	-10.506
▁Satan	-10.506
▁laz	-10.506
▁Gezer	-10.506
▁Amariah	-10.506
▁plow	-10.506
▁Eber	-10.506
▁Bani	-10.506
▁dread	-10.5061
▁ninety	-10.5061
▁straw	-10.5061
▁Ziba	-10.5061
▁something	-10.5061
▁Ziph	-10.5062
▁avenger	-10.5062
▁Rock	-10.5062
▁Tobiah	-10.5062
▁leather	-10.5062
▁murderer	-10.5062
▁prosperity	-10.5062
▁invited	-10.5063
▁likewise	-10.5063
▁legs	-10.5063
▁chains	-10.5063
▁thorns	-10.5064
efore	-10.5065
▁rear	-10.5065
▁wonderful	-10.5068
▁carefully	-10.5069
▁shake	-10.507
▁Reubenites	-10.507
▁march	-10.5073
▁executed	-10.5076
▁eastward	-10.5079
▁Turn	-10.5082
▁weighed	-10.5082
▁healed	-10.5086
▁ceased	-10.5092
Since	-10.5094
▁beams	-10.5099
▁planted	-10.51
▁provisions	-10.51
paid	-10.5101
▁Hivites	-10.5117
▁Her	-10.5132
▁happens	-10.5147
▁spen	-10.5151
▁rows	-10.5153
▁commands	-10.5158
▁needs	-10.5165
▁gifts	-10.517
▁waited	-10.5175
▁listened	-10.5177
▁shoulders	-10.5179
em	-10.5189
▁harps	-10.5194
▁creeps	-10.5194
▁Z	-10.5223
▁others	-10.5236
▁N	-10.524
▁captives	-10.5273
▁share	-10.5283
▁Amon	-10.5314
ry	-10.5323
D	-10.5349
▁Ho	-10.5349
▁guide	-10.5362
▁form	-10.5365
▁feasts	-10.5377
▁Bela	-10.5426
▁eating	-10.5435
▁curses	-10.5451
▁taste	-10.5525
▁oppress	-10.5541
▁li	-10.5551
▁ra	-10.5583
it	-10.5607
▁fatt	-10.5614
b	-10.5617
lah	-10.563
▁laugh	-10.5646
▁design	-10.5672
▁support	-10.568
▁laver	-10.5684
▁ornament	-10.5687
▁ring	-10.5703
▁arrow	-10.5714
▁restrain	-10.5734
▁lea	-10.574
▁wear	-10.5741
▁condemn	-10.5741
▁weak	-10.5743
To	-10.5744
of	-10.5746
▁gain	-10.5748
▁double	-10.5756
▁shave	-10.5762
▁awake	-10.5772
▁Ashdod	-10.5773
▁Jehiel	-10.5773
▁dispossess	-10.5774
▁triumph	-10.5774
▁Jeduthun	-10.5774
▁Jerubbaal	-10.5774
▁Miriam	-10.5774
▁Peor	-10.5774
▁Sidonians	-10.5774
▁defense	-10.5774
▁duties	-10.5774
▁frankincense	-10.5774
▁precepts	-10.5774
▁proceed	-10.5774
▁prudent	-10.5774
▁purification	-10.5774
▁purpose	-10.5774
▁workmanship	-10.5774
▁seventeen	-10.5774
▁roof	-10.5774
▁Debir	-10.5774
▁grasp	-10.5774
▁Nethanel	-10.5774
▁Eliezer	-10.5774
▁flies	-10.5775
▁property	-10.5775
▁Hushai	-10.5775
▁Salt	-10.5775
▁Timnah	-10.5775
▁Eglon	-10.5775
▁spies	-10.5775
▁Eliphaz	-10.5776
▁Jair	-10.5776
▁cling	-10.5777
▁begin	-10.5777
▁stolen	-10.5778
▁uprightness	-10.5778
▁Everyone	-10.578
▁flame	-10.578
latter	-10.5782
▁westward	-10.5784
▁Horon	-10.5785
▁Gadites	-10.5786
▁crushed	-10.5786
▁forevermore	-10.5787
▁dove	-10.5789
▁hooks	-10.579
▁merry	-10.5791
▁weeping	-10.5791
ish	-10.5794
▁rode	-10.5794
▁salt	-10.5797
▁passes	-10.5799
▁plans	-10.5803
▁Tell	-10.5806
▁played	-10.5812
▁granted	-10.5812
▁formed	-10.5814
▁Edomites	-10.5816
▁locusts	-10.5816
▁fact	-10.5817
▁Hadad	-10.5835
▁plundered	-10.584
id	-10.5841
▁breasts	-10.5848
▁scales	-10.5848
▁tithes	-10.5867
▁bearing	-10.5877
▁tears	-10.5887
▁stoned	-10.589
▁Ti	-10.589
▁burdens	-10.5893
▁red	-10.5899
▁foundations	-10.59
▁Ga	-10.5914
▁concubines	-10.5919
▁drinking	-10.5967
▁herd	-10.5991
▁dreams	-10.6044
▁Heth	-10.6055
▁seeing	-10.6078
▁matters	-10.6102
▁rods	-10.6116
etter	-10.6161
▁care	-10.6179
▁nurse	-10.6205
se	-10.6223
▁Am	-10.6239
sh	-10.6243
der	-10.6272
bel	-10.6294
▁blot	-10.6373
▁badger	-10.6433
▁shepherd	-10.6453
▁tunic	-10.6454
▁terror	-10.6456
▁slave	-10.6459
▁st	-10.6461
▁cake	-10.6466
▁Syrian	-10.6471
▁herb	-10.6476
▁mourn	-10.6493
▁recover	-10.6511
Tell	-10.6512
Make	-10.6513
▁beat	-10.654
onsider	-10.6541
ns	-10.6542
▁uncle	-10.6542
▁Geba	-10.6543
▁cruel	-10.6543
▁worth	-10.6543
▁discern	-10.6543
▁Abihu	-10.6544
▁Agag	-10.6544
▁Barak	-10.6544
▁Jehoiakim	-10.6544
▁aloud	-10.6544
▁already	-10.6544
▁frogs	-10.6544
▁greet	-10.6544
▁loops	-10.6544
▁rebellious	-10.6544
▁turtledove	-10.6544
▁Amminadab	-10.6544
▁Mahanaim	-10.6544
▁adversity	-10.6544
▁heifer	-10.6544
▁impurity	-10.6544
▁leper	-10.6544
▁myrrh	-10.6544
▁rebellion	-10.6544
▁network	-10.6544
making	-10.6544
▁Ephron	-10.6544
▁partiality	-10.6544
▁roar	-10.6544
▁truly	-10.6544
▁urge	-10.6544
▁Just	-10.6545
▁Terah	-10.6545
▁Hamor	-10.6545
▁meditate	-10.6545
▁deer	-10.6545
▁inhabit	-10.6545
▁Zimri	-10.6545
▁Hananiah	-10.6545
▁foolishness	-10.6545
▁fame	-10.6546
▁stir	-10.6546
▁Save	-10.6546
▁priesthood	-10.6547
▁withhold	-10.6547
▁kindled	-10.6547
▁Mephibosheth	-10.6547
▁hung	-10.6549
▁gray	-10.655
▁witnesses	-10.655
▁Anah	-10.6551
▁besieged	-10.6553
▁trembled	-10.6555
▁lodged	-10.6558
▁saddle	-10.6558
▁below	-10.6566
▁changed	-10.657
▁mark	-10.6571
▁counselors	-10.6576
pen	-10.6593
▁less	-10.6596
had	-10.6598
’?	-10.6602
re	-10.6607
▁Ar	-10.6615
▁pity	-10.662
▁shouted	-10.6622
▁singing	-10.6623
▁searched	-10.6624
▁area	-10.6624
▁dogs	-10.6644
▁prey	-10.6651
▁perished	-10.669
▁value	-10.6728
▁forward	-10.673
scent	-10.6757
lly	-10.6798
▁sole	-10.6833
▁keeping	-10.6847
▁lots	-10.6928
hed	-10.6959
▁rage	-10.6998
▁scorn	-10.7012
▁heal	-10.7019
▁Baals	-10.7175
age	-10.7186
▁Un	-10.7204
▁provok	-10.7224
ursed	-10.7238
like	-10.7256
scribe	-10.7257
▁standard	-10.7278
▁knob	-10.7282
▁abide	-10.7282
▁lowland	-10.7284
▁souls	-10.7286
▁bribe	-10.7287
▁garrison	-10.7287
▁breast	-10.7291
▁scale	-10.7292
▁corner	-10.7293
▁sack	-10.7293
▁prince	-10.7294
▁overla	-10.7295
▁Le	-10.73
▁bone	-10.731
▁Mos	-10.7311
▁Pa	-10.7326
isdom	-10.733
▁owner	-10.7335
you	-10.7335
▁prevail	-10.7346
Can	-10.7348
▁thirst	-10.7352
▁melt	-10.7354
▁Ammonites	-10.7356
▁hu	-10.7357
▁think	-10.7362
▁weep	-10.7365
▁wond	-10.7369
▁naked	-10.7376
▁Rehob	-10.7376
▁Mahli	-10.7377
▁Barzillai	-10.7377
▁East	-10.7377
▁Gehazi	-10.7377
▁Hoshea	-10.7377
▁Iddo	-10.7377
▁Ishbosheth	-10.7377
▁Izhar	-10.7377
▁Kedesh	-10.7377
▁Ophir	-10.7377
▁Shephatiah	-10.7377
▁Zalmunna	-10.7377
▁Zedekiah	-10.7377
▁Zichri	-10.7377
▁alien	-10.7377
▁anguish	-10.7377
▁banquet	-10.7377
▁behalf	-10.7377
▁business	-10.7377
▁chew	-10.7377
▁clear	-10.7377
▁consecration	-10.7377
▁hooves	-10.7377
▁manslayer	-10.7377
▁native	-10.7377
▁pestilence	-10.7377
▁posterity	-10.7377
▁recognize	-10.7377
▁solemn	-10.7377
▁split	-10.7377
▁zeal	-10.7377
▁Malchijah	-10.7377
▁assign	-10.7377
▁disaster	-10.7377
▁silence	-10.7377
▁Sidon	-10.7377
▁consent	-10.7377
▁entreat	-10.7377
▁furious	-10.7377
▁round	-10.7377
▁turban	-10.7377
▁isolate	-10.7377
▁waist	-10.7377
▁tread	-10.7377
rising	-10.7377
▁Ruth	-10.7377
▁Gaza	-10.7377
▁Hazar	-10.7377
▁Seraiah	-10.7377
▁Zobah	-10.7377
▁sang	-10.7377
▁correction	-10.7377
▁Ornan	-10.7377
▁Elishama	-10.7378
▁punishment	-10.7378
▁roll	-10.7378
▁Abinadab	-10.7378
▁Happ	-10.7378
▁tail	-10.7379
▁beaten	-10.7379
▁Hannah	-10.7379
▁hungry	-10.7379
▁deliverance	-10.7379
▁acquired	-10.7379
▁boundary	-10.7379
▁Shelah	-10.7379
▁Jeiel	-10.7379
▁stiff	-10.7381
▁Hepher	-10.7381
▁abundantly	-10.7381
▁shaken	-10.7381
▁artistic	-10.7381
▁attac	-10.7381
▁lower	-10.7382
▁overseer	-10.7382
▁manna	-10.7382
▁descended	-10.7384
▁fastened	-10.7384
▁behave	-10.7384
▁basins	-10.7388
▁Heber	-10.7389
▁perpetual	-10.7389
▁Hanan	-10.739
▁liver	-10.739
▁complained	-10.7392
▁fly	-10.7394
▁raid	-10.74
led	-10.7412
▁gained	-10.7413
▁lovely	-10.742
▁likeness	-10.7421
▁laws	-10.7426
▁rebuked	-10.7427
▁devoured	-10.7433
▁Here	-10.7445
Rise	-10.7463
▁Zeba	-10.7463
▁distressed	-10.7468
▁Mi	-10.7499
is	-10.7546
▁governors	-10.7548
▁heaps	-10.7595
▁angels	-10.761
▁valleys	-10.7672
▁isa	-10.7672
▁cedars	-10.7695
▁Ez	-10.773
▁spears	-10.7734
’?”	-10.7761
▁Sabbaths	-10.7765
▁excellen	-10.78
▁lend	-10.7845
▁nights	-10.7913
▁use	-10.7918
▁Al	-10.7941
▁households	-10.7947
▁Out	-10.7953
uring	-10.7961
▁fears	-10.8011
▁pierce	-10.806
dad	-10.8071
▁b	-10.8081
erous	-10.81
▁Lo	-10.8117
▁scatter	-10.8161
▁wing	-10.8174
▁gazelle	-10.8191
▁vision	-10.8194
▁bank	-10.8194
▁root	-10.8194
▁troop	-10.8199
▁Jew	-10.8207
▁Canaanite	-10.8212
▁weigh	-10.8241
▁Ah	-10.8242
Say	-10.8255
stood	-10.8258
▁treat	-10.8261
▁seal	-10.8263
▁lodge	-10.8272
▁skill	-10.8278
▁corrupt	-10.8282
▁Uzzi	-10.8282
▁tri	-10.8283
▁Hanani	-10.8286
▁faint	-10.8286
▁further	-10.8286
▁sickness	-10.8286
nleavened	-10.8286
▁Darius	-10.8286
▁Euphrates	-10.8286
▁Gentiles	-10.8286
▁Gomorrah	-10.8286
▁Hanun	-10.8286
▁Japheth	-10.8286
▁Jedaiah	-10.8286
▁Kenaz	-10.8286
▁Lamech	-10.8286
▁Megiddo	-10.8286
▁agreement	-10.8286
▁awoke	-10.8286
▁census	-10.8286
▁cloven	-10.8286
▁damage	-10.8286
▁distance	-10.8286
▁firmament	-10.8286
▁owl	-10.8286
▁persecute	-10.8286
▁petition	-10.8286
▁plenty	-10.8286
▁rejoicing	-10.8286
▁serving	-10.8286
▁stomach	-10.8286
▁swift	-10.8286
▁tonight	-10.8286
▁treasury	-10.8286
▁twice	-10.8286
▁Abiram	-10.8286
▁forehead	-10.8286
▁holiness	-10.8286
▁Bilhah	-10.8286
▁coals	-10.8286
▁steal	-10.8286
▁bloodshed	-10.8286
▁hatred	-10.8286
▁soldiers	-10.8286
▁contr	-10.8286
▁moment	-10.8286
▁Padan	-10.8286
▁Reuel	-10.8286
▁Elihu	-10.8286
▁Milcah	-10.8286
▁weaver	-10.8286
▁abundant	-10.8286
▁Beriah	-10.8286
▁worthless	-10.8287
▁Harim	-10.8287
▁Paran	-10.8287
▁bald	-10.8287
▁sojourner	-10.8288
▁lame	-10.8288
▁Hagar	-10.8288
▁cud	-10.8288
▁Bread	-10.8288
▁watchman	-10.8288
▁shot	-10.8289
▁beget	-10.8289
▁safely	-10.829
▁ungodly	-10.829
▁scoffer	-10.829
▁smell	-10.8291
▁Cush	-10.8291
▁Jo	-10.8291
▁settled	-10.8291
▁groaning	-10.8292
▁ex	-10.8293
▁opening	-10.8294
▁ninth	-10.8294
▁captured	-10.8294
▁streams	-10.8295
E	-10.8295
▁outsider	-10.8296
▁displeased	-10.8297
▁num	-10.8301
▁Zin	-10.8302
▁kindly	-10.8306
▁Dor	-10.8312
▁required	-10.8314
by	-10.8315
▁seas	-10.8315
▁eunuchs	-10.8315
▁lost	-10.8317
▁streets	-10.8323
▁Many	-10.8335
erubba	-10.8338
▁reported	-10.8339
▁wisely	-10.834
▁giants	-10.834
▁settings	-10.8349
▁dedicate	-10.8353
▁comforted	-10.8353
▁failed	-10.8354
▁uncovered	-10.8368
▁troops	-10.8374
▁Bring	-10.8384
▁alike	-10.8386
ting	-10.8386
▁performed	-10.8395
ul	-10.8412
▁Az	-10.8427
▁deliverer	-10.8431
▁strip	-10.8433
▁commits	-10.844
▁Up	-10.8447
▁Arba	-10.8477
▁supplications	-10.8491
ors	-10.8524
Sh	-10.8543
None	-10.8549
▁necks	-10.8551
arp	-10.8552
▁Nei	-10.8578
▁waves	-10.8594
▁Israelites	-10.86
Sen	-10.8852
▁fair	-10.8872
▁dip	-10.8886
▁willing	-10.8915
eh	-10.8954
▁embrace	-10.9011
▁bla	-10.9063
▁Eph	-10.9126
▁Ja	-10.9126
▁reache	-10.9132
▁tremble	-10.9172
ill	-10.9172
▁wound	-10.9187
ix	-10.9187
▁ruin	-10.9194
▁pasture	-10.9195
▁sabbath	-10.9196
▁highway	-10.9196
▁Hivite	-10.92
▁pitcher	-10.9203
▁Amorite	-10.9203
▁cord	-10.9205
mation	-10.9206
▁thank	-10.9218
▁Son	-10.9222
▁glean	-10.9227
▁borders	-10.9228
▁Hod	-10.9234
▁cloth	-10.9235
▁desert	-10.9247
▁render	-10.9247
▁instruct	-10.9254
▁confirm	-10.9254
Return	-10.9254
▁forest	-10.9263
▁hunt	-10.9266
▁persuade	-10.927
▁chasten	-10.927
▁leaven	-10.9271
honest	-10.9277
rried	-10.928
▁secure	-10.9281
▁Uzza	-10.9285
▁Pekah	-10.9286
▁enjoy	-10.9286
▁flourish	-10.9286
▁Adoni	-10.9286
▁Aijalon	-10.9286
▁Ammihud	-10.9286
▁Barnea	-10.9286
▁Bathsheba	-10.9286
▁Deborah	-10.9286
▁Ehud	-10.9286
▁Gittite	-10.9286
▁Jethro	-10.9286
▁Kidron	-10.9286
▁Mamre	-10.9286
▁Millo	-10.9286
▁Rabbah	-10.9286
▁Sanballat	-10.9286
▁Through	-10.9286
▁Vashti	-10.9286
▁Zorah	-10.9286
▁abominabl	-10.9286
▁adversary	-10.9286
▁apparel	-10.9286
▁calves	-10.9286
▁companies	-10.9286
▁disguise	-10.9286
▁hyssop	-10.9286
▁maintain	-10.9286
▁nostrils	-10.9286
▁oracle	-10.9286
▁pagan	-10.9286
▁rebuilt	-10.9286
▁redemption	-10.9286
▁speckled	-10.9286
▁speedily	-10.9286
▁vestibule	-10.9286
▁Jeroham	-10.9286
▁almond	-10.9286
▁burial	-10.9286
▁butler	-10.9286
▁feeble	-10.9286
▁siege	-10.9286
▁swarm	-10.9286
▁Jozabad	-10.9286
▁altogether	-10.9286
▁chest	-10.9286
▁loaves	-10.9286
▁position	-10.9286
▁Dathan	-10.9286
▁Tabor	-10.9286
▁betrothed	-10.9286
▁cursing	-10.9286
▁onyx	-10.9286
▁recompense	-10.9286
▁Johanan	-10.9286
▁Bethuel	-10.9286
▁confidence	-10.9286
▁Michael	-10.9286
▁ewe	-10.9286
avior	-10.9286
▁Baanah	-10.9286
▁utterance	-10.9286
▁appearance	-10.9286
▁Arabah	-10.9287
▁raven	-10.9287
▁Adar	-10.9287
▁pluck	-10.9287
▁cop	-10.9287
▁abhorred	-10.9287
▁Gerar	-10.9287
▁tip	-10.9287
▁pull	-10.9288
▁loose	-10.9288
▁Furthermore	-10.9288
▁Zelophehad	-10.9288
▁stirred	-10.9288
▁Zur	-10.9288
▁hewn	-10.9288
▁carcasses	-10.9289
▁Eliel	-10.929
▁stop	-10.929
▁mention	-10.9291
▁clasps	-10.9291
▁booths	-10.9291
▁impose	-10.9293
▁Ezer	-10.9294
▁severely	-10.9294
nah	-10.9297
▁wool	-10.9298
▁fullness	-10.9299
▁seized	-10.93
▁deceived	-10.9302
ided	-10.9303
▁Gershonites	-10.9304
▁wish	-10.9307
special	-10.9309
▁released	-10.9311
▁beneath	-10.9312
▁instructed	-10.9317
▁Return	-10.9318
▁leavened	-10.9318
▁blossoms	-10.9318
▁nose	-10.9322
▁molding	-10.9325
elaiah	-10.9326
▁panels	-10.9328
▁pegs	-10.9328
▁included	-10.9331
▁beard	-10.9336
▁merchants	-10.9337
▁leap	-10.934
rah	-10.9342
▁belly	-10.9355
▁complaints	-10.9355
▁sinners	-10.9356
▁flowers	-10.9367
▁bows	-10.937
▁prospered	-10.9382
▁Er	-10.9383
▁sacks	-10.9393
▁vowed	-10.9395
▁ornaments	-10.9411
▁ministered	-10.9422
▁brooks	-10.9439
▁relatives	-10.9439
▁throw	-10.9446
▁avenge	-10.9448
▁tombs	-10.9449
▁pans	-10.9477
man	-10.9485
▁mean	-10.9486
▁ver	-10.9491
▁Put	-10.9494
▁reach	-10.9511
▁destroying	-10.9522
▁songs	-10.9582
▁outer	-10.9625
▁maidservants	-10.9637
▁increases	-10.9648
ipped	-10.9689
▁con	-10.9704
▁sur	-10.9718
▁Har	-10.9729
cted	-10.9738
▁e	-10.9755
▁n	-10.9764
some	-10.9766
▁m	-10.9781
▁delights	-10.9787
ew	-10.9812
ation	-10.9857
▁permit	-10.9917
▁noon	-10.9941
▁exchange	-10.9945
▁presents	-10.9999
She	-11.0038
ble	-11.0069
▁bra	-11.0083
W	-11.0121
ree	-11.0145
▁driv	-11.0184
▁reproache	-11.0222
▁boast	-11.0222
▁g	-11.026
now	-11.0265
▁dedicat	-11.0268
with	-11.0279
▁de	-11.0283
pressed	-11.0296
▁eagle	-11.0298
▁disease	-11.0303
▁pool	-11.0305
▁fig	-11.0306
▁proverb	-11.0308
▁mule	-11.0309
▁drop	-11.031
▁helper	-11.0312
▁talent	-11.0313
▁Fear	-11.0315
▁Gileadite	-11.0315
▁flower	-11.0318
▁Ammonite	-11.0322
▁Ki	-11.0328
”	-11.0338
P	-11.035
time	-11.0358
▁pursu	-11.0359
▁delay	-11.0363
▁conceal	-11.0364
thirsty	-11.0365
Turn	-11.0366
Remember	-11.0366
face	-11.0367
Every	-11.0369
▁jealous	-11.0373
▁twent	-11.0374
▁fro	-11.0376
▁chase	-11.038
▁conceive	-11.0383
▁seize	-11.0387
At	-11.0388
▁contempt	-11.039
▁violent	-11.0392
▁safe	-11.0392
▁branch	-11.0396
▁Gera	-11.0396
▁lament	-11.0396
▁Anak	-11.0396
▁More	-11.0397
▁worm	-11.0397
nadab	-11.0397
▁envi	-11.0397
▁fashion	-11.0397
▁Jachin	-11.0397
▁accomplish	-11.0397
▁obtain	-11.0397
▁pardon	-11.0397
▁Araunah	-11.0397
▁Arphaxad	-11.0397
▁Bezalel	-11.0397
▁Immer	-11.0397
▁Jazer	-11.0397
▁Jerahmeel	-11.0397
▁Jeush	-11.0397
▁Makkedah	-11.0397
▁Nazirite	-11.0397
▁Sennacherib	-11.0397
▁ancient	-11.0397
▁astonished	-11.0397
▁confusion	-11.0397
▁district	-11.0397
▁entire	-11.0397
▁eyelids	-11.0397
▁furnace	-11.0397
▁intricate	-11.0397
▁magicians	-11.0397
▁message	-11.0397
▁purify	-11.0397
▁separation	-11.0397
▁stubborn	-11.0397
▁testimony	-11.0397
▁thumb	-11.0397
▁whirlwind	-11.0397
▁Aphek	-11.0397
▁black	-11.0397
▁chastise	-11.0397
▁Zebadiah	-11.0397
▁riddle	-11.0397
▁Nebo	-11.0397
▁birthright	-11.0397
▁Azmaveth	-11.0397
▁Hormah	-11.0397
▁rescue	-11.0397
▁broad	-11.0397
▁gallows	-11.0397
▁Adaiah	-11.0397
▁dishonor	-11.0397
▁Rephaim	-11.0397
▁respect	-11.0397
▁Shelomith	-11.0397
▁summer	-11.0397
▁woof	-11.0397
▁shaft	-11.0397
▁falsehood	-11.0397
▁trembling	-11.0397
▁weaned	-11.0397
▁Jabin	-11.0397
▁preparation	-11.0398
▁Shobal	-11.0398
▁Jobab	-11.0398
▁Sheol	-11.0398
▁Anakim	-11.0398
▁Huram	-11.0398
▁sharpen	-11.0399
▁happy	-11.0399
▁satisfy	-11.0399
▁Joah	-11.0399
▁uphold	-11.0399
▁marvelous	-11.0399
▁distribute	-11.0399
▁Nahshon	-11.0399
▁Nahash	-11.0399
▁fleece	-11.04
▁bitterness	-11.04
▁Set	-11.04
▁eleventh	-11.0401
▁completed	-11.0402
▁storm	-11.0403
▁Two	-11.0403
▁earrings	-11.0403
▁clay	-11.0403
▁Beor	-11.0404
▁defend	-11.0404
▁trample	-11.0404
▁archers	-11.0405
▁fresh	-11.0407
▁falsely	-11.0407
▁builders	-11.0407
▁bitterly	-11.041
▁catch	-11.041
▁belt	-11.0413
▁pigeons	-11.0413
▁doorposts	-11.0413
▁sharp	-11.0413
▁Carmi	-11.0413
▁Listen	-11.0414
▁spi	-11.0417
▁Elon	-11.0418
▁intend	-11.0418
▁Seth	-11.0419
▁punished	-11.0425
▁ahead	-11.0436
▁withheld	-11.0438
▁ruled	-11.0443
▁handful	-11.0445
ncline	-11.0449
▁preserved	-11.045
▁closed	-11.0452
▁sandals	-11.0455
▁Over	-11.0455
▁thirsty	-11.0464
▁Benjamites	-11.0475
▁carrying	-11.0475
epart	-11.0478
▁devote	-11.0479
▁k	-11.0481
▁load	-11.0492
▁V	-11.0494
▁wounds	-11.0496
▁pitchers	-11.0498
big	-11.05
▁regarded	-11.0511
▁staying	-11.052
▁terrors	-11.0529
my	-11.0563
▁virgins	-11.058
▁foreigners	-11.0582
te	-11.0589
ated	-11.0602
ings	-11.0615
▁fit	-11.0625
▁prove	-11.0631
shai	-11.0651
▁rules	-11.0665
▁deceive	-11.0675
▁str	-11.0694
ended	-11.0724
▁nest	-11.0727
▁heights	-11.075
▁follows	-11.0762
nt	-11.0823
rious	-11.0839
▁Had	-11.088
▁hides	-11.0983
iness	-11.0991
ge	-11.1033
let	-11.1068
od	-11.1082
▁excellenc	-11.1104
ore	-11.1116
▁im	-11.1125
▁Ram	-11.1224
ten	-11.126
ath	-11.1275
ph	-11.1289
▁neighbors	-11.129
nestl	-11.1292
▁St	-11.1331
▁heir	-11.1338
▁J	-11.1365
biah	-11.1366
▁bears	-11.1383
tretch	-11.1414
▁rejoices	-11.1417
u	-11.148
ic	-11.1487
▁befall	-11.15
▁tooth	-11.1519
ick	-11.152
ith	-11.1527
▁creature	-11.1548
▁Ha	-11.1552
▁censer	-11.1558
▁frame	-11.1558
▁Benjamite	-11.1559
▁pomegranate	-11.1562
▁complaint	-11.1566
▁setting	-11.157
uddenly	-11.1574
▁den	-11.1598
mission	-11.1607
▁abound	-11.1608
Gather	-11.1612
▁direct	-11.1613
▁punish	-11.1615
▁ascend	-11.1615
Moreover	-11.1616
but	-11.1617
His	-11.1617
when	-11.1617
▁defeat	-11.1617
▁encamp	-11.1619
▁health	-11.1619
▁Bil	-11.162
dition	-11.1627
▁enlarge	-11.163
Has	-11.1632
ext	-11.1642
▁interpret	-11.1644
oncerning	-11.1644
▁Uri	-11.1645
▁Strength	-11.1646
handed	-11.1646
▁Anathoth	-11.1646
▁Mushi	-11.1647
▁roast	-11.1647
▁covet	-11.1647
▁disgrace	-11.1647
▁quarrel	-11.1647
▁vomit	-11.1647
Seven	-11.1647
▁Aholibamah	-11.1647
▁Akkub	-11.1647
▁Berechiah	-11.1647
▁Bichri	-11.1647
▁Ebal	-11.1647
▁Edrei	-11.1647
▁Eshtaol	-11.1647
▁Gilboa	-11.1647
▁Hinnom	-11.1647
▁Kadmiel	-11.1647
▁Mattithiah	-11.1647
▁Menahem	-11.1647
▁Nehemiah	-11.1647
▁Ophrah	-11.1647
▁Pedaiah	-11.1647
▁Penuel	-11.1647
▁Pisgah	-11.1647
▁Rabshakeh	-11.1647
▁Remaliah	-11.1647
▁Shunammite	-11.1647
▁Tappuah	-11.1647
▁Zabad	-11.1647
▁Zibeon	-11.1647
▁Zoar	-11.1647
▁attain	-11.1647
▁attention	-11.1647
▁attentive	-11.1647
▁bodies	-11.1647
▁confined	-11.1647
▁contain	-11.1647
▁cypress	-11.1647
▁ivory	-11.1647
▁lilies	-11.1647
▁marriage	-11.1647
▁morsel	-11.1647
▁restitution	-11.1647
▁scab	-11.1647
▁shelter	-11.1647
▁slumber	-11.1647
▁steadfast	-11.1647
▁tumors	-11.1647
▁tumult	-11.1647
▁wafer	-11.1647
▁Cherethites	-11.1647
▁Righteous	-11.1647
▁boy	-11.1647
▁fetters	-11.1647
▁oversight	-11.1647
▁raisins	-11.1647
▁ransom	-11.1647
▁straight	-11.1647
necked	-11.1647
▁Jehohanan	-11.1647
▁Judge	-11.1647
▁Rechab	-11.1647
▁task	-11.1647
▁Jerimoth	-11.1647
▁sank	-11.1647
▁short	-11.1647
▁begun	-11.1647
▁Abdon	-11.1647
▁sheaf	-11.1647
▁Dibon	-11.1647
▁Luz	-11.1647
▁Rehum	-11.1647
▁game	-11.1647
Alas	-11.1647
▁Necho	-11.1647
▁Urijah	-11.1647
▁pretend	-11.1647
▁Tarshish	-11.1647
▁Jahath	-11.1647
▁Michmash	-11.1647
▁Zaccur	-11.1648
▁bag	-11.1648
▁suffer	-11.1648
▁dyed	-11.1648
▁sheaves	-11.1648
▁herdsmen	-11.1648
▁interpretation	-11.1648
▁Shaphat	-11.1648
pper	-11.1648
▁Dinah	-11.1648
▁bedroom	-11.1648
▁Elath	-11.1648
▁writing	-11.1648
▁dig	-11.1648
▁harlotry	-11.1649
▁cries	-11.1649
▁Ittai	-11.1649
▁Cushite	-11.1649
▁haughty	-11.1649
▁victory	-11.1649
▁Awake	-11.165
▁relent	-11.165
▁Geber	-11.165
▁Eden	-11.165
trimmers	-11.1651
▁hunger	-11.1651
▁Jezreelite	-11.1651
▁marry	-11.1652
▁Maker	-11.1652
▁Asaiah	-11.1652
▁station	-11.1653
▁scepter	-11.1653
▁slayer	-11.1653
▁sustain	-11.1653
▁overwhelmed	-11.1654
▁ropes	-11.1654
▁Jether	-11.1654
▁baker	-11.1655
▁custody	-11.1656
▁doorway	-11.1656
Command	-11.1656
▁swelling	-11.1656
▁Ethan	-11.1658
▁engraved	-11.166
▁raw	-11.1661
▁void	-11.1662
▁memor	-11.1663
▁proudly	-11.1663
▁overthrown	-11.1663
▁thief	-11.1665
ie	-11.1666
▁ac	-11.167
▁Onan	-11.1671
▁fellow	-11.1672
▁seah	-11.1672
▁Temanite	-11.1674
▁northward	-11.1674
▁southward	-11.1676
▁ascended	-11.1679
eser	-11.168
▁treaty	-11.1683
▁sling	-11.1689
ance	-11.1692
▁warm	-11.1695
▁Mall	-11.1698
▁Kenites	-11.1701
▁Maon	-11.1705
▁beg	-11.171
▁regarding	-11.171
▁fasting	-11.1714
▁sad	-11.1714
▁Lordare	-11.172
”—	-11.1733
▁figs	-11.1748
▁fleeing	-11.1757
Nothing	-11.1766
▁event	-11.1773
▁backward	-11.1774
▁praying	-11.1778
ide	-11.1796
▁gathering	-11.1812
▁teache	-11.1815
▁dreamed	-11.1826
▁windows	-11.1857
men	-11.1872
▁mo	-11.1879
▁strongholds	-11.188
▁push	-11.1882
▁seeking	-11.1908
▁towers	-11.1917
▁sinner	-11.1929
otted	-11.1938
▁possessed	-11.1954
▁inward	-11.196
▁pursues	-11.1967
side	-11.1968
▁winepress	-11.1979
▁cha	-11.1981
ned	-11.1987
▁Uz	-11.2017
▁namely	-11.202
▁sim	-11.2036
▁fully	-11.2113
▁ease	-11.2149
Long	-11.218
H	-11.2201
▁beh	-11.2215
▁nurs	-11.2254
▁Shere	-11.2312
▁upward	-11.2322
den	-11.2331
▁sakes	-11.2339
▁labors	-11.2353
▁Beer	-11.241
▁tend	-11.2415
▁reigns	-11.2433
old	-11.2442
▁Tel	-11.2483
our	-11.2547
zai	-11.2639
Ask	-11.2702
▁spirits	-11.2739
way	-11.2762
▁pa	-11.2781
▁kiss	-11.2827
niah	-11.2844
ri	-11.2852
▁practice	-11.2853
▁r	-11.2875
▁mighti	-11.2876
▁h	-11.291
p	-11.2948
room	-11.295
▁acknowledge	-11.2966
▁desolation	-11.2966
▁ointment	-11.2966
▁Shim	-11.2973
▁rid	-11.2975
▁slip	-11.2976
▁hypocrite	-11.2977
▁ha	-11.2977
▁scheme	-11.2981
▁limit	-11.2987
▁giant	-11.2989
▁locust	-11.299
▁provision	-11.299
erve	-11.2999
trike	-11.3004
eph	-11.3018
▁Moon	-11.3023
Man	-11.3023
rite	-11.3025
▁pro	-11.3029
lam	-11.3029
▁travel	-11.3032
▁isno	-11.3035
▁overflow	-11.304
born	-11.3041
▁frighten	-11.3042
With	-11.3043
ought	-11.3044
Put	-11.3044
move	-11.3044
while	-11.3047
Lest	-11.3047
▁Amo	-11.3047
▁camps	-11.3048
Am	-11.3048
▁stumble	-11.306
Or	-11.306
▁engrave	-11.3061
▁subdue	-11.3061
▁accord	-11.3061
▁concern	-11.3061
▁sets	-11.3062
▁besiege	-11.3064
▁promise	-11.3064
reserve	-11.3064
▁deserv	-11.3068
▁intent	-11.3069
much	-11.307
▁diligent	-11.3071
▁firm	-11.3072
vai	-11.3072
▁fier	-11.3073
▁kin	-11.3073
▁fortress	-11.3074
▁Zippor	-11.3074
▁Adullam	-11.3074
▁Abisha	-11.3075
▁procla	-11.3075
▁Ahi	-11.3076
▁disdain	-11.3076
▁revolt	-11.3076
▁Basemath	-11.3076
▁Binnui	-11.3076
▁Hanoch	-11.3076
▁Hoglah	-11.3076
▁Jabbok	-11.3076
▁Jarmuth	-11.3076
▁Jehoiachin	-11.3076
▁Mahalalel	-11.3076
▁Mareshah	-11.3076
▁Meraioth	-11.3076
▁Preacher	-11.3076
▁Shechaniah	-11.3076
▁Sochoh	-11.3076
▁Tekoa	-11.3076
▁Zilpah	-11.3076
▁booty	-11.3076
▁byword	-11.3076
▁celebrate	-11.3076
▁confounded	-11.3076
▁footstep	-11.3076
▁honeycomb	-11.3076
▁indignation	-11.3076
▁lurk	-11.3076
▁masons	-11.3076
▁midwives	-11.3076
▁occasion	-11.3076
▁outcry	-11.3076
▁poison	-11.3076
▁retain	-11.3076
▁seashore	-11.3076
▁section	-11.3076
▁seductress	-11.3076
▁select	-11.3076
▁shovels	-11.3076
▁substance	-11.3076
▁sunrise	-11.3076
▁survey	-11.3076
▁unloved	-11.3076
▁Gedor	-11.3076
▁Peleg	-11.3076
▁abroad	-11.3076
▁exact	-11.3076
▁vile	-11.3076
▁baths	-11.3076
▁refrain	-11.3076
▁forbid	-11.3076
▁fragrance	-11.3076
▁Jeshaiah	-11.3076
▁Shishak	-11.3076
▁House	-11.3076
▁discretion	-11.3076
▁conspiracy	-11.3076
▁Shimron	-11.3076
▁Molech	-11.3076
▁Rahab	-11.3076
ished	-11.3076
▁Laadan	-11.3076
▁Eliakim	-11.3076
▁Elioenai	-11.3076
▁Enoch	-11.3076
▁grand	-11.3076
▁feel	-11.3076
▁Havilah	-11.3076
▁Pelethites	-11.3076
▁Jamin	-11.3076
▁individually	-11.3076
▁Bukki	-11.3076
inoam	-11.3076
▁brim	-11.3076
▁dash	-11.3076
▁madness	-11.3076
▁Meribah	-11.3076
▁knead	-11.3077
ident	-11.3077
▁Geshurites	-11.3077
▁raiders	-11.3077
▁coat	-11.3077
▁moreover	-11.3077
▁cleansing	-11.3077
▁mantle	-11.3078
▁guiltless	-11.3078
▁direction	-11.3078
▁Geshur	-11.3078
▁harass	-11.3078
▁supply	-11.3078
▁Urim	-11.3078
▁ugl	-11.3078
▁uproot	-11.3079
▁meditation	-11.3079
▁Maacah	-11.3079
▁Shammah	-11.3079
▁fin	-11.3079
▁Likewise	-11.3079
▁terrified	-11.308
▁misery	-11.308
▁Pit	-11.308
▁Shema	-11.308
▁Eliphelet	-11.3081
▁recorder	-11.3081
▁Enan	-11.3082
▁missing	-11.3082
▁workmen	-11.3082
▁dim	-11.3083
▁Lotan	-11.3083
aliah	-11.3083
▁maidens	-11.3083
▁Chaldeans	-11.3083
▁sown	-11.3084
▁Father	-11.3084
▁Adah	-11.3085
▁reapers	-11.3086
▁deceitfully	-11.3086
▁lick	-11.3087
▁mount	-11.3087
savory	-11.3088
Which	-11.3089
▁Truly	-11.3089
estore	-11.3089
▁regularly	-11.309
▁Day	-11.309
reserved	-11.3091
▁foolishly	-11.3091
▁Dishon	-11.3092
▁Cast	-11.3095
▁prosperous	-11.3095
▁evildoers	-11.3097
▁groves	-11.3097
cursed	-11.31
ater	-11.31
▁l	-11.3102
▁Abida	-11.3107
▁colors	-11.311
▁tur	-11.3112
▁devised	-11.3113
▁notice	-11.3113
▁blowing	-11.3115
▁clusters	-11.3124
▁Tola	-11.3128
▁believed	-11.3134
▁Lif	-11.3136
▁slow	-11.3137
▁mediums	-11.3138
▁restrained	-11.3148
▁ill	-11.315
’—	-11.3151
▁Get	-11.3152
▁Shimea	-11.3154
▁limits	-11.3166
le	-11.3169
its	-11.3171
▁Amen	-11.3176
▁frames	-11.3179
▁censers	-11.3179
▁rewarded	-11.3182
▁earthen	-11.3184
▁proverbs	-11.3193
aim	-11.3196
aniah	-11.3201
▁feasting	-11.3202
▁beam	-11.3205
this	-11.3211
ma	-11.3226
▁breathed	-11.3235
▁herbs	-11.3249
▁tunics	-11.3249
▁oven	-11.3299
▁moves	-11.3306
▁reproached	-11.3319
▁Speak	-11.3329
▁trespassed	-11.3343
▁fingers	-11.3348
▁muster	-11.3359
▁boils	-11.3362
▁labored	-11.3365
▁sounded	-11.3373
▁vines	-11.3376
▁thin	-11.3391
lew	-11.3393
▁serpents	-11.3404
▁sorrows	-11.3462
▁heel	-11.3474
▁honored	-11.348
they	-11.348
▁inform	-11.3495
▁robes	-11.3505
▁tall	-11.3515
▁stor	-11.3565
▁Mad	-11.3584
▁Shua	-11.3612
▁meal	-11.3616
om	-11.3652
▁wells	-11.3654
les	-11.367
▁blessings	-11.3682
ay	-11.3686
ek	-11.3782
▁journeys	-11.3828
▁waits	-11.3843
ig	-11.3858
fully	-11.3881
retched	-11.3889
▁drinks	-11.3898
erah	-11.3917
tes	-11.394
▁ours	-11.403
▁plagues	-11.4038
ows	-11.4052
don	-11.4113
R	-11.4122
als	-11.413
if	-11.416
▁Par	-11.4166
ba	-11.4171
▁Pur	-11.4187
ung	-11.4222
ram	-11.4238
▁finish	-11.4259
ence	-11.4265
his	-11.432
ad	-11.4344
low	-11.4356
▁answers	-11.4367
rs	-11.4409
thrown	-11.4459
obab	-11.4486
▁aveng	-11.4489
ian	-11.4521
▁excel	-11.4557
▁success	-11.456
tal	-11.4574
▁enclos	-11.458
eam	-11.4584
wer	-11.4589
lath	-11.4615
▁hip	-11.4633
well	-11.4634
▁Netophathite	-11.4643
▁lightning	-11.4648
▁brick	-11.4648
▁oppressor	-11.465
▁correct	-11.465
▁storehouse	-11.4651
▁fa	-11.4651
▁foreskin	-11.4652
▁merchant	-11.4656
▁capital	-11.4657
come	-11.4659
▁town	-11.466
▁sandal	-11.466
▁board	-11.466
▁di	-11.4665
▁socket	-11.4667
▁deed	-11.4669
▁Edomite	-11.467
▁wonder	-11.4677
▁bar	-11.4686
▁Lea	-11.4688
▁complain	-11.4703
▁borrow	-11.4703
asaph	-11.4704
N	-11.4708
Peace	-11.4709
▁hallow	-11.471
Hanan	-11.4711
▁includ	-11.4711
Baal	-11.4712
Moab	-11.4712
daughter	-11.4712
stones	-11.4712
wood	-11.4712
▁fam	-11.4714
bone	-11.4714
Pil	-11.4717
who	-11.4717
▁sum	-11.4721
cy	-11.4721
▁reckon	-11.4725
▁revive	-11.4727
▁Sin	-11.4733
▁entice	-11.4735
rib	-11.4736
second	-11.4737
ijah	-11.4737
▁Ethiopia	-11.4739
ause	-11.474
▁bush	-11.4741
▁Zebul	-11.4741
▁incline	-11.4741
▁Zabdi	-11.4742
▁Jahaz	-11.4742
▁reddish	-11.4742
sufficien	-11.4742
▁Abarim	-11.4742
▁Abihail	-11.4742
▁Ashtaroth	-11.4742
▁Azrikam	-11.4742
▁Delilah	-11.4742
▁Enosh	-11.4742
▁Gershom	-11.4742
▁Gibbethon	-11.4742
▁Gihon	-11.4742
▁Goliath	-11.4742
▁Hazeroth	-11.4742
▁Jediael	-11.4742
▁Machpelah	-11.4742
▁Meremoth	-11.4742
▁Methuselah	-11.4742
▁Mighty	-11.4742
▁Naioth	-11.4742
▁Pallu	-11.4742
▁Parosh	-11.4742
▁Philistia	-11.4742
▁Tabernacles	-11.4742
▁Tishbite	-11.4742
▁Zarhites	-11.4742
▁administer	-11.4742
▁bountifully	-11.4742
▁carpenters	-11.4742
▁craftsman	-11.4742
▁crafty	-11.4742
▁dispute	-11.4742
▁envy	-11.4742
▁expectation	-11.4742
▁group	-11.4742
▁implement	-11.4742
▁injustice	-11.4742
▁javelin	-11.4742
▁lute	-11.4742
▁mandrakes	-11.4742
▁midnight	-11.4742
▁mistress	-11.4742
▁ordained	-11.4742
▁outskirts	-11.4742
▁overpower	-11.4742
▁pattern	-11.4742
▁prudence	-11.4742
▁purifi	-11.4742
▁quota	-11.4742
▁renew	-11.4742
▁revenue	-11.4742
▁roughly	-11.4742
▁shrine	-11.4742
▁splendor	-11.4742
▁spouse	-11.4742
▁survivor	-11.4742
▁talebearer	-11.4742
▁taskmasters	-11.4742
▁unpunished	-11.4742
▁witchcraft	-11.4742
▁wreath	-11.4742
▁yesterday	-11.4742
▁Elimelech	-11.4742
▁size	-11.4742
▁Azarel	-11.4742
▁Azekah	-11.4742
▁Eshcol	-11.4742
▁Joktan	-11.4742
▁Zeeb	-11.4742
▁flint	-11.4742
▁slept	-11.4742
▁jewelry	-11.4742
▁Abib	-11.4742
▁Ahiezer	-11.4742
▁Taanach	-11.4742
▁crooked	-11.4742
▁Ammiel	-11.4742
▁vinegar	-11.4742
▁detest	-11.4742
▁stature	-11.4742
▁banish	-11.4742
▁grandson	-11.4742
▁previously	-11.4742
▁Amoz	-11.4742
▁Shammai	-11.4743
▁blight	-11.4743
▁Shaul	-11.4743
▁supplies	-11.4743
▁laughter	-11.4743
▁Ebed	-11.4743
▁Laish	-11.4743
▁magnified	-11.4743
▁confront	-11.4743
▁steward	-11.4743
▁conduct	-11.4743
▁craftsmen	-11.4743
phni	-11.4743
▁countries	-11.4743
▁usury	-11.4743
▁Talmai	-11.4743
▁jar	-11.4743
▁stew	-11.4743
▁wrongfully	-11.4743
▁Shilonite	-11.4743
▁Archite	-11.4743
▁invade	-11.4743
▁Achan	-11.4743
▁Gidd	-11.4743
▁Ahio	-11.4743
▁jaw	-11.4743
▁Jaala	-11.4743
▁Neph	-11.4743
▁Jael	-11.4743
▁lice	-11.4743
▁Azel	-11.4743
▁Salah	-11.4744
▁Rezin	-11.4744
▁Bebai	-11.4744
▁office	-11.4744
▁slander	-11.4744
▁repaid	-11.4744
▁acceptable	-11.4744
▁Tahath	-11.4744
▁proper	-11.4745
▁Uzzah	-11.4745
▁thistle	-11.4745
ported	-11.4746
▁conquered	-11.4746
▁streaked	-11.4746
▁forks	-11.4746
▁Supp	-11.4746
▁virginity	-11.4746
▁costly	-11.4746
▁Bind	-11.4746
▁Cainan	-11.4746
▁different	-11.4746
▁interest	-11.4746
▁camel	-11.4747
▁Oreb	-11.4747
▁cold	-11.4747
▁perfumer	-11.4747
▁Jared	-11.4747
▁Othniel	-11.4747
▁Mag	-11.4747
▁Gam	-11.4748
▁Shur	-11.4748
▁mate	-11.4748
rest	-11.4749
▁Big	-11.4749
▁forgot	-11.475
▁corruptly	-11.4751
▁yes	-11.4751
▁refined	-11.4751
▁registered	-11.4751
▁view	-11.4752
▁acquaintances	-11.4752
▁doorkeepers	-11.4752
▁straps	-11.4752
▁Asherah	-11.4753
▁spotted	-11.4753
▁blasphemed	-11.4756
▁Horites	-11.4756
▁skillfully	-11.4756
▁Arabia	-11.4758
▁Elim	-11.4758
▁advised	-11.4759
▁perishes	-11.4759
▁Today	-11.4759
▁Adin	-11.4759
▁faithfully	-11.476
▁Hebronites	-11.4761
▁plate	-11.4762
▁spent	-11.4763
▁leaf	-11.4763
▁murdered	-11.4763
▁Shean	-11.4764
▁watches	-11.4764
▁cook	-11.4765
▁start	-11.4765
▁bolts	-11.4767
▁slopes	-11.4768
▁warned	-11.4768
▁doom	-11.4769
puls	-11.477
being	-11.477
▁Aho	-11.4772
▁Ishmaelites	-11.4774
▁ax	-11.4774
▁hallowed	-11.4775
▁Gibeonites	-11.4776
took	-11.4778
▁Kishon	-11.4778
▁post	-11.478
umah	-11.4782
▁Ashtoreths	-11.4784
▁degrees	-11.4784
▁fifties	-11.4784
▁rituals	-11.4784
▁sticks	-11.4784
▁Ethiopians	-11.4784
▁span	-11.4786
▁directed	-11.4787
▁prisoners	-11.4787
▁Timna	-11.4787
▁loathe	-11.4788
▁uprightly	-11.4789
▁talking	-11.4789
▁deeply	-11.479
▁trap	-11.4794
▁submit	-11.4796
▁confirmed	-11.4799
▁escorts	-11.48
▁destroyer	-11.4803
▁shook	-11.4809
▁pace	-11.481
▁melted	-11.4814
▁folds	-11.4816
unt	-11.4818
▁sealed	-11.4819
▁bend	-11.4826
T	-11.483
▁shouting	-11.4832
▁foreskins	-11.4833
irah	-11.4837
ocks	-11.4841
▁stra	-11.4844
▁Bah	-11.4844
▁Moons	-11.485
▁waved	-11.485
human	-11.4853
▁inter	-11.4853
▁requested	-11.4858
▁Moza	-11.4873
▁mules	-11.4884
▁mouths	-11.4889
▁sabbaths	-11.49
lum	-11.4905
,“	-11.491
▁Josh	-11.4927
▁garrisons	-11.4934
ship	-11.4938
▁washing	-11.4939
▁shepherds	-11.4954
▁lavers	-11.4967
Some	-11.4979
lanks	-11.498
▁pots	-11.4984
▁Moabitess	-11.5018
▁blows	-11.5018
arrow	-11.5033
▁palaces	-11.5052
▁peri	-11.5059
mindful	-11.508
▁Israelite	-11.5119
▁longing	-11.5121
▁fails	-11.5122
are	-11.5138
▁error	-11.5141
▁blesse	-11.5142
shap	-11.5144
ollow	-11.5155
▁relat	-11.5181
▁Wo	-11.5214
hite	-11.5217
red	-11.5238
os	-11.528
▁rooms	-11.5281
rry	-11.5329
ab	-11.533
looking	-11.5346
tened	-11.5378
▁Ish	-11.5401
ither	-11.5423
▁weights	-11.5433
ate	-11.5442
thing	-11.5456
▁rep	-11.5482
vah	-11.5527
ze	-11.5555
▁Mesh	-11.5577
ave	-11.5678
▁content	-11.5679
arched	-11.5683
stern	-11.5703
arn	-11.5749
▁continu	-11.5769
ct	-11.5777
ering	-11.5792
stretche	-11.5817
ahath	-11.5859
▁fruits	-11.5887
ged	-11.5899
▁Ten	-11.5908
▁wars	-11.5976
ron	-11.6005
▁rocks	-11.6016
St	-11.602
ps	-11.6035
▁La	-11.6056
▁swords	-11.6064
▁Ara	-11.6066
▁shape	-11.607
ha	-11.6077
▁Ishi	-11.6082
▁withdraw	-11.61
itting	-11.6101
▁crush	-11.6105
eg	-11.6127
▁hat	-11.613
sk	-11.6142
onor	-11.63
z	-11.6305
ban	-11.6318
▁Jec	-11.6333
▁stretche	-11.638
tter	-11.6408
ture	-11.647
▁Pi	-11.6496
▁Ephrath	-11.6506
▁Sha	-11.6554
▁sp	-11.6581
ound	-11.659
▁plan	-11.6614
ash	-11.6634
▁dance	-11.6635
▁timbrel	-11.6644
▁question	-11.6648
▁apple	-11.6648
▁log	-11.665
▁bond	-11.665
▁contention	-11.6651
▁medium	-11.6653
▁Kenite	-11.6654
▁peg	-11.6656
▁street	-11.6656
▁dra	-11.6657
▁weapon	-11.6657
▁clothe	-11.6657
▁Perizzite	-11.6657
▁official	-11.6658
▁grape	-11.6658
va	-11.6658
▁panel	-11.6658
▁counselor	-11.6664
▁Midianite	-11.6668
▁join	-11.667
rained	-11.6672
▁consum	-11.6677
neath	-11.6687
▁fold	-11.6689
anah	-11.6689
▁dawn	-11.6691
ower	-11.6693
▁Reu	-11.6695
▁ripe	-11.6697
▁gu	-11.6698
▁Teman	-11.67
broth	-11.6702
▁Beeroth	-11.6707
Wait	-11.6709
Israel	-11.671
Listen	-11.671
Set	-11.671
Aaron	-11.6712
Saul	-11.6712
David	-11.6712
Per	-11.6712
‘	-11.6712
good	-11.6712
first	-11.6712
▁awaken	-11.6715
wise	-11.6716
▁lights	-11.672
▁nois	-11.672
▁ju	-11.6725
▁Ira	-11.6726
▁encourage	-11.6726
▁arrive	-11.6727
▁prophesy	-11.6727
▁advise	-11.6727
seventh	-11.6727
▁mid	-11.6729
▁Was	-11.6729
▁relie	-11.6732
▁fo	-11.6734
hood	-11.6734
▁Ahira	-11.6739
▁Jebus	-11.674
▁stole	-11.674
▁continual	-11.674
▁smooth	-11.6741
▁Husha	-11.6741
reak	-11.6741
estruction	-11.6741
▁displease	-11.6742
roclaim	-11.6742
▁Talm	-11.6742
chmas	-11.6742
evive	-11.6742
unning	-11.6742
circle	-11.6742
▁Poti	-11.6742
▁tambourine	-11.6742
aviah	-11.6742
▁Abijam	-11.6742
▁Achbor	-11.6742
▁Ahilud	-11.6742
▁Argob	-11.6742
▁Ashkelon	-11.6742
▁Becher	-11.6742
▁Chedorlaomer	-11.6742
▁Chemosh	-11.6742
▁Chenaanah	-11.6742
▁Etam	-11.6742
▁Galilee	-11.6742
▁Hadoram	-11.6742
▁Hammedatha	-11.6742
▁Hattaavah	-11.6742
▁Japhia	-11.6742
▁Joiarib	-11.6742
▁Jozadak	-11.6742
▁Mahlah	-11.6742
▁Media	-11.6742
▁Mesopotamia	-11.6742
▁Mizraim	-11.6742
▁Nimshi	-11.6742
▁Rehabiah	-11.6742
▁Rekem	-11.6742
▁Rephidim	-11.6742
▁Serug	-11.6742
▁Shammua	-11.6742
▁Shealtiel	-11.6742
▁Tekoite	-11.6742
▁Zohar	-11.6742
▁afford	-11.6742
▁annihilate	-11.6742
▁bundle	-11.6742
▁buttress	-11.6742
▁cavalry	-11.6742
▁dancing	-11.6742
▁deploy	-11.6742
▁derision	-11.6742
▁desperate	-11.6742
▁equal	-11.6742
▁evidence	-11.6742
▁futility	-11.6742
▁hamstr	-11.6742
▁handbreadth	-11.6742
▁helmet	-11.6742
▁homage	-11.6742
▁knives	-11.6742
▁lattice	-11.6742
▁lawgiver	-11.6742
▁ministry	-11.6742
▁mirth	-11.6742
▁mistreat	-11.6742
▁powder	-11.6742
▁promote	-11.6742
▁protect	-11.6742
▁razor	-11.6742
▁response	-11.6742
▁rigor	-11.6742
▁rubies	-11.6742
▁script	-11.6742
▁succeed	-11.6742
▁surprise	-11.6742
▁sycamore	-11.6742
▁taking	-11.6742
▁torrent	-11.6742
▁vapor	-11.6742
▁vulture	-11.6742
▁whisper	-11.6742
▁Ammishaddai	-11.6742
▁Jeremoth	-11.6742
▁Ocran	-11.6742
▁Pedahzur	-11.6742
▁Shedeur	-11.6742
▁Zurishaddai	-11.6742
▁arrange	-11.6742
▁carnally	-11.6742
▁doubt	-11.6742
▁footstool	-11.6742
▁heavi	-11.6742
▁intimately	-11.6742
▁nineteen	-11.6742
▁peaceably	-11.6742
▁tempest	-11.6742
▁thoroughly	-11.6742
▁Abishua	-11.6742
▁Hararite	-11.6742
▁Malchishua	-11.6742
▁encircl	-11.6742
▁enlighten	-11.6742
▁Dodo	-11.6742
▁Hosah	-11.6742
▁Shethar	-11.6742
▁landmark	-11.6742
▁skies	-11.6742
▁Hushathite	-11.6742
▁Zanoah	-11.6742
▁flax	-11.6742
▁Gedi	-11.6742
▁Koz	-11.6742
▁brow	-11.6742
▁gaunt	-11.6742
▁unrighteous	-11.6742
▁Shuhite	-11.6742
▁Libni	-11.6742
▁Pashhur	-11.6742
▁insert	-11.6742
▁pilgrimage	-11.6742
▁rebuild	-11.6742
▁busy	-11.6742
▁impute	-11.6742
▁Dedan	-11.6742
▁Salma	-11.6742
▁shortened	-11.6742
▁Lehi	-11.6742
▁mortar	-11.6743
▁Eshtemoa	-11.6743
▁Pirathonite	-11.6743
▁Rephaiah	-11.6743
▁fret	-11.6743
▁Helon	-11.6743
▁foxes	-11.6743
▁Asshur	-11.6743
▁Cheph	-11.6743
▁Hashum	-11.6743
▁Shimri	-11.6743
que	-11.6743
▁defied	-11.6743
▁Dishan	-11.6743
▁Nahath	-11.6743
▁Shelemiah	-11.6743
▁Weeks	-11.6743
▁trod	-11.6743
▁Michaiah	-11.6743
▁Naamah	-11.6743
▁Assir	-11.6743
▁Under	-11.6743
▁presumptuously	-11.6743
▁state	-11.6743
▁Nob	-11.6743
▁Zuar	-11.6743
▁bracelet	-11.6743
▁rash	-11.6743
▁Anath	-11.6743
▁drunkard	-11.6743
▁cleft	-11.6743
▁Sheshan	-11.6743
▁Eliz	-11.6743
▁justify	-11.6744
▁Haggith	-11.6744
▁Jezreelitess	-11.6744
▁Ephrathah	-11.6744
▁Adr	-11.6744
▁millstone	-11.6744
▁couch	-11.6744
▁prophetess	-11.6744
▁foes	-11.6744
Achsah	-11.6744
▁dispersed	-11.6744
▁Bezer	-11.6744
▁Eder	-11.6745
▁whip	-11.6745
▁Purim	-11.6745
▁stag	-11.6745
▁Zerahiah	-11.6745
▁pursuers	-11.6745
▁countryside	-11.6745
▁Hab	-11.6745
▁Serah	-11.6745
▁Nek	-11.6745
▁liar	-11.6746
ntel	-11.6746
▁adultery	-11.6746
▁Carmelite	-11.6746
▁Marah	-11.6746
▁Ataroth	-11.6747
▁Abiezer	-11.6747
▁Zephon	-11.6747
▁Palti	-11.6747
▁alter	-11.6747
▁quietness	-11.6747
▁mad	-11.6747
▁Jahaziel	-11.6747
▁Shepherd	-11.6748
▁purchased	-11.6748
▁Thummim	-11.6748
▁tax	-11.6748
▁shade	-11.6748
▁Ophel	-11.6749
▁firmly	-11.6749
amoth	-11.6749
▁cost	-11.6749
urim	-11.6751
▁cutting	-11.6751
▁Ur	-11.6751
▁faded	-11.6751
ladah	-11.6752
▁Gideoni	-11.6752
aliel	-11.6753
▁childless	-11.6753
▁meddle	-11.6753
▁spiritists	-11.6754
▁tempt	-11.6754
▁distresses	-11.6754
▁ability	-11.6754
▁divorced	-11.6755
▁axes	-11.6756
your	-11.6757
▁spit	-11.6757
▁Ono	-11.6758
▁arrived	-11.6758
▁encouraged	-11.6758
▁prophesying	-11.6758
upha	-11.6759
▁wipe	-11.6759
▁listed	-11.6761
▁Korahites	-11.6762
▁courageous	-11.6765
▁lowly	-11.6765
▁stumbled	-11.6765
uild	-11.6766
▁valiantly	-11.6766
▁inclined	-11.6766
▁fatness	-11.6766
▁wink	-11.6767
▁smaller	-11.6767
▁semen	-11.6769
▁Ithrite	-11.6771
▁Baalah	-11.6771
▁stair	-11.6772
▁Girgashites	-11.6774
▁Maachathites	-11.6774
▁artisans	-11.6774
▁sheepfolds	-11.6774
▁Ater	-11.6776
▁Wait	-11.6776
▁daytime	-11.6777
▁gushe	-11.6778
▁Beerothite	-11.6779
▁frost	-11.678
▁wiser	-11.6783
▁Peace	-11.6784
▁wick	-11.6785
”?	-11.6786
▁scourges	-11.6786
▁Acacia	-11.6787
▁shaved	-11.6792
▁rider	-11.6793
▁ba	-11.6794
▁ranks	-11.6794
▁reeds	-11.6794
▁Adma	-11.6795
▁Gesh	-11.6797
▁playing	-11.6798
▁toiled	-11.6799
▁br	-11.6801
▁concealed	-11.6805
▁traveler	-11.6806
▁shone	-11.6807
▁gleaned	-11.6812
▁wheels	-11.6814
▁boughs	-11.6814
▁heat	-11.6816
▁sash	-11.6821
▁offal	-11.6822
▁swell	-11.6825
▁recovered	-11.6834
▁bonds	-11.6835
▁dances	-11.6835
▁Refu	-11.6838
▁condemned	-11.6842
▁laughed	-11.6843
▁prolonged	-11.6849
▁Ard	-11.6855
▁corrects	-11.6856
▁storehouses	-11.6856
aharai	-11.6858
▁course	-11.686
▁clap	-11.6862
▁Jesh	-11.6863
▁wronged	-11.6871
lets	-11.6884
chased	-11.6889
▁Jeri	-11.6889
adiah	-11.6895
▁dens	-11.6896
hor	-11.6917
▁pools	-11.6918
▁Men	-11.6926
▁ruins	-11.6939
▁pastures	-11.6939
▁highways	-11.694
▁listening	-11.6942
stand	-11.6954
▁bea	-11.6957
▁Almo	-11.6958
▁roots	-11.696
▁visions	-11.696
▁banks	-11.696
▁tool	-11.6966
▁bribes	-11.698
▁plagued	-11.6985
▁fighting	-11.6991
verse	-11.6998
▁prostrat	-11.7002
pe	-11.701
oda	-11.7027
▁bl	-11.7048
▁Other	-11.7061
▁lean	-11.708
▁ordered	-11.71
▁Sham	-11.7103
▁maids	-11.7107
▁Ain	-11.7143
▁fleet	-11.7147
▁Zered	-11.7185
▁swears	-11.7197
fallen	-11.7208
▁handle	-11.7304
dah	-11.7305
▁Forever	-11.7312
▁appl	-11.7315
bai	-11.7338
▁gardens	-11.7344
▁oppresse	-11.7353
za	-11.7368
ling	-11.7375
▁receives	-11.7394
▁Bo	-11.7407
drawn	-11.7418
tha	-11.7428
muel	-11.7445
▁Shoba	-11.7448
▁reveren	-11.745
▁scribes	-11.7453
fold	-11.7472
▁endow	-11.7484
▁Harsh	-11.7488
▁backs	-11.7516
sai	-11.7555
▁Sta	-11.7579
▁widows	-11.7587
▁ministers	-11.7612
▁understands	-11.7634
aph	-11.7641
ess	-11.7685
▁dar	-11.772
▁working	-11.7761
▁Ad	-11.7783
▁De	-11.7791
▁doings	-11.782
▁hairs	-11.7837
▁Guni	-11.7926
▁contentio	-11.7927
ter	-11.7961
▁edges	-11.7975
▁Dea	-11.7992
▁imm	-11.8
▁Esh	-11.8002
orse	-11.8006
how	-11.8014
▁obs	-11.8039
▁Beside	-11.8042
▁wo	-11.8083
▁shear	-11.8099
owed	-11.8147
▁Zel	-11.8182
▁overthr	-11.8237
ni	-11.8289
c	-11.8294
▁searche	-11.8296
ice	-11.8327
ub	-11.8349
ger	-11.8374
▁Hach	-11.8383
▁loa	-11.8404
raged	-11.8407
alt	-11.8412
uah	-11.846
da	-11.8478
▁Yea	-11.8498
▁Ir	-11.8505
ail	-11.8537
▁gore	-11.8538
uth	-11.8552
ber	-11.8563
▁scrape	-11.8566
▁Shi	-11.863
aiah	-11.8634
lai	-11.8643
errors	-11.8646
ily	-11.8657
▁striv	-11.8689
van	-11.8696
▁cou	-11.8722
▁Shu	-11.8754
shah	-11.8788
▁fac	-11.8788
▁Zer	-11.8806
llen	-11.8839
▁fl	-11.886
mo	-11.8866
▁Cher	-11.8887
arah	-11.8905
ip	-11.8959
▁se	-11.8972
▁glorif	-11.8976
head	-11.8978
lan	-11.9041
▁Ab	-11.9051
void	-11.9079
▁robb	-11.9082
wear	-11.9094
aving	-11.9099
cede	-11.9107
Zebu	-11.9114
M	-11.9119
▁sapphire	-11.9134
▁flute	-11.9134
▁limb	-11.9134
▁fault	-11.9134
headed	-11.9143
▁engraving	-11.9144
▁provocation	-11.9144
▁cheek	-11.9144
▁Mar	-11.9145
▁bough	-11.9146
▁omer	-11.9146
▁warrior	-11.9148
▁wheel	-11.9151
▁escort	-11.9152
▁cluster	-11.9153
▁blossom	-11.9155
▁eunuch	-11.9156
▁devo	-11.9158
▁descendant	-11.9159
▁elder	-11.916
ttend	-11.916
ne	-11.9167
trong	-11.9174
▁terrif	-11.9175
ounted	-11.9183
appeared	-11.9186
▁Ephraimite	-11.9189
break	-11.919
▁noble	-11.9192
riers	-11.9195
▁Moabite	-11.9196
▁joint	-11.9198
qui	-11.92
▁murder	-11.9201
than	-11.9202
Drink	-11.9202
▁fowl	-11.9203
▁hinder	-11.9205
▁judg	-11.9205
▁prais	-11.9206
▁sacrific	-11.9206
Beware	-11.9206
Keep	-11.9211
passed	-11.9212
struck	-11.9212
indeed	-11.9212
Jacob	-11.9212
Moses	-11.9212
also	-11.9213
▁difficult	-11.9214
An	-11.9214
white	-11.9216
▁Arab	-11.9218
does	-11.9219
holy	-11.9224
airs	-11.9224
▁groan	-11.9225
these	-11.9226
▁divorce	-11.9227
▁rob	-11.9227
▁multiplie	-11.9228
▁scoff	-11.9231
Shout	-11.9233
▁terri	-11.9233
▁perfume	-11.9236
▁oversee	-11.9236
ummim	-11.9236
ug	-11.9236
▁mul	-11.9237
▁harsh	-11.9237
amari	-11.9238
▁supp	-11.9238
▁Micha	-11.9239
onsecrate	-11.924
▁Mishma	-11.924
Aha	-11.924
um	-11.924
▁Pelet	-11.9241
▁Zeboi	-11.9241
▁famili	-11.9241
▁idle	-11.9241
▁process	-11.9241
▁Rogel	-11.9241
jamin	-11.9242
repare	-11.9242
▁govern	-11.9242
elemiah	-11.9242
tinguish	-11.9242
stitute	-11.9242
educed	-11.9242
▁accompan	-11.9242
▁Tubal	-11.9242
▁necklace	-11.9242
Boznai	-11.9242
Exalt	-11.9242
Glory	-11.9242
Rishathaim	-11.9242
Rizpah	-11.9242
abzeel	-11.9242
Ē	-11.9242
▁Anointed	-11.9242
▁Atonement	-11.9242
▁Aven	-11.9242
▁Azubah	-11.9242
▁Cease	-11.9242
▁Chinnereth	-11.9242
▁Eleasah	-11.9242
▁Elnathan	-11.9242
▁Gerizim	-11.9242
▁Gozan	-11.9242
▁Hahiroth	-11.9242
▁Hasshub	-11.9242
▁Japhlet	-11.9242
▁Jattir	-11.9242
▁Jehonathan	-11.9242
▁Jeshimon	-11.9242
▁Joiada	-11.9242
▁Joiakim	-11.9242
▁Jokneam	-11.9242
▁Kedar	-11.9242
▁Keveh	-11.9242
▁Leviathan	-11.9242
▁Mahlon	-11.9242
▁Nebajoth	-11.9242
▁Paseah	-11.9242
▁Perazim	-11.9242
▁Pethahiah	-11.9242
▁Rameses	-11.9242
▁Salcah	-11.9242
▁Shebna	-11.9242
▁Shemida	-11.9242
▁Sheshbazzar	-11.9242
▁Shuthelah	-11.9242
▁Tattenai	-11.9242
▁Zattu	-11.9242
▁allotment	-11.9242
▁announce	-11.9242
▁assistant	-11.9242
▁associate	-11.9242
▁bereaved	-11.9242
▁bondwoman	-11.9242
▁bottom	-11.9242
▁boundaries	-11.9242
▁bridle	-11.9242
▁bruise	-11.9242
▁channel	-11.9242
▁controvers	-11.9242
▁deaf	-11.9242
▁disfigure	-11.9242
▁disquiet	-11.9242
▁effect	-11.9242
▁enchantments	-11.9242
▁expose	-11.9242
▁felt	-11.9242
▁fodder	-11.9242
▁gentle	-11.9242
▁gerahs	-11.9242
▁girl	-11.9242
▁glutton	-11.9242
▁habitation	-11.9242
▁holiday	-11.9242
▁hoof	-11.9242
▁humility	-11.9242
▁inaugurate	-11.9242
▁inquiry	-11.9242
▁intestines	-11.9242
▁knife	-11.9242
▁lofty	-11.9242
▁marble	-11.9242
▁minas	-11.9242
▁nails	-11.9242
▁ostrich	-11.9242
▁physicians	-11.9242
▁propose	-11.9242
▁quail	-11.9242
▁quaked	-11.9242
▁revile	-11.9242
▁sanctuaries	-11.9242
▁satraps	-11.9242
▁scapegoat	-11.9242
▁soothsaying	-11.9242
▁stubble	-11.9242
▁subsided	-11.9242
▁survive	-11.9242
▁tassel	-11.9242
▁throat	-11.9242
▁trough	-11.9242
▁vintage	-11.9242
ammelech	-11.9242
indicate	-11.9242
▁Covenant	-11.9242
▁Hegai	-11.9242
▁Jabez	-11.9242
▁Jehozabad	-11.9242
▁Medeba	-11.9242
▁Mikloth	-11.9242
▁chainwork	-11.9242
▁emptied	-11.9242
▁entry	-11.9242
▁grope	-11.9242
▁realize	-11.9242
▁Asriel	-11.9242
▁Commander	-11.9242
▁Naamathite	-11.9242
▁Sepharvaim	-11.9242
▁adorn	-11.9242
▁armrests	-11.9242
▁curren	-11.9242
▁overrule	-11.9242
▁repeat	-11.9242
▁threshold	-11.9242
▁displeasure	-11.9242
▁cubs	-11.9242
▁Jokshan	-11.9242
▁Alemeth	-11.9242
▁Grove	-11.9242
▁Hathach	-11.9242
▁equipment	-11.9242
▁space	-11.9242
▁vegeta	-11.9242
▁unjust	-11.9242
uhim	-11.9242
▁divination	-11.9242
▁occupation	-11.9242
▁Jezer	-11.9242
▁shrewd	-11.9242
▁Henadad	-11.9242
▁ravine	-11.9242
▁Hushim	-11.9242
▁noonday	-11.9242
▁repent	-11.9242
▁deput	-11.9242
▁linger	-11.9243
▁vigor	-11.9243
▁Abinoam	-11.9243
▁Bilhan	-11.9243
▁deprive	-11.9243
▁lent	-11.9243
▁pangs	-11.9243
bserve	-11.9243
▁Rich	-11.9243
▁Javan	-11.9243
▁Deuel	-11.9243
▁Shinar	-11.9243
▁Jeho	-11.9243
▁Jaakan	-11.9243
▁Zemar	-11.9243
▁Zeresh	-11.9243
▁fury	-11.9243
▁Etham	-11.9243
▁Meshech	-11.9243
▁opinion	-11.9243
▁Ashbel	-11.9243
▁Avi	-11.9243
▁mire	-11.9243
▁Gomer	-11.9243
▁whirl	-11.9243
▁Sepher	-11.9243
▁hurry	-11.9243
▁Gaash	-11.9243
▁Kedemoth	-11.9243
▁claim	-11.9243
ebuke	-11.9243
▁Reaiah	-11.9243
▁flight	-11.9243
▁wrestl	-11.9243
▁aloes	-11.9243
▁encouragement	-11.9243
▁rats	-11.9243
cene	-11.9243
▁Elizaphan	-11.9243
▁Lud	-11.9243
▁Nemuel	-11.9243
chai	-11.9243
▁dying	-11.9243
▁treachery	-11.9243
▁blaspheme	-11.9243
▁self	-11.9243
▁Shiph	-11.9243
▁abuse	-11.9243
▁Zu	-11.9243
▁Massah	-11.9243
▁Naarah	-11.9243
▁torches	-11.9243
▁Addar	-11.9243
▁naturally	-11.9243
▁Attai	-11.9243
▁Eliada	-11.9243
gad	-11.9243
▁plaster	-11.9243
▁burdensome	-11.9243
▁Ches	-11.9243
▁stork	-11.9243
▁Redeemer	-11.9243
▁loom	-11.9243
hanan	-11.9243
▁Hamul	-11.9244
ries	-11.9244
▁lineage	-11.9244
▁fix	-11.9244
▁twins	-11.9244
ellow	-11.9244
▁construction	-11.9244
▁mute	-11.9244
▁Walk	-11.9244
▁Michah	-11.9244
▁Hul	-11.9244
▁Puah	-11.9244
▁sashes	-11.9244
▁Uriel	-11.9244
rought	-11.9244
▁Shamir	-11.9245
▁confused	-11.9245
▁sighing	-11.9245
▁lamentation	-11.9245
▁Rehoboth	-11.9245
▁Anathothite	-11.9245
itor	-11.9245
▁Strengthen	-11.9246
thai	-11.9246
▁tenons	-11.9246
▁harmful	-11.9246
▁Baalath	-11.9247
▁blindness	-11.9247
▁detain	-11.9247
▁unfaithfulness	-11.9247
▁wrap	-11.9247
▁Mesha	-11.9247
▁discovered	-11.9248
▁erred	-11.9248
▁Aholiab	-11.9248
▁Hattush	-11.9248
▁Helez	-11.9248
▁rot	-11.9248
ffer	-11.9248
▁Oboth	-11.9248
▁hunter	-11.9249
▁mail	-11.9249
▁stric	-11.9249
▁dism	-11.9249
▁worn	-11.9249
▁discouraged	-11.9249
▁Merib	-11.925
▁anywhere	-11.925
▁recount	-11.925
▁late	-11.9251
▁Sharon	-11.9251
▁Ker	-11.9251
▁spite	-11.9252
▁Ashan	-11.9252
▁Bow	-11.9252
▁Doeg	-11.9253
▁loss	-11.9254
▁Amasai	-11.9254
▁violently	-11.9254
▁amount	-11.9254
▁sevenfold	-11.9255
▁securely	-11.9255
▁strange	-11.9256
▁Bethlehemite	-11.9257
rity	-11.9257
▁Mish	-11.9257
▁diminished	-11.9257
▁esteemed	-11.9257
▁Help	-11.9257
▁crops	-11.9258
▁Hagrites	-11.9258
▁stout	-11.9258
▁Sam	-11.9259
▁Onam	-11.9259
▁Malchiel	-11.926
▁Rejoice	-11.926
▁fever	-11.9261
▁obedient	-11.9261
▁gall	-11.9262
▁sense	-11.9263
▁dawning	-11.9263
▁showers	-11.9265
▁graciously	-11.9265
▁Ithr	-11.9267
▁quenched	-11.9267
▁erected	-11.9267
▁pointed	-11.9267
▁Eliah	-11.9268
lessly	-11.9269
▁refreshed	-11.927
▁Danites	-11.9271
▁diam	-11.9271
▁striving	-11.9272
▁moth	-11.9272
▁greed	-11.9273
▁demo	-11.9273
▁revived	-11.9273
▁disappear	-11.9274
och	-11.9279
ud	-11.9279
▁ago	-11.9283
▁buds	-11.9283
▁va	-11.9284
▁banners	-11.9284
▁quarters	-11.9284
▁Jashub	-11.9284
▁persuaded	-11.9286
▁loosed	-11.9286
▁dishe	-11.9287
▁chastening	-11.9287
rain	-11.9288
▁mortal	-11.9288
ag	-11.9289
▁comforters	-11.9289
▁Da	-11.9294
▁Lod	-11.9294
▁plainly	-11.9296
▁Per	-11.9302
▁Buz	-11.9304
▁Laha	-11.9305
▁frightened	-11.9305
▁rav	-11.9307
▁Zetha	-11.931
▁psalms	-11.931
▁victims	-11.931
▁points	-11.9311
▁Ak	-11.9311
▁Aiah	-11.9312
▁learning	-11.9319
▁expel	-11.932
▁Hall	-11.932
▁leans	-11.9321
▁compar	-11.9324
hu	-11.9324
▁delayed	-11.9325
▁warriors	-11.9337
▁unit	-11.9345
▁farthe	-11.9346
made	-11.9363
▁logs	-11.9365
▁questions	-11.9365
▁contentions	-11.9365
lay	-11.9367
there	-11.9373
▁fords	-11.938
▁Ephraimites	-11.9385
rooms	-11.9385
▁bricks	-11.9392
▁lightnings	-11.9392
▁oppressors	-11.9393
▁sway	-11.9398
▁lacking	-11.9399
▁Persian	-11.9401
ins	-11.9412
iph	-11.9417
▁schemes	-11.9419
▁warn	-11.942
▁snared	-11.9423
ool	-11.9424
▁boastful	-11.9433
▁bestow	-11.9447
di	-11.9455
▁righteously	-11.9466
rim	-11.9469
▁Abdi	-11.947
▁diseases	-11.9474
?’—	-11.9477
Li	-11.9479
▁gra	-11.9482
ran	-11.9491
lic	-11.9499
ier	-11.95
▁Ev	-11.951
▁beards	-11.9511
bhar	-11.9512
she	-11.9518
ol	-11.952
ited	-11.9529
▁gazelles	-11.953
▁scatters	-11.9531
▁knobs	-11.9558
▁abides	-11.9558
▁Ammonitess	-11.9558
▁cor	-11.9563
▁lowlands	-11.9565
east	-11.9575
abel	-11.9585
jah	-11.9608
▁Gather	-11.9612
▁supports	-11.9614
▁laughs	-11.9615
Good	-11.9644
▁rebels	-11.9648
ariah	-11.9653
ments	-11.9665
▁Sho	-11.9685
▁baskets	-11.9698
▁strings	-11.9699
▁keepers	-11.9707
▁mal	-11.9722
▁Rib	-11.9722
▁bases	-11.9761
▁shin	-11.9761
▁Zeb	-11.9776
sured	-11.9794
▁measures	-11.9822
▁Se	-11.9827
eers	-11.9848
▁lock	-11.9899
▁escapes	-11.99
▁Bilga	-11.991
lain	-11.9916
▁secrets	-11.9928
dom	-11.9941
▁casting	-11.996
▁und	-11.9976
ered	-11.9983
▁Ari	-12.0007
rcy	-12.002
▁Bear	-12.003
▁asks	-12.004
▁Meon	-12.0041
▁en	-12.0048
▁prospers	-12.005
ating	-12.0176
hem	-12.0182
▁shadows	-12.0193
▁arises	-12.0194
▁res	-12.0196
▁Ramath	-12.0207
▁car	-12.0239
ra	-12.0247
▁Col	-12.0248
▁withers	-12.0256
held	-12.0263
ff	-12.0275
lump	-12.0276
▁Hop	-12.0277
ingly	-12.0282
Sit	-12.0286
▁Bu	-12.0286
ests	-12.0299
Sta	-12.0304
▁pits	-12.0326
ez	-12.0332
ions	-12.0357
▁Zoph	-12.0385
▁rec	-12.0392
▁passing	-12.0399
▁Bar	-12.0409
▁Ama	-12.0421
▁battles	-12.0422
aware	-12.0425
dge	-12.0515
enath	-12.0543
▁offend	-12.0569
▁tables	-12.0626
abb	-12.0639
abbim	-12.0647
ine	-12.0651
▁observ	-12.0663
▁Sa	-12.0669
▁counsels	-12.0687
▁beds	-12.0825
ure	-12.0845
ibbe	-12.0861
hile	-12.0909
han	-12.0933
eresh	-12.0936
▁guid	-12.1049
de	-12.1072
▁departs	-12.112
ull	-12.1169
▁Zopha	-12.1171
▁tongues	-12.1207
nd	-12.1231
ent	-12.128
Arad	-12.131
▁stud	-12.1313
atha	-12.1317
▁sta	-12.1331
dding	-12.1384
formed	-12.1384
ual	-12.1432
▁emb	-12.1472
Not	-12.1515
▁Ash	-12.1518
rath	-12.1549
hereth	-12.1559
▁overlook	-12.1562
ping	-12.1567
▁Shar	-12.1582
▁Cho	-12.1593
▁husbands	-12.1617
▁wove	-12.1629
ened	-12.163
alah	-12.1634
▁crosse	-12.1639
▁sisters	-12.1653
hah	-12.1678
haiah	-12.168
▁ab	-12.1708
▁rag	-12.1714
gah	-12.1728
arm	-12.1736
dan	-12.1747
ightly	-12.1757
shan	-12.1774
res	-12.1784
▁pr	-12.1789
▁Ach	-12.179
▁Si	-12.1831
pon	-12.1853
▁su	-12.1858
▁Ij	-12.1888
▁Haggi	-12.1904
▁weari	-12.1907
rk	-12.1976
ious	-12.1984
▁Kit	-12.1991
ved	-12.2004
Carry	-12.2017
▁Never	-12.2087
▁divid	-12.2097
L	-12.2112
▁prostrate	-12.2128
mor	-12.2131
x	-12.2131
▁refresh	-12.2143
ta	-12.2151
▁Heres	-12.2164
▁Pul	-12.222
rushed	-12.2231
ument	-12.2235
ving	-12.2261
▁comm	-12.2273
shua	-12.2282
ified	-12.2292
ca	-12.2297
▁com	-12.2298
uck	-12.2302
hi	-12.2303
▁activ	-12.2329
▁mu	-12.2333
▁bur	-12.2341
▁Co	-12.2378
lt	-12.2399
ut	-12.2406
un	-12.2413
reason	-12.2415
here	-12.2426
light	-12.243
▁clas	-12.2446
rites	-12.2448
▁point	-12.2448
▁ve	-12.2454
▁cobra	-12.2467
▁debt	-12.2467
▁fugitive	-12.2467
▁idol	-12.247
pot	-12.2471
▁pick	-12.2472
▁housetop	-12.2473
▁psalm	-12.2482
▁victim	-12.2482
▁loath	-12.2485
▁Ashtoreth	-12.2486
▁degree	-12.2486
▁ritual	-12.2486
▁fiftie	-12.2486
▁color	-12.2487
▁stick	-12.2487
under	-12.2489
wesome	-12.2489
▁instrument	-12.2492
▁Ethiopian	-12.2492
▁pole	-12.2492
▁deserve	-12.2492
came	-12.2493
▁rank	-12.2494
▁cow	-12.2494
given	-12.2499
ify	-12.2501
▁Hez	-12.2502
anctify	-12.2503
moke	-12.2504
▁Amalekite	-12.2504
▁prisoner	-12.2506
ink	-12.2512
▁grind	-12.2512
▁hook	-12.2515
rejoice	-12.252
put	-12.2524
cing	-12.2526
▁para	-12.2526
▁def	-12.2528
▁miss	-12.2528
▁ple	-12.2536
Hurry	-12.2536
ickedness	-12.2537
▁increas	-12.2539
▁desir	-12.2539
Bezek	-12.254
post	-12.254
Cho	-12.2541
Nei	-12.2541
passing	-12.2541
greed	-12.2541
Vani	-12.2542
▁quench	-12.2542
▁erect	-12.2542
Today	-12.2543
Truly	-12.2543
Cast	-12.2543
Men	-12.2544
Arba	-12.2544
Qu	-12.2545
Deliver	-12.2545
visit	-12.2545
raised	-12.2545
Even	-12.2545
work	-12.2545
Abner	-12.2545
Elijah	-12.2545
opened	-12.2545
foot	-12.2545
Nevertheless	-12.2545
coming	-12.2545
Samuel	-12.2545
Joseph	-12.2545
Pharaoh	-12.2545
twenty	-12.2545
Judah	-12.2545
wife	-12.2545
place	-12.2545
▁descend	-12.2545
ninth	-12.2545
harden	-12.2546
year	-12.2546
bow	-12.2546
wept	-12.2546
shadow	-12.2547
gave	-12.2547
known	-12.2547
before	-12.2547
ountain	-12.2548
▁custod	-12.2551
▁Shob	-12.2551
▁majest	-12.2551
▁territor	-12.2552
▁vanit	-12.2553
alk	-12.2553
twelve	-12.2555
▁complete	-12.2556
Eat	-12.2557
fresh	-12.2558
▁determine	-12.2561
▁sanctifie	-12.2561
▁hire	-12.2562
▁clo	-12.2562
welve	-12.2563
ep	-12.2564
▁settle	-12.2564
attered	-12.2564
▁circumcise	-12.2565
▁fasten	-12.2565
itate	-12.2566
▁Gal	-12.2566
▁Naph	-12.2566
▁prophe	-12.2567
bza	-12.2568
▁differen	-12.2568
▁pu	-12.2569
▁marvel	-12.2569
▁fir	-12.2572
bri	-12.2573
▁Tema	-12.2573
shaph	-12.2573
orner	-12.2573
cutters	-12.2573
▁compa	-12.2574
▁vanish	-12.2574
▁Zalmon	-12.2574
▁Milc	-12.2574
▁Zacc	-12.2575
eclare	-12.2575
▁fade	-12.2575
▁magnif	-12.2575
▁fu	-12.2575
hearted	-12.2575
▁bold	-12.2575
arvelous	-12.2576
ntreat	-12.2576
escue	-12.2576
▁trade	-12.2576
umber	-12.2576
▁Ginnetho	-12.2576
▁Meshillem	-12.2576
kke	-12.2576
ntiful	-12.2576
quo	-12.2576
–	-12.2576
▁Ahava	-12.2576
▁Aramaic	-12.2576
▁Bunni	-12.2576
▁Chinneroth	-12.2576
▁Commandments	-12.2576
▁Daberath	-12.2576
▁Ebenezer	-12.2576
▁Elpaal	-12.2576
▁Emim	-12.2576
▁Gedaliah	-12.2576
▁Hagoyim	-12.2576
▁Instead	-12.2576
▁Jaddua	-12.2576
▁Jeshurun	-12.2576
▁Joppa	-12.2576
▁Jotbathah	-12.2576
▁Judgment	-12.2576
▁Kelita	-12.2576
▁Kemuel	-12.2576
▁Kenizzite	-12.2576
▁Mattenai	-12.2576
▁Mehetabel	-12.2576
▁Meholah	-12.2576
▁Memucan	-12.2576
▁Mephaath	-12.2576
▁Merab	-12.2576
▁Nimrah	-12.2576
▁Nimrod	-12.2576
▁Nineveh	-12.2576
▁Peninnah	-12.2576
▁Possess	-12.2576
▁Presence	-12.2576
▁Sallu	-12.2576
▁Scatter	-12.2576
▁Segub	-12.2576
▁Shabbethai	-12.2576
▁Shebuel	-12.2576
▁Shubael	-12.2576
▁Shunem	-12.2576
▁Tahpenes	-12.2576
▁Thebez	-12.2576
▁Tremble	-12.2576
▁Zaretan	-12.2576
▁Zoan	-12.2576
▁adjoin	-12.2576
▁admonish	-12.2576
▁appease	-12.2576
▁arrogan	-12.2576
▁asleep	-12.2576
▁beautify	-12.2576
▁bloom	-12.2576
▁bramble	-12.2576
▁buckler	-12.2576
▁ceiling	-12.2576
▁champion	-12.2576
▁cheese	-12.2576
▁cinnamon	-12.2576
▁circuit	-12.2576
▁circumference	-12.2576
▁cistern	-12.2576
▁cliff	-12.2576
▁compel	-12.2576
▁composition	-12.2576
▁compound	-12.2576
▁comprehend	-12.2576
▁covetousness	-12.2576
▁cream	-12.2576
▁crimson	-12.2576
▁delicacies	-12.2576
▁delicate	-12.2576
▁demand	-12.2576
▁denounce	-12.2576
▁dignity	-12.2576
▁dungeon	-12.2576
▁earthquake	-12.2576
▁enmity	-12.2576
▁enrich	-12.2576
▁expense	-12.2576
▁express	-12.2576
▁feathers	-12.2576
▁firepans	-12.2576
▁floodwater	-12.2576
▁futile	-12.2576
▁generosity	-12.2576
▁grandchildren	-12.2576
▁immediately	-12.2576
▁implore	-12.2576
▁innocence	-12.2576
▁intact	-12.2576
▁lizard	-12.2576
▁overnight	-12.2576
▁pavement	-12.2576
▁pavilion	-12.2576
▁pollute	-12.2576
▁potsherd	-12.2576
▁project	-12.2576
▁quarrie	-12.2576
▁quarry	-12.2576
▁realm	-12.2576
▁renounce	-12.2576
▁responsibility	-12.2576
▁rubbish	-12.2576
▁sheepshearers	-12.2576
▁skirt	-12.2576
▁slack	-12.2576
▁soothsayer	-12.2576
▁stank	-12.2576
▁struggle	-12.2576
▁stupid	-12.2576
▁suggest	-12.2576
▁surprisingly	-12.2576
▁surrender	-12.2576
▁tapestry	-12.2576
▁target	-12.2576
▁treacherously	-12.2576
▁trench	-12.2576
▁troubling	-12.2576
▁twist	-12.2576
▁unsearchable	-12.2576
▁vagabond	-12.2576
▁vanquish	-12.2576
▁wardrobe	-12.2576
▁wax	-12.2576
▁wrists	-12.2576
▁Chilion	-12.2576
▁Jahleel	-12.2576
▁Phichol	-12.2576
▁Zimmah	-12.2576
▁falcon	-12.2576
▁goldsmiths	-12.2576
▁invent	-12.2576
▁muscle	-12.2576
▁negl	-12.2576
▁renown	-12.2576
▁steeds	-12.2576
▁viper	-12.2576
▁Ibleam	-12.2576
▁Shillem	-12.2576
▁acquit	-12.2576
▁beryl	-12.2576
▁calm	-12.2576
▁eager	-12.2576
▁ensnared	-12.2576
▁filth	-12.2576
▁Achzib	-12.2576
▁Jipht	-12.2576
▁bewail	-12.2576
▁Jahzeel	-12.2576
▁device	-12.2576
▁hurl	-12.2576
▁lust	-12.2576
▁swine	-12.2576
▁Senir	-12.2576
▁craving	-12.2576
▁dressed	-12.2576
▁mildew	-12.2576
▁equity	-12.2576
▁meadow	-12.2576
▁Mishael	-12.2576
Shoot	-12.2576
▁Gannim	-12.2576
▁brimstone	-12.2576
▁budded	-12.2576
▁colt	-12.2576
▁Mibsam	-12.2576
▁Ziha	-12.2576
▁disturbed	-12.2576
▁jackals	-12.2576
▁knit	-12.2576
▁lentils	-12.2576
▁stumbling	-12.2576
▁́noch	-12.2576
▁Tabba	-12.2576
▁Shuppim	-12.2576
▁Work	-12.2576
▁chance	-12.2576
▁horseback	-12.2576
▁spun	-12.2576
▁smile	-12.2576
▁inexperienced	-12.2576
▁Azaziah	-12.2576
▁bitten	-12.2576
▁gaze	-12.2576
▁Ahikam	-12.2576
▁juice	-12.2576
▁Azmon	-12.2576
▁Seba	-12.2576
▁extol	-12.2576
▁traders	-12.2576
▁Caphtorim	-12.2576
▁Ebiasaph	-12.2576
▁Ithiel	-12.2576
▁Understand	-12.2576
▁furthermore	-12.2576
▁guidance	-12.2576
▁humiliat	-12.2576
▁Creat	-12.2576
▁insolen	-12.2576
▁crouch	-12.2576
ault	-12.2576
▁fainthearted	-12.2576
milit	-12.2576
▁runner	-12.2576
▁sparrow	-12.2576
▁Debar	-12.2576
▁trays	-12.2576
Enough	-12.2576
▁destitute	-12.2576
▁perversion	-12.2576
▁Pelatiah	-12.2576
▁cheerful	-12.2576
▁Bakbukiah	-12.2576
▁Shopha	-12.2576
▁Berachah	-12.2576
▁Huppim	-12.2576
▁grating	-12.2576
▁Chenaniah	-12.2576
▁overturn	-12.2576
▁exper	-12.2576
▁mound	-12.2576
▁stalk	-12.2576
▁nourish	-12.2576
▁ravage	-12.2576
▁Siddim	-12.2576
▁ancest	-12.2576
▁attire	-12.2576
▁Besor	-12.2576
▁Neariah	-12.2576
▁bride	-12.2576
▁pants	-12.2576
gum	-12.2576
▁Manahath	-12.2576
▁Shemariah	-12.2576
▁Achor	-12.2576
▁presume	-12.2577
deiah	-12.2577
▁Gederoth	-12.2577
▁descent	-12.2577
▁Zillah	-12.2577
▁Shalma	-12.2577
▁Abiel	-12.2577
▁insect	-12.2577
▁arrest	-12.2577
▁topaz	-12.2577
▁sort	-12.2577
▁bul	-12.2577
▁sickle	-12.2577
▁Kore	-12.2577
▁Roi	-12.2577
gents	-12.2577
▁enjoyment	-12.2577
▁Dark	-12.2577
▁dishonest	-12.2577
▁mill	-12.2577
▁Boz	-12.2577
▁Highway	-12.2577
▁discernment	-12.2577
▁Nis	-12.2577
▁useless	-12.2578
▁Kirjathaim	-12.2578
▁flew	-12.2578
▁clu	-12.2578
▁Medes	-12.2578
▁Pekahiah	-12.2578
litt	-12.2578
troth	-12.2578
▁deceptive	-12.2578
▁stonecutters	-12.2578
atives	-12.2578
elonite	-12.2578
▁Mahath	-12.2578
▁Jok	-12.2579
▁Jaas	-12.2579
▁Nobah	-12.2579
▁Halah	-12.2579
phar	-12.2579
▁Baruch	-12.2579
apid	-12.2579
▁Adullamite	-12.2579
▁dripping	-12.2579
▁softly	-12.2579
gently	-12.258
▁horr	-12.258
isted	-12.258
▁Zipporah	-12.258
▁everywhere	-12.258
▁Sheph	-12.258
▁corruption	-12.258
▁Shimeah	-12.258
▁hornet	-12.258
omam	-12.2581
▁Nethan	-12.2581
▁Shec	-12.2581
▁Moreh	-12.2581
mannah	-12.2581
▁Hill	-12.2582
▁canopy	-12.2582
▁sorcery	-12.2582
kam	-12.2582
▁harshly	-12.2583
▁brightness	-12.2583
▁Horonite	-12.2583
tily	-12.2584
phath	-12.2584
▁embalmed	-12.2584
▁represent	-12.2584
▁confident	-12.2584
▁Keturah	-12.2584
▁breed	-12.2584
▁rotten	-12.2584
ealth	-12.2584
▁darkened	-12.2584
▁adulterer	-12.2585
▁Adiel	-12.2585
▁Hori	-12.2585
▁figure	-12.2585
▁Zaph	-12.2585
▁alm	-12.2585
▁drunken	-12.2585
Ph	-12.2586
▁Jeh	-12.2586
▁kneel	-12.2586
▁wasteland	-12.2586
▁winter	-12.2586
▁Bamoth	-12.2587
▁AM	-12.2587
▁Shav	-12.2588
▁Harod	-12.2589
▁rate	-12.2589
▁route	-12.2589
▁Blow	-12.2589
▁bare	-12.259
young	-12.259
icat	-12.259
▁Daniel	-12.2591
▁bin	-12.2591
▁relief	-12.2592
▁dough	-12.2592
▁flat	-12.2592
▁scar	-12.2592
▁Mered	-12.2593
▁helpless	-12.2593
▁Mez	-12.2594
▁Igal	-12.2595
▁Shilhi	-12.2595
▁suit	-12.2595
▁mightily	-12.2596
▁Shan	-12.2597
▁Tahan	-12.2597
lity	-12.2597
▁apportioned	-12.2597
▁laborers	-12.2597
▁benefits	-12.2598
▁eggs	-12.2598
▁wineskins	-12.2598
▁Abiezrites	-12.2598
▁bowstrings	-12.2598
▁furrows	-12.2598
▁infants	-12.2598
▁jewels	-12.2598
▁coast	-12.2598
▁patient	-12.2598
▁accusers	-12.2598
▁Aner	-12.2598
▁fortresses	-12.2598
▁trials	-12.2598
▁measurements	-12.2598
▁Shemer	-12.2599
▁pertains	-12.2599
ken	-12.2599
▁rem	-12.2599
▁sub	-12.2599
▁aright	-12.2599
One	-12.26
▁transgressors	-12.26
▁Simeonites	-12.2601
▁axle	-12.2601
▁Oded	-12.2602
▁kite	-12.2602
▁Geder	-12.2602
▁butter	-12.2603
▁wayside	-12.2604
▁scal	-12.2604
enaah	-12.2604
▁Matr	-12.2605
▁ponder	-12.2606
▁wring	-12.2606
▁danced	-12.2607
▁Pitho	-12.2608
ride	-12.2608
▁lose	-12.2608
mar	-12.2608
tan	-12.2609
xed	-12.2611
lab	-12.2612
▁dir	-12.2612
▁doc	-12.2612
rison	-12.2613
▁Bezek	-12.2613
▁weave	-12.2614
▁Tira	-12.2614
▁fr	-12.2614
▁difficulty	-12.2615
▁sheath	-12.2615
sees	-12.2615
none	-12.2616
Many	-12.2617
▁rin	-12.2619
▁enticed	-12.2621
▁tied	-12.2623
set	-12.2623
▁driver	-12.2624
▁qui	-12.2626
▁enlarged	-12.2626
▁forti	-12.2627
▁restraint	-12.2627
▁Beware	-12.2627
▁rim	-12.2628
▁Isshiah	-12.2628
▁fowler	-12.2631
▁grasshoppers	-12.2636
▁scoundrels	-12.2636
their	-12.2639
▁dawned	-12.2639
▁awakened	-12.264
▁single	-12.2641
▁Wash	-12.2642
allai	-12.2643
▁hideout	-12.2644
tai	-12.2645
▁godly	-12.2645
▁weeks	-12.2648
▁invite	-12.2648
▁Hada	-12.2652
▁thinking	-12.2654
▁treasurer	-12.2654
▁Gat	-12.2655
▁Ahis	-12.2661
▁list	-12.2663
▁Mehi	-12.2664
▁eternal	-12.2664
▁Ta	-12.2665
has	-12.2666
▁kindle	-12.2668
▁overflowed	-12.2668
▁Jahd	-12.2669
ibni	-12.2669
▁Cal	-12.2669
▁Toi	-12.2671
▁gleaning	-12.2675
▁Eat	-12.2676
▁Jahz	-12.2678
na	-12.2679
▁deserves	-12.2679
sent	-12.2679
▁Such	-12.2681
▁Hal	-12.2681
neiah	-12.2682
hum	-12.2683
▁web	-12.2686
▁prowl	-12.2686
evertheless	-12.269
▁o	-12.2692
▁Sel	-12.2693
tim	-12.2693
▁withered	-12.27
▁Coun	-12.27
rying	-12.2703
phel	-12.2703
▁aff	-12.2711
▁joints	-12.2714
▁cheeks	-12.2715
▁engravings	-12.2715
▁provocations	-12.2715
▁Za	-12.2719
lech	-12.2722
▁Mus	-12.2727
▁cur	-12.2728
Berith	-12.2734
▁rouse	-12.2738
tur	-12.2738
▁Chelub	-12.274
pes	-12.2748
▁timbrels	-12.2755
▁scent	-12.2755
▁shun	-12.2756
▁apples	-12.2757
diel	-12.2758
▁Abit	-12.2765
▁ma	-12.2766
▁wandering	-12.2768
ire	-12.2779
▁Netophathites	-12.2795
ilah	-12.2795
moth	-12.2815
Rather	-12.2816
▁trou	-12.2817
▁Shimeath	-12.282
dijah	-12.2826
▁watching	-12.2826
▁carving	-12.2828
zzah	-12.2829
▁wished	-12.2831
▁hypocrites	-12.2835
▁slips	-12.2835
▁Con	-12.2837
▁Fee	-12.2841
▁pouring	-12.2841
we	-12.2845
▁Plea	-12.2851
evious	-12.2867
nges	-12.2872
nan	-12.2875
▁creatures	-12.2876
▁dropp	-12.2881
▁ro	-12.2882
▁won	-12.2882
▁formation	-12.2887
▁searching	-12.2898
eared	-12.2911
▁eagles	-12.2916
▁Ishma	-12.2918
▁boasts	-12.292
▁hasty	-12.2926
▁trembles	-12.2958
▁reed	-12.296
▁Add	-12.2968
cluded	-12.2972
▁perishing	-12.2983
▁Ro	-12.2992
▁excelle	-12.2994
▁Gileadites	-12.2996
▁lends	-12.3008
captured	-12.3023
tion	-12.3026
▁standards	-12.304
sale	-12.3044
▁ascribe	-12.306
▁player	-12.306
▁scornful	-12.3079
▁skip	-12.3079
▁dealing	-12.309
zzar	-12.3118
▁designs	-12.3123
▁Pil	-12.3131
▁Ahima	-12.3131
▁exceed	-12.3141
▁kisse	-12.3144
▁owners	-12.3159
▁spots	-12.3165
▁executes	-12.3166
▁minds	-12.317
▁lowe	-12.3204
▁convocations	-12.3207
▁seasons	-12.3207
▁shines	-12.3209
racious	-12.3214
evermore	-12.3224
▁mocker	-12.3241
blessed	-12.3257
test	-12.3358
ntil	-12.3368
agg	-12.3389
▁Rend	-12.3403
kah	-12.341
hand	-12.3436
▁fla	-12.3443
cho	-12.345
▁Zi	-12.3468
Re	-12.3484
▁Ziza	-12.3492
▁Zebulunite	-12.3498
thron	-12.3503
▁gener	-12.3504
▁thunders	-12.3505
ziel	-12.3505
▁pleasures	-12.3509
only	-12.3525
Dra	-12.3533
▁thighs	-12.355
nor	-12.3568
liah	-12.3581
je	-12.3588
▁longs	-12.3654
▁Ze	-12.3664
▁embrac	-12.3682
▁Zibia	-12.3683
▁Exce	-12.3685
day	-12.3688
▁numbers	-12.3735
aps	-12.3757
▁breach	-12.3761
op	-12.3763
▁dow	-12.3816
nna	-12.3824
▁Ishba	-12.3855
▁caves	-12.3867
▁ceases	-12.387
▁Pas	-12.3955
▁idolatr	-12.3955
ect	-12.3962
ark	-12.4003
▁inflict	-12.4007
▁Kir	-12.4012
▁tast	-12.404
▁Bir	-12.4061
▁fours	-12.4088
▁youths	-12.4095
▁Hagga	-12.4141
▁star	-12.4149
▁Us	-12.4164
▁shameful	-12.4192
▁teacher	-12.4217
▁faire	-12.4305
ahab	-12.4308
▁resid	-12.4354
har	-12.4358
osheth	-12.4366
hath	-12.4376
gate	-12.4423
sides	-12.4439
▁win	-12.4453
over	-12.4454
▁Shel	-12.4465
▁bit	-12.4471
▁ven	-12.4472
▁ob	-12.4506
▁graves	-12.4508
▁po	-12.4513
▁breathe	-12.4562
▁scourge	-12.4563
ok	-12.4566
▁suck	-12.4569
▁Areli	-12.4595
▁destructions	-12.4633
▁Ezb	-12.4722
earing	-12.4795
veled	-12.4819
▁site	-12.4904
og	-12.4915
handsome	-12.4916
▁Gi	-12.4919
▁pi	-12.4955
ea	-12.4956
▁gnashe	-12.4957
zar	-12.498
▁hi	-12.4995
▁Teb	-12.4995
li	-12.5028
zi	-12.5053
co	-12.5058
eb	-12.5083
▁vent	-12.5085
▁Meshe	-12.5108
▁soft	-12.5121
▁eas	-12.5127
▁dare	-12.519
▁Haro	-12.5198
sheth	-12.5232
▁Gaha	-12.5254
▁hedge	-12.5275
did	-12.5295
ap	-12.53
▁cra	-12.5364
▁Elda	-12.5379
ingle	-12.5396
az	-12.5516
reaches	-12.5558
▁Tru	-12.5603
zen	-12.5646
athite	-12.5657
▁ga	-12.5681
▁Chisl	-12.5717
rescent	-12.5753
sha	-12.5758
monite	-12.5802
▁Shuni	-12.5818
hair	-12.5834
▁bat	-12.5847
neh	-12.5851
▁Hamm	-12.5902
▁pitie	-12.5976
ule	-12.6036
pply	-12.6053
raw	-12.6064
Pass	-12.6109
pped	-12.6122
▁Fo	-12.6155
▁valu	-12.6195
ael	-12.6197
▁fearful	-12.622
▁flas	-12.6251
▁Tob	-12.6262
thites	-12.6286
riah	-12.63
aham	-12.632
unites	-12.6327
locks	-12.6355
tray	-12.6375
▁imp	-12.6379
▁har	-12.6381
presses	-12.6395
rrow	-12.6407
bi	-12.6413
▁Eth	-12.6459
▁Atha	-12.6462
gotten	-12.6471
▁Ge	-12.6474
more	-12.6476
HO	-12.6503
▁pushe	-12.6543
▁scr	-12.6548
▁Ri	-12.6557
rushes	-12.6559
ract	-12.6576
zon	-12.6687
eech	-12.671
K	-12.6758
▁Bet	-12.6788
mite	-12.6796
▁Leba	-12.6814
cred	-12.6832
aptured	-12.6835
annah	-12.6849
▁Helek	-12.6855
wins	-12.6857
▁Nezi	-12.6863
mon	-12.6869
▁bu	-12.6882
▁Ba	-12.6906
edge	-12.6942
sper	-12.6946
nite	-12.6953
▁Mib	-12.7004
▁Bera	-12.701
▁Ch	-12.702
▁Beno	-12.7039
use	-12.7041
▁Beri	-12.7059
front	-12.7118
▁Maa	-12.7129
▁Car	-12.7135
loads	-12.7145
lar	-12.7145
zed	-12.7151
▁le	-12.7164
oes	-12.7172
▁cla	-12.7172
▁Ji	-12.7209
both	-12.7211
lem	-12.7214
ove	-12.7227
hol	-12.7263
rang	-12.7271
ec	-12.7284
▁seam	-12.7311
unne	-12.732
▁mi	-12.7338
▁commun	-12.7342
othi	-12.7347
▁drip	-12.7364
olad	-12.7372
atches	-12.7372
Un	-12.7376
car	-12.7377
wns	-12.7386
reb	-12.7395
De	-12.7397
gain	-12.7399
▁pos	-12.74
▁dec	-12.74
▁Zeph	-12.7423
cul	-12.743
form	-12.7435
athah	-12.7451
▁advan	-12.7459
oll	-12.7459
▁lap	-12.7469
vite	-12.7478
▁grasshopper	-12.7478
▁scoundrel	-12.7478
▁Nahal	-12.7478
▁Zaa	-12.7479
atch	-12.748
▁clan	-12.748
▁Ple	-12.7481
▁paw	-12.7483
▁banner	-12.7483
▁quarter	-12.7484
▁Girgashite	-12.7485
▁Maachathite	-12.7485
▁artisan	-12.7485
▁perpetua	-12.7485
▁slope	-12.7487
▁evildoer	-12.7488
▁grove	-12.7488
ccept	-12.7488
▁pigeon	-12.7489
cks	-12.749
▁basin	-12.7491
venge	-12.7491
▁depth	-12.7492
numer	-12.7492
▁sheepfold	-12.7493
Bu	-12.7493
▁step	-12.7493
cked	-12.7494
▁doorpost	-12.7494
uts	-12.7494
▁Sec	-12.7496
▁lip	-12.7496
econd	-12.7501
tory	-12.7503
▁displeas	-12.7503
▁Eri	-12.7504
▁bud	-12.7505
▁stripe	-12.7505
addle	-12.7506
▁Ishmaelite	-12.7511
hook	-12.7511
▁Gershonite	-12.7513
▁remo	-12.7515
nswer	-12.7517
▁Gibeonite	-12.7518
▁plat	-12.7521
Light	-12.7522
▁comforter	-12.7522
▁pla	-12.7522
▁prepar	-12.7522
avor	-12.7525
▁bolt	-12.7526
▁pond	-12.7529
▁spe	-12.7529
▁week	-12.7532
▁Comm	-12.7532
Provide	-12.7536
▁strik	-12.7536
bolt	-12.7536
Watch	-12.7536
Fight	-12.7536
inhab	-12.7536
▁Malchi	-12.7537
▁enr	-12.7537
br	-12.7538
coast	-12.754
▁circumcis	-12.754
orship	-12.754
▁apportion	-12.7541
V	-12.7541
Rejoice	-12.7542
obedient	-12.7542
Help	-12.7542
G	-12.7542
▁esteem	-12.7542
▁diminish	-12.7542
left	-12.7543
spotted	-12.7543
view	-12.7543
▁register	-12.7544
Tob	-12.7544
▁refin	-12.7544
Two	-12.7544
gathering	-12.7544
Ezer	-12.7544
Father	-12.7544
delights	-12.7544
▁overwhelm	-12.7544
Mephibosheth	-12.7545
leanness	-12.7545
Asahel	-12.7545
Cain	-12.7545
Maachah	-12.7545
price	-12.7545
Ahithophel	-12.7545
Micaiah	-12.7545
clean	-12.7545
Sisera	-12.7545
Naboth	-12.7545
smell	-12.7545
sixteen	-12.7545
Phinehas	-12.7545
Gershon	-12.7545
Hilkiah	-12.7545
Uriah	-12.7545
road	-12.7545
piece	-12.7545
keeping	-12.7545
Kirjath	-12.7545
Samson	-12.7545
Zechariah	-12.7545
Gideon	-12.7545
consecrate	-12.7545
mighty	-12.7545
Job	-12.7545
River	-12.7545
Reuben	-12.7546
lived	-12.7546
spread	-12.7546
Again	-12.7546
Absalom	-12.7546
Isaac	-12.7546
Joab	-12.7546
through	-12.7546
gracious	-12.7546
Abraham	-12.7546
Gad	-12.7546
covenant	-12.7546
ded	-12.7546
heard	-12.7546
Elisha	-12.7546
appointed	-12.7546
tempt	-12.7546
help	-12.7546
Hebron	-12.7546
between	-12.7546
anyone	-12.7547
brought	-12.7547
saw	-12.7547
Ab	-12.7547
Balak	-12.7547
close	-12.7547
know	-12.7547
▁mix	-12.7548
emen	-12.7548
severe	-12.7549
Al	-12.755
honor	-12.7551
Everyone	-12.7551
wl	-12.7551
▁ungodl	-12.7551
called	-12.7552
whom	-12.7552
▁exten	-12.7553
thrus	-12.7554
▁reduce	-12.7557
▁vindicate	-12.7557
about	-12.7557
Hamu	-12.7558
sixty	-12.7558
▁trimme	-12.756
▁discourage	-12.756
▁purchase	-12.756
▁Cut	-12.756
▁fol	-12.756
ithdraw	-12.7561
kind	-12.7561
▁acquire	-12.7561
Dan	-12.7561
▁create	-12.7561
▁grieve	-12.7561
ump	-12.7562
▁relieve	-12.7563
▁taxe	-12.7563
▁Shepher	-12.7566
▁obedien	-12.7567
▁Eliphele	-12.7568
alti	-12.7568
ezer	-12.7568
Hoz	-12.7568
col	-12.7569
▁Egl	-12.7569
▁princ	-12.7569
sia	-12.7569
were	-12.757
▁plu	-12.757
▁Rejoic	-12.757
flam	-12.757
▁exc	-12.757
▁ja	-12.7571
▁sudden	-12.7571
tuous	-12.7572
ertain	-12.7572
fles	-12.7573
▁Raam	-12.7573
▁Naam	-12.7573
▁blame	-12.7573
▁Zepho	-12.7573
wash	-12.7574
mmim	-12.7574
▁Imla	-12.7574
▁Jehoadda	-12.7574
▁Adna	-12.7574
▁Massa	-12.7574
▁Baana	-12.7574
▁torch	-12.7575
isperse	-12.7575
zaphan	-12.7575
▁Hati	-12.7575
escend	-12.7575
▁partial	-12.7575
▁Mattan	-12.7575
▁collect	-12.7575
ivide	-12.7575
onkeys	-12.7575
efend	-12.7575
▁Amra	-12.7575
▁Zoba	-12.7575
▁Kedem	-12.7575
▁Hac	-12.7575
▁Michmas	-12.7575
lood	-12.7575
▁Zimr	-12.7575
▁jac	-12.7575
▁Bakbuk	-12.7575
▁Raama	-12.7575
▁desp	-12.7575
lisha	-12.7575
oenai	-12.7575
eople	-12.7575
rinces	-12.7575
rophet	-12.7575
ulfill	-12.7575
etween	-12.7575
▁discour	-12.7575
▁acquaint	-12.7575
▁pilgrim	-12.7575
experience	-12.7576
maveth	-12.7576
▁occup	-12.7576
tinue	-12.7576
beka	-12.7576
▁occur	-12.7576
ilonite	-12.7576
undred	-12.7576
ssemble	-12.7576
▁Jehoia	-12.7576
▁Manass	-12.7576
rafts	-12.7576
▁conv	-12.7576
cifie	-12.7576
rival	-12.7576
▁Bazl	-12.7576
▁Ellasar	-12.7576
▁Nib	-12.7576
▁Sweet	-12.7576
▁quali	-12.7576
▁quantit	-12.7576
▁sneez	-12.7576
▁tribulation	-12.7576
Baladan	-12.7576
Jochebed	-12.7576
Peaceably	-12.7576
Scoffer	-12.7576
Zedek	-12.7576
cheru	-12.7576
dellium	-12.7576
ibboleth	-12.7576
ivo	-12.7576
izki	-12.7576
mmediately	-12.7576
sibly	-12.7576
uxury	-12.7576
zzez	-12.7576
▁Abishur	-12.7576
▁Abronah	-12.7576
▁Ahihud	-12.7576
▁Alush	-12.7576
▁Appaim	-12.7576
▁Arpad	-12.7576
▁Azriel	-12.7576
▁Biz	-12.7576
▁Bochim	-12.7576
▁Bozkath	-12.7576
▁Casiphia	-12.7576
▁Cozbi	-12.7576
▁Diblathaim	-12.7576
▁Dophkah	-12.7576
▁Elealeh	-12.7576
▁Ephlal	-12.7576
▁Erech	-12.7576
▁Giloh	-12.7576
▁Gittaim	-12.7576
▁Gudgodah	-12.7576
▁Hagidgad	-12.7576
▁Hashmonah	-12.7576
▁Haza	-12.7576
▁Hotham	-12.7576
▁Huk	-12.7576
▁Janohah	-12.7576
▁Jasher	-12.7576
▁Jealous	-12.7576
▁Jehallelel	-12.7576
▁Jehozadak	-12.7576
▁Jeshimoth	-12.7576
▁Jogbehah	-12.7576
▁Joktheel	-12.7576
▁Kain	-12.7576
▁Kehelathah	-12.7576
▁Leshem	-12.7576
▁Lightning	-12.7576
▁Mahazioth	-12.7576
▁Makheloth	-12.7576
▁Meholathite	-12.7576
▁Mehujael	-12.7576
▁Melchizedek	-12.7576
▁Meronothite	-12.7576
▁Methushael	-12.7576
▁Michmethath	-12.7576
▁Mithredath	-12.7576
▁Moseroth	-12.7576
▁Nehushta	-12.7576
▁Nephtoah	-12.7576
▁Notwithstanding	-12.7576
▁Ovens	-12.7576
▁Ozem	-12.7576
▁Palms	-12.7576
▁Parbar	-12.7576
▁Pethor	-12.7576
▁Punon	-12.7576
▁Receive	-12.7576
▁Rissah	-12.7576
▁Sabtecha	-12.7576
▁Salmon	-12.7576
▁Shaalbim	-12.7576
▁Shaalbonite	-12.7576
▁Shaaraim	-12.7576
▁Shelomoth	-12.7576
▁Shulamite	-12.7576
▁Sismai	-12.7576
▁Spread	-12.7576
▁Tikvah	-12.7576
▁Tiphsah	-12.7576
▁Twice	-12.7576
▁Witness	-12.7576
▁Zarephath	-12.7576
▁Ziv	-12.7576
▁Zorathites	-12.7576
▁adversities	-12.7576
▁anxieties	-12.7576
▁appeal	-12.7576
▁appetite	-12.7576
▁approve	-12.7576
▁argu	-12.7576
▁assessment	-12.7576
▁astonishment	-12.7576
▁bedstead	-12.7576
▁bodyguards	-12.7576
▁bottle	-12.7576
▁buckets	-12.7576
▁caldron	-12.7576
▁ceasing	-12.7576
▁climb	-12.7576
▁coastline	-12.7576
▁coffin	-12.7576
▁conception	-12.7576
▁constituency	-12.7576
▁courtyards	-12.7576
▁decays	-12.7576
▁decision	-12.7576
▁defiantly	-12.7576
▁depos	-12.7576
▁diligence	-12.7576
▁discipline	-12.7576
▁discord	-12.7576
▁doctrine	-12.7576
▁embroider	-12.7576
▁emerald	-12.7576
▁exercise	-12.7576
▁exhausted	-12.7576
▁float	-12.7576
▁fracture	-12.7576
▁frustrate	-12.7576
▁halted	-12.7576
▁hoopoe	-12.7576
▁hyrax	-12.7576
▁ignoran	-12.7576
▁joking	-12.7576
▁marsh	-12.7576
▁mattock	-12.7576
▁mediator	-12.7576
▁miracle	-12.7576
▁mirror	-12.7576
▁misfortune	-12.7576
▁muzzle	-12.7576
▁nettles	-12.7576
▁occurrence	-12.7576
▁partition	-12.7576
▁peaks	-12.7576
▁pedestal	-12.7576
▁peeled	-12.7576
▁persecutors	-12.7576
▁plowshare	-12.7576
▁pounded	-12.7576
▁private	-12.7576
▁prominent	-12.7576
▁purse	-12.7576
▁recruite	-12.7576
▁regret	-12.7576
▁respond	-12.7576
▁retreat	-12.7576
▁revelation	-12.7576
▁revoke	-12.7576
▁risk	-12.7576
▁rogue	-12.7576
▁saliva	-12.7576
▁security	-12.7576
▁shrank	-12.7576
▁slippery	-12.7576
▁sluggard	-12.7576
▁smoking	-12.7576
▁splinter	-12.7576
▁supervise	-12.7576
▁sustenance	-12.7576
▁swirl	-12.7576
▁unexpectedly	-12.7576
▁uproar	-12.7576
▁upstream	-12.7576
▁utmost	-12.7576
▁vassal	-12.7576
▁vindication	-12.7576
▁voluntar	-12.7576
▁volunteer	-12.7576
▁wasBenaiah	-12.7576
▁wrecked	-12.7576
▁Heleph	-12.7576
▁Holon	-12.7576
▁Juttah	-12.7576
▁Rithmah	-12.7576
▁Sirion	-12.7576
▁babes	-12.7576
▁despair	-12.7576
▁sprout	-12.7576
Destroy	-12.7576
ibmah	-12.7576
▁Ahuzza	-12.7576
▁Ginath	-12.7576
▁Hupham	-12.7576
▁Ichabod	-12.7576
▁Shupham	-12.7576
▁Tirha	-12.7576
▁compete	-12.7576
▁confiscat	-12.7576
▁ditch	-12.7576
▁extensive	-12.7576
▁extrem	-12.7576
▁falter	-12.7576
▁grandmother	-12.7576
▁opponent	-12.7576
▁popul	-12.7576
▁proportion	-12.7576
▁sensitiv	-12.7576
▁skull	-12.7576
▁subject	-12.7576
▁Eshton	-12.7576
▁Mithkah	-12.7576
▁arrival	-12.7576
▁cornerstone	-12.7576
▁rumor	-12.7576
▁swoop	-12.7576
▁unstable	-12.7576
▁vir	-12.7576
ctually	-12.7576
▁Cabul	-12.7576
▁Galeed	-12.7576
▁Jithra	-12.7576
▁adulteress	-12.7576
▁cheer	-12.7576
▁fist	-12.7576
▁oak	-12.7576
▁orchard	-12.7576
▁outrage	-12.7576
▁purge	-12.7576
▁Gazez	-12.7576
▁Haradah	-12.7576
▁Hashub	-12.7576
▁Imri	-12.7576
▁Minjamin	-12.7576
▁Shamgar	-12.7576
▁Taberah	-12.7576
▁compr	-12.7576
▁magnificen	-12.7576
Pursue	-12.7576
niquity	-12.7576
▁Charm	-12.7576
▁Fools	-12.7576
▁Jarha	-12.7576
▁Jehosha	-12.7576
▁Shashak	-12.7576
▁exempt	-12.7576
▁fallow	-12.7576
▁knocks	-12.7576
▁watersprings	-12.7576
▁Eltekeh	-12.7576
▁Joshaphat	-12.7576
▁Jesim	-12.7576
▁Netopha	-12.7576
▁Repro	-12.7576
▁member	-12.7576
▁Field	-12.7576
▁Hatt	-12.7576
▁Jehdeiah	-12.7576
▁Migdol	-12.7576
▁Ozni	-12.7576
▁affect	-12.7576
▁hinges	-12.7576
▁limp	-12.7576
▁miscarriage	-12.7576
▁Jesui	-12.7576
▁flea	-12.7576
▁smiths	-12.7576
▁Jiz	-12.7576
▁babble	-12.7576
▁settlements	-12.7576
▁Ashke	-12.7576
▁incident	-12.7576
▁midday	-12.7576
sharelah	-12.7576
sheba	-12.7576
▁occurred	-12.7576
▁prospect	-12.7576
▁Deep	-12.7576
▁longsuffering	-12.7576
stain	-12.7576
▁Elzabad	-12.7576
▁shaking	-12.7576
▁cert	-12.7576
▁Sarid	-12.7576
▁Abda	-12.7576
▁Hashabniah	-12.7576
▁Lahm	-12.7576
▁Lasha	-12.7576
▁coins	-12.7576
ificat	-12.7576
▁Maaziah	-12.7576
▁avail	-12.7576
▁Shaaph	-12.7576
▁Jabneel	-12.7576
▁convert	-12.7576
▁liberty	-12.7576
▁trans	-12.7576
▁Lordmake	-12.7576
▁elsewhere	-12.7576
▁incurable	-12.7576
▁copper	-12.7576
▁sinews	-12.7576
▁faith	-12.7576
▁stead	-12.7576
blished	-12.7576
▁Zabbai	-12.7576
▁Jeezer	-12.7576
▁lairs	-12.7576
▁Avites	-12.7576
according	-12.7576
▁Libnites	-12.7576
▁lapped	-12.7576
▁specifi	-12.7576
▁Huz	-12.7576
▁Jekamiah	-12.7576
▁balm	-12.7576
▁extinguish	-12.7576
▁Adoram	-12.7576
▁Jada	-12.7576
▁Ahlai	-12.7576
▁Jaaziah	-12.7576
▁jack	-12.7576
▁Gebalites	-12.7576
▁Shuhamites	-12.7576
▁Jedid	-12.7576
▁Judea	-12.7576
▁crag	-12.7576
▁plight	-12.7576
▁Naham	-12.7576
▁Nahaliel	-12.7576
▁situat	-12.7576
▁Sela	-12.7576
▁Zereth	-12.7576
▁Imnah	-12.7576
▁wormwood	-12.7576
▁Joha	-12.7576
▁holes	-12.7576
▁Jekam	-12.7577
▁brightened	-12.7577
▁Jaare	-12.7577
▁consolation	-12.7577
▁Mushites	-12.7577
▁collection	-12.7577
▁Swords	-12.7577
▁Helkath	-12.7577
▁briers	-12.7577
▁Shepham	-12.7577
▁Rakk	-12.7577
▁moist	-12.7577
▁endanger	-12.7577
▁dross	-12.7577
▁ribs	-12.7577
▁Mahlites	-12.7577
▁Gazites	-12.7577
▁Kark	-12.7577
tipha	-12.7577
ized	-12.7577
▁Azz	-12.7577
▁offenders	-12.7577
▁Harum	-12.7577
ttah	-12.7577
▁spider	-12.7577
▁Ijim	-12.7577
▁potter	-12.7577
▁Mattanah	-12.7577
▁Sabta	-12.7577
▁slipped	-12.7577
▁Jehoaddah	-12.7578
▁Hak	-12.7578
▁musician	-12.7578
▁Haze	-12.7578
▁dull	-12.7578
▁Imlah	-12.7578
▁pursuit	-12.7578
ifted	-12.7578
naz	-12.7578
▁boldness	-12.7578
▁permanently	-12.7578
▁craftily	-12.7578
▁wield	-12.7578
▁Rogelim	-12.7578
▁procession	-12.7578
eighth	-12.7578
▁silversmith	-12.7578
▁shearers	-12.7578
machiah	-12.7578
ubim	-12.7578
▁recess	-12.7578
▁fence	-12.7578
▁Enter	-12.7578
▁Adnah	-12.7578
laid	-12.7578
beath	-12.7578
▁downfall	-12.7578
▁freedom	-12.7578
▁pathway	-12.7578
▁Pool	-12.7578
▁Zabdiel	-12.7578
▁Jarah	-12.7578
▁Carmelitess	-12.7578
▁Gederah	-12.7578
▁idleness	-12.7578
▁Zalmonah	-12.7578
ifty	-12.7579
▁Ashter	-12.7579
▁Peleth	-12.7579
▁hereafter	-12.7579
▁hitch	-12.7579
▁Hirah	-12.7579
▁anxi	-12.7579
lom	-12.7579
▁Ananiah	-12.7579
▁vanishes	-12.7579
▁Orpah	-12.7579
▁Ammah	-12.7579
▁farmer	-12.7579
▁clash	-12.7579
▁Raamah	-12.7579
tower	-12.7579
arter	-12.7579
▁Zeboim	-12.7579
▁lioness	-12.758
▁guardian	-12.758
habi	-12.758
▁lovesick	-12.758
▁Suph	-12.758
▁illness	-12.758
▁Abim	-12.758
▁race	-12.758
rial	-12.758
▁charme	-12.758
▁range	-12.758
ahash	-12.758
▁Mishal	-12.758
▁sky	-12.758
▁Eked	-12.758
ross	-12.7581
▁art	-12.7581
▁Wrath	-12.7581
▁Kezi	-12.7581
▁Jerah	-12.7581
▁flam	-12.7581
▁demolish	-12.7581
▁Mik	-12.7581
▁Hananel	-12.7581
▁Shaal	-12.7581
▁Carc	-12.7581
▁thunderings	-12.7582
▁Meuni	-12.7582
▁Shemuel	-12.7582
▁cruelty	-12.7582
▁Meunites	-12.7582
selve	-12.7582
▁bushes	-12.7582
▁Migd	-12.7582
▁getting	-12.7582
▁decreased	-12.7583
▁ridiculed	-12.7583
▁galloping	-12.7583
▁Zophah	-12.7583
▁spark	-12.7583
pah	-12.7583
cah	-12.7583
▁Gob	-12.7583
▁backbit	-12.7583
▁pru	-12.7583
▁Aphi	-12.7584
▁Jek	-12.7584
▁Sheerah	-12.7584
▁Tou	-12.7584
▁riverside	-12.7584
▁Shahar	-12.7584
▁kidnapp	-12.7584
▁Anam	-12.7585
▁Calah	-12.7585
oke	-12.7585
—“	-12.7585
daw	-12.7585
▁Hadar	-12.7585
▁colla	-12.7585
▁countrymen	-12.7585
King	-12.7585
▁Ahiram	-12.7585
oham	-12.7586
▁Eve	-12.7586
rment	-12.7586
▁main	-12.7586
achel	-12.7586
▁fanc	-12.7586
Hesed	-12.7586
▁robbery	-12.7586
▁thicket	-12.7587
▁jeopardy	-12.7587
missed	-12.7587
▁Zill	-12.7587
▁drown	-12.7587
▁flourishes	-12.7588
▁Indi	-12.7588
rzites	-12.7588
▁justified	-12.7588
▁Redeem	-12.7588
▁sicknesses	-12.7588
▁Jehieli	-12.7588
▁barrenness	-12.7589
▁marrie	-12.7589
▁interpreter	-12.7589
sixth	-12.7589
▁satisfie	-12.7589
feri	-12.7589
▁perfection	-12.7589
▁cheated	-12.759
▁extorted	-12.759
▁injured	-12.759
▁kicked	-12.759
▁Children	-12.759
▁Chimham	-12.759
▁Escape	-12.759
▁Jashobeam	-12.759
▁Search	-12.759
▁ruddy	-12.759
▁Pray	-12.759
oc	-12.7591
▁Ashdodites	-12.7591
▁Hammon	-12.7592
▁smoothly	-12.7592
▁Kishion	-12.7592
acy	-12.7593
▁Napht	-12.7593
▁Gur	-12.7593
▁Uzzielites	-12.7593
▁Meditat	-12.7593
▁vindicated	-12.7594
▁relieved	-12.7594
▁Ekronites	-12.7594
▁wasno	-12.7594
▁pile	-12.7595
▁reduced	-12.7595
▁plunderers	-12.7595
ethai	-12.7595
▁Four	-12.7595
▁mist	-12.7595
sshiah	-12.7596
akim	-12.7596
▁Arida	-12.7596
▁Eliam	-12.7596
▁stoo	-12.7596
gur	-12.7597
▁partake	-12.7597
▁swing	-12.7598
▁wasTamar	-12.7598
▁Mash	-12.7598
again	-12.7599
▁sorcerer	-12.7599
thus	-12.7599
▁Naara	-12.7599
▁thereafter	-12.7599
▁designer	-12.76
▁weaker	-12.76
▁excess	-12.76
▁sorrowful	-12.76
▁certainty	-12.7601
▁Bered	-12.7602
▁pest	-12.7603
Lif	-12.7603
ption	-12.7603
▁Gen	-12.7603
▁Anoth	-12.7604
▁powerful	-12.7604
tentions	-12.7605
▁shaven	-12.7605
▁wishes	-12.7606
▁nearby	-12.7607
ounsel	-12.7608
innah	-12.7608
▁beware	-12.7609
▁spikenard	-12.761
▁Izrahiah	-12.761
▁fortify	-12.761
bring	-12.761
▁goads	-12.7614
▁Bath	-12.7614
▁vest	-12.7615
▁Provide	-12.7615
▁ambassadors	-12.7615
▁choirs	-12.7615
▁cupbearers	-12.7615
▁diviners	-12.7615
▁imprisons	-12.7615
▁offenses	-12.7615
▁locked	-12.7616
garm	-12.7616
egin	-12.7616
slide	-12.7617
akk	-12.7617
▁Fight	-12.7617
▁louder	-12.7617
▁cri	-12.7618
▁Watch	-12.7618
▁ke	-12.762
▁recite	-12.762
▁Medad	-12.7621
uff	-12.7621
ifts	-12.7621
dle	-12.7623
purity	-12.7623
▁mourners	-12.7624
shhur	-12.7624
▁patche	-12.7625
▁Karta	-12.7625
ilation	-12.7625
▁daybreak	-12.7625
▁contribut	-12.7626
Name	-12.7627
▁growth	-12.7628
▁Cas	-12.7628
▁Gibeath	-12.7629
onder	-12.763
▁yearns	-12.763
ui	-12.763
▁Irad	-12.7631
▁Hosha	-12.7632
▁plea	-12.7634
kite	-12.7637
rations	-12.7637
▁meant	-12.7638
However	-12.7638
▁Machb	-12.7638
▁circulate	-12.7639
▁restless	-12.764
ult	-12.7641
spect	-12.7642
rv	-12.7643
▁reckoning	-12.7643
▁Haras	-12.7645
▁Hurry	-12.7645
▁Gadi	-12.7646
▁Hena	-12.7649
▁Hode	-12.7649
▁Orion	-12.765
▁eng	-12.7652
▁snatch	-12.7652
▁sho	-12.7653
tage	-12.7654
ures	-12.7655
▁Tah	-12.7662
adite	-12.7664
ache	-12.7665
▁Sur	-12.7665
▁hindered	-12.7665
▁cas	-12.7666
▁Tarta	-12.7666
▁Drink	-12.7668
met	-12.7668
beside	-12.7669
dness	-12.767
▁lit	-12.767
▁scarc	-12.7672
▁famish	-12.7673
▁Zaana	-12.7675
▁Bach	-12.7676
ades	-12.7676
▁Jerusha	-12.7678
▁lengthens	-12.7678
▁unity	-12.7678
▁missed	-12.7679
▁items	-12.768
▁grinder	-12.768
”)	-12.7681
rested	-12.7683
▁awl	-12.7683
▁paws	-12.7684
▁clans	-12.7684
▁laps	-12.7684
edition	-12.7686
▁Ob	-12.7689
▁Bigthan	-12.7689
far	-12.7692
▁hunting	-12.7692
▁broth	-12.7694
▁stripes	-12.7694
▁batter	-12.7694
▁Plant	-12.7695
inning	-12.7698
▁friendly	-12.7701
▁burie	-12.7704
▁Harh	-12.7705
up	-12.7705
utters	-12.7709
Wa	-12.771
ady	-12.7711
▁hedges	-12.7712
▁borrowed	-12.7716
▁Tama	-12.7716
▁deeded	-12.7717
ridge	-12.7718
where	-12.7719
▁disti	-12.7721
U	-12.7721
▁Zephath	-12.7722
▁ta	-12.7726
▁healthy	-12.7728
ti	-12.7729
▁ripen	-12.773
Zoheth	-12.7732
▁mov	-12.7733
▁terrifie	-12.7734
take	-12.7738
ather	-12.7738
many	-12.7738
▁Doda	-12.7744
▁bray	-12.7753
▁picks	-12.7755
▁housetops	-12.7755
▁fugitives	-12.7755
▁cobras	-12.7755
▁debts	-12.7755
▁doubled	-12.7755
arly	-12.776
▁alight	-12.7764
▁abounded	-12.7767
ords	-12.7769
▁confer	-12.7773
▁pri	-12.7774
▁mission	-12.7776
▁story	-12.7776
spring	-12.7781
Treas	-12.7788
▁Shen	-12.7791
ho	-12.7795
arks	-12.7797
heads	-12.7801
▁bathed	-12.7803
ood	-12.7807
ched	-12.7813
ommunicate	-12.7815
▁Sia	-12.7817
pher	-12.7818
▁deserted	-12.7819
▁rendered	-12.7819
▁tablet	-12.7824
▁Arod	-12.7826
▁Rez	-12.7826
▁omers	-12.7827
▁faults	-12.7827
▁flutes	-12.7827
▁limbs	-12.7827
▁sapphires	-12.7827
▁lengthen	-12.7829
▁boiling	-12.7831
athites	-12.7832
▁Cuth	-12.7837
nta	-12.7848
▁resolve	-12.7848
▁compare	-12.7853
▁failing	-12.7857
▁press	-12.7861
▁sink	-12.7865
thir	-12.7869
▁wage	-12.7871
▁Harbona	-12.7876
▁sowing	-12.7881
strange	-12.7882
▁discharged	-12.7904
▁Iron	-12.7904
then	-12.7906
▁strongly	-12.7918
▁Eran	-12.792
ntice	-12.7924
▁Ahisha	-12.7925
▁prospering	-12.7935
▁homer	-12.7936
haz	-12.795
Of	-12.7953
shiah	-12.7959
ength	-12.7963
▁reasoning	-12.7966
▁Pu	-12.7972
▁easi	-12.7973
▁hips	-12.7975
bed	-12.7975
ways	-12.7987
former	-12.7989
inth	-12.7992
elo	-12.7999
▁Seed	-12.8
alem	-12.8011
▁beating	-12.8021
ates	-12.8029
▁rush	-12.8037
rat	-12.8039
▁armory	-12.8043
▁Mahala	-12.8044
▁spice	-12.8046
▁ointments	-12.8049
▁acknowledges	-12.8049
▁desolations	-12.8049
▁inc	-12.8053
▁Fearful	-12.8059
nned	-12.8059
▁begg	-12.8068
▁pleading	-12.8082
▁ende	-12.8083
▁iswith	-12.8087
▁Merom	-12.8119
▁Jer	-12.8126
▁heirs	-12.8142
▁shamed	-12.8145
alak	-12.8151
ushed	-12.816
onument	-12.8161
▁declar	-12.8161
ations	-12.8165
▁enclose	-12.8186
▁glorifie	-12.8209
▁freed	-12.8229
▁item	-12.8233
▁Ethn	-12.8242
▁successful	-12.825
eraiah	-12.8254
akened	-12.8263
▁Jethe	-12.8267
▁Wall	-12.8268
▁helpers	-12.8269
▁Mis	-12.8292
Ephrathite	-12.8294
▁maker	-12.8295
Bedan	-12.8312
izon	-12.8317
▁Misp	-12.8326
ory	-12.8326
ised	-12.8336
bun	-12.835
alon	-12.8353
ages	-12.8361
▁remembering	-12.8364
▁openings	-12.837
▁Rul	-12.8387
▁Lebana	-12.84
▁bi	-12.8411
▁Repha	-12.843
▁rightly	-12.8434
herub	-12.8438
olly	-12.8442
heb	-12.8469
umble	-12.8469
solved	-12.8481
▁ceremoni	-12.8491
▁badgers	-12.8513
▁cares	-12.8542
▁scree	-12.8544
▁practic	-12.8567
▁falling	-12.8574
▁crying	-12.8587
omer	-12.8602
▁Held	-12.8635
tra	-12.8695
▁Sharai	-12.8708
▁parted	-12.8751
kin	-12.8756
ives	-12.8778
ckling	-12.8812
▁mel	-12.8815
▁mut	-12.8816
ring	-12.8832
▁Susi	-12.885
hen	-12.8866
thite	-12.8869
▁Jaan	-12.8924
eeping	-12.8935
ves	-12.8942
tly	-12.8957
wall	-12.8964
anim	-12.897
versity	-12.8982
Heed	-12.8994
any	-12.9003
▁flash	-12.9015
▁Allon	-12.9025
▁Ishv	-12.904
▁Hakko	-12.9048
▁Right	-12.9062
char	-12.9064
▁Bin	-12.9074
erai	-12.9091
go	-12.9109
▁Pad	-12.9138
▁mus	-12.9156
yes	-12.9192
ebah	-12.9196
▁pierc	-12.9252
▁squares	-12.9267
hites	-12.928
▁measur	-12.9295
▁miser	-12.933
▁scrap	-12.9343
iers	-12.9424
dged	-12.9438
cleanness	-12.9441
▁regions	-12.9446
▁Ahar	-12.9454
ely	-12.949
ru	-12.9559
rai	-12.9562
uz	-12.9618
▁batt	-12.9652
▁Esa	-12.9732
ense	-12.9842
▁Hachmoni	-12.9863
▁Mahan	-12.9867
▁Mara	-12.9876
▁accordingly	-12.9876
▁droves	-12.9909
ana	-12.9981
ery	-12.9998
▁pala	-13.0002
Ha	-13.0036
udent	-13.0046
zion	-13.0098
▁Hagaba	-13.0122
vert	-13.0132
after	-13.0136
▁Sar	-13.0139
▁howl	-13.0142
▁Rapha	-13.0167
lender	-13.0273
▁gr	-13.0304
▁diff	-13.0306
▁Min	-13.0321
▁Jimna	-13.0324
eign	-13.0384
lighten	-13.0425
ker	-13.0435
▁crack	-13.0444
rive	-13.0458
mitted	-13.0466
▁exchang	-13.0484
▁confessi	-13.0491
▁Purif	-13.0509
▁endur	-13.0577
▁Tela	-13.0579
▁tra	-13.0592
him	-13.0648
ade	-13.0742
ses	-13.0828
iza	-13.0833
Eldad	-13.0864
zah	-13.0956
▁favorabl	-13.1081
▁Eshe	-13.109
▁gnash	-13.1095
▁executi	-13.1117
▁Gaz	-13.1225
▁Tar	-13.1286
▁parc	-13.1308
thful	-13.1367
▁Hammo	-13.1369
Besides	-13.1397
rea	-13.1467
ddai	-13.153
ign	-13.1552
obah	-13.1582
▁Shele	-13.1586
▁charg	-13.1609
azza	-13.1655
▁scourg	-13.1664
bon	-13.1685
addai	-13.1712
nce	-13.1769
▁Rabbi	-13.1802
elites	-13.1819
ena	-13.1936
▁Alva	-13.2158
▁Maha	-13.2164
rate	-13.2247
▁Beroth	-13.2377
ware	-13.2451
zib	-13.2473
▁Harha	-13.2476
emeth	-13.2511
oil	-13.2603
▁Kena	-13.2676
ffering	-13.2763
Hail	-13.2926
▁Hagab	-13.2943
▁Raph	-13.2952
Age	-13.2985
▁rever	-13.3014
▁Jimn	-13.3024
▁plum	-13.304
late	-13.3063
flicted	-13.3072
pr	-13.3074
▁Divin	-13.3106
phah	-13.3164
▁idolat	-13.3261
ziah	-13.3266
▁la	-13.3271
utter	-13.3304
lek	-13.3314
▁Jar	-13.3347
lf	-13.338
au	-13.3418
▁rece	-13.3439
tual	-13.3536
cal	-13.3605
▁Haru	-13.3627
arden	-13.3631
▁ti	-13.3692
▁truthful	-13.3724
▁co	-13.3845
ercy	-13.3848
xcellen	-13.3887
▁Includ	-13.3999
erry	-13.4023
iserable	-13.4052
bah	-13.4078
num	-13.4105
▁deceiv	-13.4107
egi	-13.4225
athaim	-13.4264
harp	-13.4299
▁relati	-13.43
▁hol	-13.4414
▁gen	-13.4423
hur	-13.4473
uel	-13.4499
▁Ezrah	-13.4503
▁Hakk	-13.4541
▁Han	-13.4566
▁Ziz	-13.4579
loth	-13.4633
▁pervers	-13.4639
▁flashe	-13.4668
ekah	-13.4736
aze	-13.4769
▁Eze	-13.4769
▁Hagg	-13.4799
anai	-13.482
▁Arb	-13.4823
mz	-13.4828
▁assur	-13.4876
▁Zereda	-13.4907
trained	-13.4925
asph	-13.4948
ak	-13.4969
▁profan	-13.4985
▁solve	-13.5003
▁Lordbless	-13.5025
action	-13.5029
▁Sus	-13.5032
euel	-13.5039
▁Hara	-13.511
lead	-13.5226
▁conclu	-13.526
▁Grac	-13.5262
cket	-13.5306
hel	-13.5322
ezib	-13.5332
▁Ishb	-13.539
mer	-13.5473
mai	-13.5525
▁Hum	-13.5539
▁ceremon	-13.554
azzar	-13.5576
anks	-13.58
zrahite	-13.5818
▁rip	-13.585
▁Nah	-13.5866
▁thre	-13.5891
Find	-13.5967
falls	-13.5971
ekel	-13.598
aller	-13.5989
▁Gaddi	-13.5999
▁Ahim	-13.6024
pat	-13.6035
ior	-13.6053
mal	-13.6066
“	-13.6091
▁Hash	-13.6098
▁Evi	-13.6134
▁Jeth	-13.6134
ope	-13.6139
▁ru	-13.6187
▁Shame	-13.6196
▁Abi	-13.6218
▁Hann	-13.6236
ibiah	-13.6266
▁Ishm	-13.6279
▁Elu	-13.6284
ealed	-13.6312
gar	-13.6317
eeks	-13.6345
oam	-13.6346
fulness	-13.6364
▁discont	-13.6365
part	-13.6378
▁Hi	-13.6384
j	-13.6395
▁dev	-13.6436
ob	-13.6454
inu	-13.6463
▁Va	-13.651
▁revere	-13.6515
▁Drip	-13.6563
▁Maad	-13.6584
enuah	-13.6584
▁Shama	-13.6586
azin	-13.6591
arth	-13.6602
oba	-13.6603
parable	-13.6687
▁mon	-13.6697
zim	-13.6718
courses	-13.674
cline	-13.6749
En	-13.6752
▁Ken	-13.6796
▁Ra	-13.6807
ro	-13.6845
▁Tab	-13.6845
bonah	-13.6849
▁Jah	-13.6855
▁Beera	-13.6865
ift	-13.6871
▁kn	-13.6882
rub	-13.6892
▁overtak	-13.6907
▁Chelu	-13.6917
▁Jora	-13.6918
pring	-13.6947
Hidd	-13.6959
▁Arodi	-13.6973
▁Perf	-13.6978
elech	-13.6989
air	-13.7016
got	-13.7016
▁Tophe	-13.703
▁marke	-13.7034
no	-13.7069
▁confe	-13.7092
ref	-13.7093
imnah	-13.7099
▁Shime	-13.7104
aa	-13.712
erioth	-13.7133
wler	-13.7136
▁expe	-13.7136
▁Ibn	-13.7147
▁Jab	-13.7156
gives	-13.7159
▁Ref	-13.7181
▁Zohe	-13.7187
▁Timn	-13.7198
▁Tib	-13.7202
laiah	-13.7205
▁etern	-13.7215
zite	-13.7225
hold	-13.7225
▁speci	-13.7227
▁spa	-13.7243
sume	-13.7262
rred	-13.7267
▁cu	-13.7287
▁Bigtha	-13.7294
▁inscri	-13.7296
Flee	-13.7315
▁emp	-13.732
▁suc	-13.7322
ria	-13.7325
▁mort	-13.7326
arai	-13.7327
▁Jashubi	-13.7337
▁conc	-13.734
bba	-13.734
right	-13.7345
anites	-13.7346
ttle	-13.7347
reputa	-13.7352
ets	-13.7355
lanted	-13.736
thaim	-13.7386
ack	-13.7386
ight	-13.7386
ac	-13.7389
LordGod	-13.7391
armite	-13.7395
row	-13.7403
▁circula	-13.7416
oah	-13.7419
naim	-13.7427
have	-13.7433
▁Gibea	-13.7441
tribution	-13.7448
▁Pel	-13.7451
vely	-13.7451
ishes	-13.7453
▁blasphem	-13.7453
▁entic	-13.7454
hav	-13.7457
erathite	-13.746
addl	-13.7461
▁Chi	-13.7463
hal	-13.7463
▁Shimi	-13.7464
pers	-13.7464
vit	-13.7466
▁devis	-13.7468
▁whet	-13.7468
nach	-13.7471
uous	-13.7472
pi	-13.7473
▁tramp	-13.7473
▁ambassador	-13.7475
▁diviner	-13.7475
▁choir	-13.7475
▁imprison	-13.7475
▁cupbearer	-13.7476
rmory	-13.7476
▁Lordgive	-13.7478
▁pertain	-13.7481
▁satisf	-13.7482
▁Mach	-13.7484
▁jewel	-13.7484
▁Abiezrite	-13.7484
▁benefit	-13.7484
▁egg	-13.7484
▁bowstring	-13.7484
▁infant	-13.7484
words	-13.7484
▁wineskin	-13.7484
▁furrow	-13.7485
▁offense	-13.7485
▁accuser	-13.7488
bility	-13.7488
▁crop	-13.7488
▁Hagrite	-13.7489
zrahiah	-13.7489
pikenard	-13.7489
Tamar	-13.7489
▁sorcer	-13.749
▁spiritist	-13.7491
▁doorkeeper	-13.7492
bundant	-13.7493
rtistic	-13.7493
▁acquaintance	-13.7493
▁Chaldean	-13.7493
ppoint	-13.7494
xes	-13.7494
▁rope	-13.7495
▁booth	-13.7495
▁strap	-13.7496
▁saint	-13.7498
ttack	-13.7498
▁gatekeeper	-13.7498
▁archer	-13.7498
▁stream	-13.7498
▁village	-13.7499
▁leg	-13.75
tresses	-13.7501
▁earring	-13.7501
▁measurement	-13.7502
▁rais	-13.7503
eans	-13.7504
arts	-13.7505
cepter	-13.7505
eize	-13.7506
urned	-13.7506
port	-13.7506
ustain	-13.7506
▁Plan	-13.7506
treams	-13.7507
quare	-13.7508
erpent	-13.7508
prinkle	-13.7508
lock	-13.7509
eparate	-13.7509
tolen	-13.7509
alvation	-13.7509
anctuary	-13.7509
pan	-13.7509
acrifice	-13.7509
bearer	-13.751
▁thorn	-13.7511
▁Shut	-13.7512
blem	-13.7512
▁marr	-13.7512
ishpa	-13.7514
▁adulter	-13.7515
appear	-13.7516
▁patien	-13.7518
tiff	-13.7518
▁besieg	-13.7519
nything	-13.7519
▁scor	-13.752
top	-13.7523
too	-13.7524
dispos	-13.7525
Ammi	-13.7526
nath	-13.7527
ards	-13.7528
▁transgressor	-13.7528
rmoni	-13.7529
▁dish	-13.7529
nai	-13.7531
▁sprinkl	-13.7532
iving	-13.7535
ziz	-13.7535
measur	-13.7535
▁doubl	-13.7536
▁Ju	-13.7536
▁humbl	-13.7537
▁meddl	-13.7537
Pray	-13.7539
Search	-13.7539
sorrowful	-13.7539
Children	-13.7539
Chimham	-13.7539
Escape	-13.7539
Jashobeam	-13.7539
Redeem	-13.7539
ruddy	-13.7539
▁reviv	-13.7539
uit	-13.754
▁extort	-13.754
▁injur	-13.754
▁cheat	-13.754
▁wav	-13.754
Rapha	-13.754
▁uni	-13.7541
sembled	-13.7541
Cut	-13.7541
▁escap	-13.7542
lated	-13.7542
▁releas	-13.7542
patient	-13.7542
ismiss	-13.7542
Keturah	-13.7542
confident	-13.7542
represent	-13.7542
rotten	-13.7542
Coun	-13.7542
▁lodg	-13.7542
▁err	-13.7543
▁embalm	-13.7543
breed	-13.7543
▁kick	-13.7543
snared	-13.7544
Amasai	-13.7544
Hattush	-13.7544
Helez	-13.7544
Aholiab	-13.7544
Bow	-13.7544
loss	-13.7544
anywhere	-13.7544
what	-13.7544
bases	-13.7544
great	-13.7544
lot	-13.7544
▁discover	-13.7544
receives	-13.7544
plagued	-13.7544
listening	-13.7544
Ataroth	-13.7544
Jahaziel	-13.7544
smooth	-13.7545
high	-13.7545
▁trial	-13.7545
lish	-13.7545
submit	-13.7545
shepherds	-13.7545
Supp	-13.7545
advised	-13.7545
proper	-13.7545
Timna	-13.7545
melted	-13.7545
Wash	-13.7545
Eliphelet	-13.7545
Geshur	-13.7545
Shammah	-13.7545
meditation	-13.7545
ordered	-13.7545
uproot	-13.7545
promise	-13.7545
Tola	-13.7546
Likewise	-13.7546
ple	-13.7546
encamp	-13.7546
northward	-13.7546
Awake	-13.7546
Geber	-13.7546
reigns	-13.7546
▁conquer	-13.7546
▁meditat	-13.7546
Dishon	-13.7546
ripe	-13.7546
Nahshon	-13.7546
archers	-13.7546
Maacah	-13.7546
distribute	-13.7546
boast	-13.7546
drop	-13.7546
Furthermore	-13.7546
Zelophehad	-13.7546
interest	-13.7546
Evi	-13.7546
stirred	-13.7546
hewn	-13.7546
corrupt	-13.7546
watchman	-13.7546
Happ	-13.7546
Hagar	-13.7546
meam	-13.7546
Abinadab	-13.7546
Jeiel	-13.7546
Nahash	-13.7546
Zimri	-13.7546
unity	-13.7546
ities	-13.7546
Eliphaz	-13.7547
Lo	-13.7547
drinking	-13.7547
vine	-13.7547
deceitful	-13.7547
Ziba	-13.7547
provisions	-13.7547
Athaliah	-13.7547
fourteen	-13.7547
armorbearer	-13.7547
leprous	-13.7547
hammer	-13.7547
Nadab	-13.7547
grown	-13.7547
Elkanah	-13.7547
Naomi	-13.7547
memorial	-13.7547
talked	-13.7547
bowls	-13.7547
foolish	-13.7547
valiant	-13.7547
Othniel	-13.7547
transgression	-13.7547
Amalek	-13.7547
Boaz	-13.7547
instead	-13.7547
repay	-13.7547
guilty	-13.7547
cubit	-13.7547
Hiram	-13.7547
birth	-13.7547
remembered	-13.7547
Hannah	-13.7547
profit	-13.7547
▁jeopard	-13.7547
Up	-13.7547
Micah	-13.7547
restrained	-13.7547
just	-13.7547
Amnon	-13.7547
proud	-13.7547
Gibeon	-13.7547
blameless	-13.7547
vow	-13.7547
empty	-13.7547
Like	-13.7547
righteous	-13.7547
Midian	-13.7547
Sihon	-13.7547
Caleb	-13.7547
servant	-13.7547
defiled	-13.7547
Bethlehem	-13.7547
Issachar	-13.7547
é	-13.7576
́	-15.1255
Q	-15.1256
(	-15.1257
q	-15.1258
Z	-15.1259
Y	-15.126
J	-15.1261
v	-15.1262
