<unk>	0
<s>	0
</s>	0
s	-3.16704
,	-3.38489
.	-3.3954
▁the	-3.41782
▁of	-3.87641
▁and	-4.04902
▁to	-4.11138
▁a	-4.30725
▁in	-4.42898
'	-4.57263
t	-4.70125
ing	-4.76536
ed	-4.87394
▁"	-4.95559
d	-4.96185
▁I	-4.99028
▁you	-5.07279
▁for	-5.08211
-	-5.22892
▁is	-5.23882
▁that	-5.24102
▁on	-5.36686
▁it	-5.48261
▁with	-5.49589
▁	-5.53533
▁be	-5.53807
n	-5.54587
y	-5.55052
▁or	-5.59738
▁was	-5.60601
ly	-5.63064
re	-5.65428
▁The	-5.66853
er	-5.73578
)	-5.74261
▁as	-5.77668
m	-5.82702
?	-5.84281
▁(	-5.88151
▁by	-5.92187
▁-	-5.95445
▁this	-5.95787
e	-5.95839
▁are	-5.96354
;	-5.96598
al	-5.99033
▁have	-6.01636
▁at	-6.04056
▁not	-6.05488
▁from	-6.06197
▁your	-6.07417
▁he	-6.08524
r	-6.203
▁we	-6.21381
▁A	-6.22672
c	-6.24356
or	-6.24658
in	-6.25082
▁an	-6.27887
▁me	-6.30376
▁s	-6.305
o	-6.30565
ll	-6.3157
l	-6.32582
▁can	-6.35696
a	-6.36649
▁shall	-6.4032
▁re	-6.40516
/	-6.4413
▁his	-6.44434
▁'	-6.45722
▁c	-6.45965
▁S	-6.49593
:	-6.49981
le	-6.5319
▁but	-6.5347
▁do	-6.53838
es	-6.54797
▁b	-6.54811
▁all	-6.55231
p	-6.55569
▁her	-6.55966
i	-6.57135
▁out	-6.58445
▁one	-6.59332
ation	-6.59822
u	-6.60239
▁they	-6.6063
▁my	-6.61765
▁had	-6.62692
▁You	-6.62873
th	-6.63925
▁which	-6.65491
▁up	-6.65819
ve	-6.66173
▁so	-6.66818
▁In	-6.68053
ri	-6.69416
▁their	-6.69846
▁about	-6.71185
g	-6.73952
▁It	-6.74183
▁she	-6.74276
en	-6.74432
▁will	-6.75867
▁were	-6.76364
b	-6.76479
▁Article	-6.77242
▁de	-6.78125
▁C	-6.78266
▁if	-6.80019
▁what	-6.81251
il	-6.8149
▁time	-6.81515
on	-6.81715
it	-6.84052
▁n	-6.84152
▁other	-6.84728
▁like	-6.84871
an	-6.85306
...	-6.86945
ic	-6.871
▁who	-6.87878
ur	-6.88027
▁He	-6.88056
▁has	-6.88366
▁And	-6.88596
S	-6.89441
ra	-6.89568
ar	-6.92596
▁no	-6.94605
▁19	-6.94637
h	-6.94792
k	-6.94809
▁know	-6.95433
▁more	-6.95759
▁when	-6.95852
\'	-6.96351
f	-6.97796
w	-7.0124
!	-7.02417
▁into	-7.02637
▁him	-7.02852
▁been	-7.03284
▁just	-7.03551
▁there	-7.03952
li	-7.0539
▁them	-7.05683
C	-7.06642
▁said	-7.07934
▁would	-7.08522
▁No	-7.0959
I	-7.1012
▁B	-7.10306
2	-7.10542
ro	-7.10935
ers	-7.11859
▁:	-7.12575
▁d	-7.13886
ion	-7.14169
▁i	-7.14648
▁over	-7.14869
▁F	-7.15141
▁people	-7.15427
▁E	-7.15547
▁get	-7.15907
A	-7.1626
et	-7.16315
3	-7.17957
at	-7.18586
el	-7.1872
▁g	-7.18805
▁We	-7.18842
▁use	-7.18958
4	-7.19016
▁To	-7.19577
▁make	-7.1992
T	-7.20197
ch	-7.20516
ce	-7.21494
ity	-7.22348
▁If	-7.22379
la	-7.22448
lo	-7.23644
▁than	-7.23858
▁under	-7.23947
se	-7.2576
P	-7.26548
▁This	-7.26592
ne	-7.26611
9	-7.27376
▁must	-7.28485
▁p	-7.28601
▁So	-7.28619
▁some	-7.2903
▁also	-7.31484
▁P	-7.31517
▁may	-7.31615
▁first	-7.3192
ment	-7.32104
▁G	-7.32404
▁any	-7.33198
▁e	-7.33208
able	-7.33393
5	-7.33699
us	-7.34204
▁could	-7.34784
ia	-7.34814
▁after	-7.35244
ent	-7.35245
ol	-7.3555
▁right	-7.36212
▁want	-7.36355
▁1.	-7.36972
▁see	-7.37149
7	-7.37386
de	-7.37551
D	-7.37752
▁here	-7.37882
▁un	-7.38566
▁go	-7.38722
ist	-7.39396
ive	-7.39399
▁2.	-7.39775
ate	-7.39795
▁3	-7.40071
ma	-7.40114
▁But	-7.40279
O	-7.40766
6	-7.41113
▁back	-7.42013
ter	-7.42198
▁don	-7.42755
E	-7.42806
▁two	-7.42889
▁where	-7.43028
▁only	-7.43633
▁T	-7.44038
▁such	-7.44157
to	-7.44174
▁work	-7.44871
ng	-7.45004
▁us	-7.46061
ry	-7.4659
▁our	-7.46636
z	-7.46665
id	-7.46795
▁She	-7.47112
M	-7.47125
▁M	-7.47319
▁st	-7.47667
▁take	-7.47851
▁way	-7.47996
vi	-7.4813
▁new	-7.48583
te	-7.48908
▁Re	-7.49754
1	-7.49877
▁think	-7.50169
▁even	-7.50291
ant	-7.50451
"	-7.50631
me	-7.50658
ir	-7.50799
est	-7.51169
ies	-7.5186
▁need	-7.52058
▁1	-7.5283
▁how	-7.53403
▁O	-7.54041
▁now	-7.54171
8	-7.55956
▁these	-7.56998
▁before	-7.57191
▁down	-7.58022
ta	-7.58718
▁\'	-7.58843
as	-7.59372
mp	-7.5971
age	-7.59779
▁its	-7.60051
ine	-7.6011
▁then	-7.60388
▁con	-7.60585
▁2	-7.61086
▁f	-7.6162
x	-7.62326
na	-7.62411
▁Ma	-7.62913
▁K	-7.63581
B	-7.64065
▁should	-7.64116
▁did	-7.64335
ck	-7.6542
▁For	-7.66103
ian	-7.66135
▁4	-7.66401
▁Ministry	-7.67308
▁pro	-7.67701
▁state	-7.67786
▁going	-7.67987
ge	-7.68149
▁years	-7.68749
ul	-7.68813
is	-7.69048
mi	-7.69732
ting	-7.70392
▁because	-7.70649
▁U	-7.70992
▁help	-7.71964
▁most	-7.72155
▁N	-7.72282
ance	-7.72563
pe	-7.72893
im	-7.7304
▁management	-7.73048
▁come	-7.73408
▁co	-7.73881
▁good	-7.74709
▁D	-7.74958
▁They	-7.75082
▁part	-7.75405
▁made	-7.75413
H	-7.75533
▁form	-7.75823
▁What	-7.76424
am	-7.7648
▁man	-7.76583
▁very	-7.76737
▁through	-7.76832
ary	-7.76921
▁V	-7.77017
▁law	-7.77081
▁day	-7.77081
ci	-7.77093
▁State	-7.77243
▁5	-7.77606
▁land	-7.78212
%	-7.78275
▁used	-7.78602
▁3.	-7.78627
L	-7.78663
▁got	-7.78859
▁system	-7.78993
um	-7.79059
▁between	-7.79157
0	-7.79525
ke	-7.79753
▁Do	-7.80128
N	-7.80224
tic	-7.80231
▁well	-7.80463
▁Vietnam	-7.80485
▁number	-7.80606
▁W	-7.81532
mo	-7.81595
ated	-7.81905
ad	-7.82534
ful	-7.82612
▁water	-7.82655
ty	-7.82694
▁say	-7.83244
▁place	-7.83282
▁life	-7.83446
▁information	-7.83524
om	-7.83757
▁each	-7.85543
un	-7.85873
▁head	-7.86011
▁business	-7.86373
▁Clause	-7.86524
co	-7.86528
▁off	-7.86533
▁com	-7.86895
▁those	-7.88231
▁being	-7.88298
▁something	-7.89196
▁la	-7.89211
▁That	-7.89319
▁10	-7.89403
▁same	-7.90611
G	-7.91042
▁name	-7.91181
▁much	-7.91697
F	-7.91981
▁dis	-7.92721
ating	-7.92871
ha	-7.93102
▁agencies	-7.93612
▁investment	-7.93706
man	-7.93963
▁tax	-7.94062
ca	-7.94473
▁according	-7.94799
▁case	-7.94869
▁year	-7.95197
▁De	-7.95393
ho	-7.95691
▁look	-7.95775
▁world	-7.96299
▁many	-7.96579
▁L	-7.96742
▁end	-7.97366
▁H	-7.97637
▁pre	-7.97836
no	-7.97979
and	-7.98836
ness	-7.98949
V	-7.99039
▁around	-7.99306
ut	-7.99528
U	-7.99657
ow	-8.00312
ial	-8.00457
ie	-8.00604
▁find	-8.0093
▁tell	-8.01034
ling	-8.01293
▁regulations	-8.01355
).	-8.01581
▁There	-8.01779
▁still	-8.01802
▁foreign	-8.01892
▁long	-8.02069
▁v	-8.02092
▁show	-8.02205
▁ma	-8.02282
▁ex	-8.02612
▁own	-8.02723
▁m	-8.02765
ti	-8.02906
▁mo	-8.03108
▁organizations	-8.032
▁People	-8.03347
▁ra	-8.03538
▁When	-8.03761
▁found	-8.03871
▁really	-8.04002
R	-8.0409
▁order	-8.0425
ure	-8.04398
ted	-8.04741
ni	-8.05033
▁po	-8.05167
pa	-8.05447
▁prescribed	-8.05693
ous	-8.0579
▁following	-8.05912
▁public	-8.06169
▁too	-8.06217
▁never	-8.06515
▁capital	-8.06867
the	-8.07483
▁days	-8.07521
rs	-8.07565
▁little	-8.07596
▁La	-8.07993
▁Decree	-8.0905
▁person	-8.09699
one	-8.09946
▁three	-8.10302
ag	-8.10324
▁Ca	-8.10632
▁power	-8.10647
ical	-8.11101
op	-8.11449
▁high	-8.11841
▁An	-8.12212
go	-8.12329
▁mean	-8.14047
▁sp	-8.14124
▁every	-8.14138
▁development	-8.1415
--	-8.14797
▁things	-8.14856
▁within	-8.14941
▁As	-8.14942
▁6	-8.15421
▁t	-8.15788
▁construction	-8.15801
v	-8.15901
▁give	-8.15939
▁goods	-8.16107
va	-8.16111
▁thought	-8.16345
▁operation	-8.16372
▁ca	-8.16475
▁car	-8.1656
▁Be	-8.16566
ence	-8.16585
ton	-8.16624
per	-8.16746
▁let	-8.17328
▁great	-8.17433
cu	-8.17514
tion	-8.17542
▁Minister	-8.176
▁Mo	-8.17755
▁point	-8.18109
▁while	-8.18223
em	-8.18294
200	-8.18479
ally	-8.18509
▁change	-8.18644
ot	-8.18827
di	-8.19039
▁Law	-8.19086
▁R	-8.19263
lu	-8.19287
port	-8.19596
▁Circular	-8.19827
▁live	-8.19863
ish	-8.20438
▁),	-8.20778
▁Pa	-8.2085
▁Government	-8.20924
les	-8.21525
▁Ba	-8.21716
▁might	-8.21768
be	-8.21986
▁Ro	-8.22268
▁during	-8.22887
▁set	-8.22936
▁Ho	-8.23054
ring	-8.23055
▁against	-8.23109
▁Le	-8.23458
ver	-8.23594
he	-8.23637
▁activities	-8.23763
20	-8.23977
ard	-8.24122
ations	-8.24167
▁plan	-8.24232
▁another	-8.24243
▁home	-8.24567
▁8	-8.24898
▁control	-8.25148
▁thing	-8.25203
▁4.	-8.25209
ight	-8.25239
ward	-8.25398
▁different	-8.25706
▁per	-8.25726
up	-8.25777
▁hand	-8.26127
▁Con	-8.2618
▁keep	-8.26207
▁last	-8.26217
▁again	-8.26466
▁18	-8.26488
▁without	-8.26693
▁Me	-8.26848
▁both	-8.26854
ga	-8.26885
▁small	-8.27211
▁project	-8.27364
con	-8.27445
▁7	-8.27477
▁On	-8.27484
▁request	-8.27625
▁Pro	-8.27746
▁Al	-8.27947
son	-8.28037
▁love	-8.28417
▁feel	-8.28992
▁report	-8.29004
▁put	-8.29289
▁Ha	-8.29476
▁house	-8.29632
▁group	-8.2967
▁k	-8.29697
rr	-8.29758
nd	-8.30073
▁old	-8.30254
▁area	-8.30453
▁15	-8.30711
▁Sa	-8.30801
▁interest	-8.30838
▁20	-8.3094
▁away	-8.3119
▁second	-8.3119
▁does	-8.31241
▁period	-8.31319
▁price	-8.3145
sion	-8.31476
▁pay	-8.31557
min	-8.31655
▁value	-8.31759
ex	-8.31779
▁working	-8.32149
red	-8.32188
ak	-8.32418
way	-8.32501
if	-8.328
▁support	-8.32806
ig	-8.32817
▁Well	-8.3319
▁called	-8.33516
▁application	-8.34767
▁didn	-8.34813
mb	-8.34834
▁Bo	-8.34848
▁national	-8.34849
▁documents	-8.3521
▁human	-8.35315
ten	-8.35654
▁h	-8.36109
ect	-8.36112
▁Mar	-8.36258
ction	-8.36277
W	-8.3631
▁9	-8.36386
▁school	-8.36598
ang	-8.36684
ru	-8.37062
ber	-8.3714
sh	-8.37214
▁)	-8.37283
▁sh	-8.37301
▁service	-8.37351
▁call	-8.37435
▁th	-8.37532
▁provide	-8.37566
▁company	-8.37725
ap	-8.3811
▁market	-8.38497
▁including	-8.3898
po	-8.39085
▁open	-8.39115
▁few	-8.39247
▁start	-8.3932
▁office	-8.39477
land	-8.39516
▁organization	-8.39585
▁process	-8.39597
▁Li	-8.39875
▁r	-8.39922
ud	-8.40317
▁gra	-8.40325
▁close	-8.40401
▁di	-8.41299
▁until	-8.41358
oc	-8.41367
▁design	-8.41398
▁services	-8.41416
ite	-8.41547
▁am	-8.41842
bo	-8.4186
▁St	-8.41923
▁social	-8.42
ster	-8.42053
▁implementation	-8.42118
▁together	-8.422
▁list	-8.42535
▁include	-8.42597
▁kind	-8.42715
▁sure	-8.42728
▁bank	-8.42788
▁en	-8.42992
K	-8.43242
▁men	-8.43306
ki	-8.43559
▁ch	-8.43622
▁face	-8.43682
▁individuals	-8.43772
ator	-8.43806
00	-8.44012
▁ro	-8.44064
▁why	-8.4418
▁body	-8.44588
▁enterprises	-8.44635
tra	-8.44675
▁production	-8.44956
▁pa	-8.45056
ba	-8.45107
da	-8.45353
▁line	-8.4537
▁left	-8.45392
▁ti	-8.45429
▁mi	-8.45629
ab	-8.4599
▁came	-8.46083
▁At	-8.46282
▁less	-8.46305
led	-8.46339
▁government	-8.46424
▁li	-8.46429
▁12	-8.46442
king	-8.46589
▁Ar	-8.46616
▁training	-8.469
der	-8.46977
ice	-8.47005
ide	-8.47138
end	-8.47255
▁side	-8.47347
▁amount	-8.47465
▁local	-8.47489
▁fl	-8.4766
▁using	-8.4766
▁Department	-8.47676
▁Now	-8.47737
▁ba	-8.47905
▁lot	-8.48021
▁book	-8.48341
ron	-8.48343
▁rate	-8.48471
▁talk	-8.48544
▁specified	-8.48618
▁level	-8.48699
pi	-8.48736
000	-8.48839
▁issue	-8.48899
▁better	-8.48929
▁Co	-8.4937
▁means	-8.49391
▁All	-8.49538
our	-8.49596
▁contract	-8.4965
do	-8.4967
▁competent	-8.49805
ND	-8.49826
ff	-8.50516
▁gonna	-8.50636
▁money	-8.5069
▁later	-8.50752
▁decision	-8.5078
▁always	-8.5087
▁class	-8.50902
lin	-8.51031
ach	-8.51102
▁food	-8.51336
▁idea	-8.51382
we	-8.51461
▁sub	-8.51506
ong	-8.51675
ions	-8.51725
▁Da	-8.51726
▁30	-8.51728
ism	-8.51845
ip	-8.51961
tro	-8.51962
▁force	-8.52009
▁family	-8.52123
▁least	-8.52256
ized	-8.52329
less	-8.52519
▁Na	-8.52647
▁projects	-8.52736
wa	-8.52836
▁import	-8.5304
▁war	-8.53045
▁National	-8.53225
▁OF	-8.53298
▁products	-8.53299
act	-8.53329
CP	-8.53358
▁care	-8.53471
▁important	-8.53521
▁having	-8.53672
▁next	-8.5374
▁hi	-8.53747
▁ta	-8.53956
gen	-8.54246
▁Mi	-8.54315
▁provisions	-8.54467
▁ho	-8.54504
▁charge	-8.54699
▁My	-8.54722
▁account	-8.54828
▁conditions	-8.54833
▁registration	-8.55094
▁light	-8.55134
▁0	-8.5521
▁date	-8.55373
▁example	-8.5594
od	-8.55989
ious	-8.5603
▁night	-8.56128
ization	-8.56201
▁How	-8.56261
ture	-8.56265
▁hard	-8.56273
▁general	-8.56285
ka	-8.56633
dy	-8.5671
▁Ra	-8.5706
▁payment	-8.57082
▁country	-8.5715
ual	-8.57188
ize	-8.57242
fe	-8.57392
▁best	-8.57489
ac	-8.57517
▁Wa	-8.57587
▁inter	-8.5759
▁non	-8.576
▁million	-8.57627
▁vi	-8.58048
▁four	-8.58227
▁reason	-8.58352
▁since	-8.58445
▁areas	-8.58449
▁After	-8.58673
level	-8.58847
▁Lo	-8.58901
▁em	-8.58948
▁believe	-8.59174
hi	-8.59259
▁real	-8.59526
▁become	-8.59526
her	-8.5961
▁J	-8.59649
ship	-8.59673
▁known	-8.59826
ny	-8.59837
mon	-8.59976
▁credit	-8.60028
nt	-8.60134
▁week	-8.60174
▁course	-8.60278
▁l	-8.60287
lar	-8.60325
▁went	-8.60334
▁health	-8.60433
▁big	-8.60449
▁took	-8.60473
▁o	-8.60687
▁children	-8.60693
▁room	-8.60766
▁type	-8.60874
▁doing	-8.6092
▁making	-8.61009
▁inspection	-8.61221
▁w	-8.61236
ory	-8.61318
▁VND	-8.61441
▁bo	-8.61542
day	-8.61679
sa	-8.61847
▁told	-8.62208
▁Se	-8.62275
for	-8.62365
gu	-8.62649
▁yourself	-8.62973
▁term	-8.63073
io	-8.63155
▁pi	-8.63194
▁question	-8.63212
▁economic	-8.6325
Y	-8.63411
▁subject	-8.63552
▁ask	-8.63595
▁written	-8.63603
▁ever	-8.63643
▁record	-8.63781
▁sign	-8.63785
▁already	-8.63915
use	-8.64004
que	-8.64087
▁budget	-8.64094
▁enough	-8.6442
▁New	-8.64494
▁Z	-8.64668
tin	-8.64949
▁accordance	-8.64965
ger	-8.65227
▁turn	-8.65566
▁administrative	-8.65744
▁Te	-8.65748
▁city	-8.6578
▁send	-8.65869
▁actually	-8.66212
▁plant	-8.66379
ph	-8.66482
ise	-8.66552
▁cases	-8.66553
▁building	-8.66573
▁anything	-8.66689
qui	-8.66768
▁financial	-8.66979
ep	-8.66994
▁fine	-8.6711
▁works	-8.67387
gra	-8.67425
tter	-8.67444
▁father	-8.67452
▁Jo	-8.67617
▁5.	-8.68026
▁effect	-8.68167
ever	-8.68205
ible	-8.68325
▁Mr	-8.68365
pro	-8.68378
▁insurance	-8.68696
▁--	-8.68752
▁pain	-8.68883
▁Vi	-8.69092
bu	-8.69221
▁trade	-8.69495
▁whole	-8.69507
cing	-8.69627
▁export	-8.69795
▁game	-8.7028
ran	-8.70316
tain	-8.70402
qu	-8.70421
gg	-8.70568
line	-8.70622
ving	-8.70752
▁Ta	-8.70796
▁mind	-8.70815
fi	-8.70873
▁Or	-8.7108
▁guy	-8.71093
tal	-8.71107
▁job	-8.71345
ound	-8.7145
▁Committee	-8.71568
▁girl	-8.71672
▁11	-8.717
▁tr	-8.71871
▁safety	-8.71929
ick	-8.71973
▁legal	-8.72019
ric	-8.72154
▁leave	-8.7231
▁quality	-8.72339
tri	-8.72448
▁understand	-8.72534
▁Po	-8.72685
▁test	-8.72729
▁fund	-8.72839
▁va	-8.73222
▁international	-8.73403
old	-8.73448
▁procedures	-8.73472
▁read	-8.73812
▁le	-8.73861
ition	-8.73888
▁United	-8.73905
▁lo	-8.7408
lic	-8.74105
The	-8.74408
▁ha	-8.74515
▁post	-8.74544
▁air	-8.74668
▁friend	-8.74707
▁asked	-8.74728
av	-8.74771
ces	-8.74771
▁Point	-8.74818
vent	-8.74818
ative	-8.74881
che	-8.74901
os	-8.75139
▁team	-8.75263
▁Su	-8.75648
▁once	-8.7567
ea	-8.75922
▁special	-8.75967
▁pe	-8.76053
▁Ex	-8.76155
▁enterprise	-8.7621
out	-8.76335
▁remain	-8.76342
▁17	-8.7638
▁done	-8.76622
side	-8.76634
▁someone	-8.76634
▁Oh	-8.76654
par	-8.76811
▁total	-8.76812
▁units	-8.76847
▁ship	-8.76863
▁members	-8.77267
▁related	-8.77312
▁try	-8.77338
▁eyes	-8.77372
ev	-8.77391
▁cause	-8.77472
ake	-8.7759
▁often	-8.77661
val	-8.77666
ens	-8.77743
▁program	-8.77772
▁five	-8.78098
bi	-8.78098
ities	-8.78418
▁months	-8.7845
▁share	-8.78588
▁Th	-8.78694
▁large	-8.78816
▁Vietnamese	-8.78829
▁result	-8.78912
▁+	-8.78945
▁short	-8.78961
vo	-8.79059
▁run	-8.79184
▁security	-8.79305
▁act	-8.79342
cent	-8.79401
▁–	-8.79421
▁War	-8.79508
ner	-8.79677
▁dated	-8.79765
ze	-8.79934
bb	-8.8012
▁16	-8.80328
▁natural	-8.80616
19	-8.80621
▁study	-8.80658
▁Some	-8.80895
▁won	-8.80926
▁provincial	-8.81017
▁develop	-8.8109
▁Finance	-8.81262
▁present	-8.81405
▁nothing	-8.8143
▁able	-8.8145
▁matter	-8.8146
▁kill	-8.81496
▁14	-8.81597
▁happen	-8.81598
ee	-8.81617
▁transfer	-8.8162
br	-8.8175
▁data	-8.81813
▁relevant	-8.81815
ral	-8.81853
▁full	-8.81873
▁research	-8.81911
by	-8.81938
▁fire	-8.82061
iv	-8.82146
▁mother	-8.82223
▁walk	-8.82267
▁protection	-8.8229
▁became	-8.82479
▁star	-8.82485
▁authority	-8.82501
▁treatment	-8.82533
▁contain	-8.82568
ler	-8.827
row	-8.82875
ium	-8.82926
pp	-8.83027
▁based	-8.83081
▁agency	-8.83095
ai	-8.83149
ue	-8.832
ub	-8.83201
▁central	-8.83256
▁specific	-8.83256
ell	-8.8329
▁stop	-8.83398
▁equipment	-8.83494
▁Ch	-8.83575
▁13	-8.83743
mer	-8.83775
▁One	-8.83822
▁along	-8.83844
fa	-8.83982
▁fa	-8.84552
ult	-8.84759
▁free	-8.85177
▁fr	-8.85332
ning	-8.85372
▁Why	-8.85476
▁play	-8.85628
▁forest	-8.85674
▁wanted	-8.85743
▁bad	-8.85755
▁saw	-8.86147
▁fact	-8.86158
▁tra	-8.86173
▁far	-8.86248
mm	-8.86307
▁clear	-8.86314
▁risk	-8.86336
▁common	-8.86342
▁win	-8.86396
au	-8.86517
▁function	-8.86765
▁violations	-8.86861
000,000	-8.87239
com	-8.87279
gi	-8.87358
▁paper	-8.87449
é	-8.8756
▁sale	-8.87562
▁imp	-8.87633
▁stay	-8.8769
▁women	-8.87695
▁Gu	-8.87744
ES	-8.87796
▁planning	-8.87877
▁technology	-8.88048
▁upon	-8.88074
▁authorities	-8.88169
▁meet	-8.88277
▁technical	-8.88412
▁official	-8.88446
▁several	-8.88733
▁method	-8.88847
▁Let	-8.88915
▁blood	-8.89041
▁Go	-8.89125
▁ten	-8.8915
▁step	-8.89248
▁Car	-8.89264
▁arm	-8.89394
▁1,	-8.89417
▁Prime	-8.89421
▁license	-8.89444
▁looking	-8.8972
ify	-8.89769
▁Dr	-8.89876
▁yet	-8.89901
ew	-8.89984
▁American	-8.90014
▁labor	-8.90038
▁results	-8.9012
▁Don	-8.90209
▁se	-8.90253
▁experience	-8.90358
▁wi	-8.90409
lay	-8.90447
▁Ka	-8.90497
▁though	-8.90537
▁rest	-8.90609
stan	-8.9087
og	-8.90893
▁Bank	-8.90945
▁education	-8.9103
▁port	-8.91038
▁customs	-8.9117
▁pass	-8.9121
▁moment	-8.91353
▁cover	-8.91455
▁death	-8.9151
▁top	-8.91721
▁Di	-8.9182
▁everything	-8.91967
▁pu	-8.91974
▁certain	-8.9219
▁began	-8.92256
▁main	-8.92294
▁times	-8.92399
▁else	-8.92485
▁bar	-8.92663
ier	-8.92686
▁center	-8.92797
▁companies	-8.92986
▁sa	-8.93048
▁young	-8.93067
▁door	-8.93082
▁plans	-8.93105
▁effective	-8.93124
▁direct	-8.93172
▁provided	-8.93315
wi	-8.9339
▁seen	-8.93726
▁Ne	-8.93797
▁check	-8.93825
▁trying	-8.93831
rn	-8.9388
ments	-8.93914
▁Fi	-8.93937
▁General	-8.93993
▁district	-8.94271
▁Then	-8.94283
▁child	-8.94308
▁bit	-8.94319
▁May	-8.94338
▁major	-8.94344
▁deal	-8.94488
▁unit	-8.94528
▁South	-8.94579
▁dead	-8.94598
▁position	-8.94675
▁sea	-8.94902
▁Not	-8.94947
eg	-8.95017
▁tasks	-8.9505
▁Ja	-8.95128
▁medical	-8.95336
▁problem	-8.95625
▁bring	-8.9579
▁hold	-8.95874
▁Ph	-8.95905
ped	-8.95918
▁given	-8.95988
▁Your	-8.96103
▁getting	-8.96265
▁Je	-8.96517
▁toward	-8.96548
▁road	-8.96611
rac	-8.96671
▁rights	-8.96685
j	-8.96707
▁These	-8.9671
▁meeting	-8.96786
▁property	-8.969
han	-8.96964
▁hear	-8.97179
▁cost	-8.97219
▁app	-8.97432
▁offer	-8.9748
▁China	-8.97484
men	-8.97518
▁perform	-8.97544
▁conduct	-8.9756
▁kid	-8.97588
▁learn	-8.97591
▁minutes	-8.97769
▁late	-8.97892
fin	-8.97963
▁single	-8.98019
▁His	-8.98039
ov	-8.98187
▁hours	-8.98337
▁move	-8.98447
nh	-8.98452
ING	-8.9846
▁$	-8.98482
▁certificate	-8.98711
▁watch	-8.98812
▁knew	-8.98837
ile	-8.9885
▁limit	-8.98851
▁apply	-8.98965
▁heart	-8.99076
▁early	-8.99159
▁oil	-8.99197
▁field	-8.99487
ER	-8.99738
ug	-8.99844
▁Can	-8.99854
▁follows	-8.99866
▁son	-8.99938
cy	-9.00008
▁grow	-9.00062
▁AND	-9.00183
▁half	-9.00202
▁file	-9.00217
▁six	-9.00272
▁protect	-9.00275
rg	-9.0033
▁started	-9.00418
▁Decision	-9.00457
▁te	-9.00589
▁met	-9.00638
▁Man	-9.00718
▁film	-9.00819
▁countries	-9.00825
."	-9.00905
ble	-9.00999
▁sound	-9.01003
▁treat	-9.01062
▁fail	-9.01086
ification	-9.01093
AL	-9.01094
▁implement	-9.01236
▁fall	-9.01404
▁answer	-9.01483
▁near	-9.01621
▁buy	-9.01655
▁return	-9.0167
▁consider	-9.01676
▁THE	-9.01752
ified	-9.01841
rate	-9.02169
▁remember	-9.02182
▁Cha	-9.02205
▁representative	-9.02232
▁hair	-9.02349
▁due	-9.02461
▁exist	-9.02562
▁cell	-9.02634
▁product	-9.02637
▁looked	-9.02652
▁With	-9.02672
▁du	-9.02711
▁anti	-9.02812
▁December	-9.02878
▁Per	-9.03044
und	-9.03135
▁mar	-9.03164
▁ensure	-9.03198
▁professional	-9.03325
▁al	-9.03353
▁taking	-9.03376
▁Just	-9.03377
▁na	-9.03401
▁purpose	-9.0346
▁contents	-9.03462
▁appear	-9.03531
▁Un	-9.03688
▁bi	-9.03942
▁doctor	-9.03958
▁personal	-9.04281
▁cap	-9.04288
▁assets	-9.044
▁issued	-9.0445
▁requirements	-9.0455
▁past	-9.04648
▁boy	-9.04675
▁woman	-9.04678
▁mis	-9.04751
ase	-9.04838
▁speak	-9.04889
▁possible	-9.04956
ress	-9.05008
▁En	-9.0502
form	-9.05022
▁language	-9.05104
put	-9.0518
▁Director	-9.05298
▁seem	-9.05364
▁feeling	-9.05425
▁Her	-9.05467
▁self	-9.05511
AN	-9.05585
▁Committees	-9.05627
▁percent	-9.05829
▁key	-9.05972
▁rule	-9.06068
ries	-9.0611
▁month	-9.06175
▁God	-9.06242
▁measures	-9.06297
▁im	-9.06372
tle	-9.06491
▁today	-9.06671
▁civil	-9.06817
▁party	-9.06821
▁doesn	-9.06901
▁space	-9.07066
▁music	-9.07334
▁institutions	-9.07343
▁US	-9.07358
▁sent	-9.07433
▁cut	-9.07469
▁owner	-9.07527
▁/	-9.0753
▁y	-9.07534
▁age	-9.07641
▁difficult	-9.07642
lan	-9.07679
time	-9.07825
▁transport	-9.07892
▁Yeah	-9.07896
▁detail	-9.07905
▁strong	-9.07907
▁current	-9.08018
€	-9.0803
▁However	-9.08059
▁outside	-9.0829
▁6.	-9.08306
▁create	-9.08395
▁die	-9.08435
ney	-9.08547
▁region	-9.087
du	-9.08714
▁sha	-9.08792
▁Hu	-9.08803
▁50	-9.08913
duct	-9.08986
▁Qu	-9.09039
ox	-9.09158
▁el	-9.09159
▁fo	-9.09257
▁break	-9.0926
str	-9.09307
▁materials	-9.09324
▁situation	-9.09372
▁responsibility	-9.09442
ft	-9.09472
▁says	-9.09504
▁amend	-9.09533
▁among	-9.09662
▁allow	-9.09666
▁industrial	-9.09709
lf	-9.09859
1.	-9.10041
▁original	-9.10132
▁sold	-9.10157
▁card	-9.1016
dic	-9.10198
cle	-9.10208
▁25	-9.10209
ina	-9.10266
▁member	-9.10309
TT	-9.10378
▁June	-9.10756
▁Pre	-9.1079
▁submit	-9.10891
▁practice	-9.10902
tu	-9.11028
wn	-9.11089
▁establishment	-9.11156
late	-9.11198
ctor	-9.11201
▁enter	-9.11256
▁directly	-9.11274
▁low	-9.1129
▁purchase	-9.11403
▁disease	-9.11446
2.	-9.11688
▁environmental	-9.11803
▁approved	-9.11856
▁laws	-9.1195
X	-9.11986
▁notice	-9.1211
▁energy	-9.12311
▁voice	-9.12384
ah	-9.12528
uck	-9.12893
▁zone	-9.12937
▁town	-9.12948
▁Pe	-9.13155
▁art	-9.13302
▁above	-9.13319
▁comply	-9.13436
);	-9.13474
▁100	-9.13516
▁Bu	-9.13516
▁Ju	-9.13564
▁debt	-9.13575
▁agreement	-9.1373
▁eat	-9.13745
ability	-9.13795
▁â	-9.13854
▁fee	-9.13875
▁court	-9.139
▁almost	-9.13961
▁tri	-9.13982
▁coming	-9.14029
▁hands	-9.14059
▁damage	-9.1415
▁increase	-9.1415
▁Council	-9.14197
part	-9.14198
▁ground	-9.14212
▁story	-9.14236
▁X	-9.14381
rap	-9.14461
▁basis	-9.14472
▁Ga	-9.14502
▁ru	-9.14509
▁action	-9.14511
ping	-9.14716
▁trans	-9.14723
▁accept	-9.14732
pos	-9.1476
chi	-9.14803
▁clean	-9.14851
▁skin	-9.15121
á	-9.15146
▁collect	-9.15304
cr	-9.15336
▁population	-9.15403
▁border	-9.15505
▁States	-9.15595
▁friends	-9.15643
▁deep	-9.15722
▁January	-9.15819
▁heard	-9.15954
▁loan	-9.15975
ging	-9.16128
▁environment	-9.16409
▁da	-9.16462
of	-9.16548
▁write	-9.16586
▁taken	-9.16653
▁computer	-9.16708
▁July	-9.16763
▁mass	-9.17042
▁model	-9.17054
▁relationship	-9.17102
▁cat	-9.17282
▁behind	-9.17285
▁himself	-9.173
IN	-9.17334
▁resources	-9.1736
ya	-9.17445
▁word	-9.17582
▁lead	-9.17637
▁structure	-9.17712
ook	-9.17784
▁fi	-9.17834
▁lost	-9.17939
▁World	-9.17941
▁entire	-9.18249
ley	-9.18266
▁wrong	-9.18279
▁hope	-9.18282
▁drive	-9.18309
▁black	-9.18311
▁inside	-9.18606
▁others	-9.18615
▁supplement	-9.18633
hy	-9.18732
▁saying	-9.18735
uch	-9.18745
rk	-9.18864
▁El	-9.18945
▁fish	-9.19046
▁conf	-9.1908
\	-9.19084
▁equal	-9.19161
▁custom	-9.19228
▁levels	-9.19295
▁necessary	-9.1933
ju	-9.19451
▁March	-9.19472
za	-9.19526
▁policies	-9.19548
▁attack	-9.19597
▁ago	-9.19672
▁either	-9.19688
▁across	-9.19766
▁Where	-9.19799
▁individual	-9.19858
ó	-9.19922
▁Am	-9.20131
▁Mon	-9.20145
▁soon	-9.20148
▁cho	-9.20167
▁cur	-9.20235
▁By	-9.20235
▁decisions	-9.20353
▁political	-9.20408
▁regard	-9.20488
▁gave	-9.20568
▁draw	-9.20712
▁front	-9.20804
▁waste	-9.20805
▁August	-9.20849
▁vehicle	-9.2088
▁24	-9.20884
▁writing	-9.20991
▁Look	-9.20991
▁prevent	-9.2103
lor	-9.21062
▁estimate	-9.21212
▁organize	-9.2134
▁mon	-9.21558
▁responsible	-9.21625
▁wo	-9.21796
▁white	-9.21863
pir	-9.21889
tur	-9.21908
▁felt	-9.21948
▁held	-9.22004
▁thinking	-9.22013
izing	-9.22084
▁November	-9.22087
▁approval	-9.22135
▁phone	-9.22369
▁Because	-9.22503
ough	-9.22642
▁brother	-9.22663
ject	-9.22674
▁sense	-9.22682
but	-9.22891
▁Board	-9.22891
▁standards	-9.22953
▁annual	-9.22954
ung	-9.22976
▁safe	-9.23108
▁focus	-9.23229
▁improve	-9.2334
▁decide	-9.23373
▁persons	-9.23504
▁future	-9.23535
cal	-9.23563
▁Fa	-9.23629
OR	-9.23722
air	-9.23889
▁paid	-9.23902
▁machine	-9.23908
ban	-9.23963
▁audit	-9.24071
▁table	-9.24126
11	-9.24196
▁talking	-9.24209
▁build	-9.24252
ology	-9.24488
▁branches	-9.24573
ration	-9.24737
▁occur	-9.2476
▁whether	-9.24839
▁sleep	-9.24905
12	-9.24936
mber	-9.24977
▁video	-9.25008
▁April	-9.25038
▁Ni	-9.25105
▁partner	-9.25138
▁President	-9.2519
▁September	-9.25217
▁higher	-9.2522
▁assessment	-9.25255
▁director	-9.25273
▁turned	-9.25344
▁dossier	-9.25399
▁cities	-9.25401
istic	-9.25406
▁words	-9.25445
body	-9.25605
▁rather	-9.25719
▁longer	-9.25736
▁reach	-9.25788
▁especially	-9.25912
▁instead	-9.25929
▁similar	-9.26012
▁leg	-9.26051
▁inspect	-9.2608
▁store	-9.26097
IT	-9.26242
▁view	-9.26274
▁super	-9.26302
ign	-9.26384
▁Du	-9.26425
IC	-9.26443
▁true	-9.26511
▁figure	-9.26562
▁probably	-9.26745
▁document	-9.26774
▁receive	-9.26786
▁Si	-9.26874
▁myself	-9.26896
▁ja	-9.26926
▁October	-9.26946
▁except	-9.26978
ko	-9.27006
▁programs	-9.27037
pri	-9.27149
▁Pursuan	-9.27248
▁brain	-9.2733
▁required	-9.27376
▁happened	-9.27405
pl	-9.27529
à	-9.27619
ef	-9.27656
▁produce	-9.27737
10	-9.27756
▁cor	-9.2776
▁military	-9.27923
light	-9.27944
▁join	-9.2801
▁history	-9.28011
▁network	-9.28093
nder	-9.28178
▁object	-9.28244
▁Tu	-9.28294
▁depend	-9.28387
sign	-9.28535
▁dark	-9.28549
rch	-9.28598
▁received	-9.28648
To	-9.28742
▁north	-9.28813
ular	-9.28865
▁living	-9.29
▁provinces	-9.29022
▁supply	-9.29201
▁serious	-9.2922
▁income	-9.29239
▁Yes	-9.29418
▁col	-9.2973
▁disc	-9.29778
ey	-9.29782
pt	-9.29817
sis	-9.29855
▁lu	-9.29912
AR	-9.29927
▁visit	-9.29934
den	-9.30034
▁fun	-9.30091
dom	-9.30126
▁Hi	-9.30158
▁pen	-9.30214
▁sector	-9.30324
▁reports	-9.30491
▁II	-9.30503
▁North	-9.3053
ple	-9.30616
▁Sp	-9.30629
▁board	-9.30908
▁University	-9.31106
▁station	-9.31224
▁third	-9.31387
ches	-9.3144
▁Bi	-9.31563
▁receiving	-9.31631
▁secret	-9.31772
▁president	-9.31831
▁song	-9.32025
▁gas	-9.32028
AT	-9.32042
▁performance	-9.32045
▁mu	-9.32102
................	-9.32168
▁themselves	-9.32195
▁train	-9.32238
over	-9.32321
cept	-9.32331
▁role	-9.32486
▁address	-9.32542
ib	-9.32755
▁Col	-9.32847
50	-9.32888
▁Ki	-9.32973
▁access	-9.32994
ON	-9.33134
▁pla	-9.33231
▁Are	-9.33249
▁affect	-9.3328
▁wait	-9.33407
▁final	-9.33427
▁ob	-9.33452
▁loss	-9.33542
▁hot	-9.33544
▁province	-9.33573
ged	-9.33576
▁demand	-9.33606
▁referred	-9.3364
▁police	-9.33763
▁declaration	-9.3378
▁Comm	-9.33795
▁century	-9.33852
▁21	-9.33942
▁drug	-9.33951
bit	-9.33976
▁material	-9.34002
▁domestic	-9.3405
▁complete	-9.34057
▁raise	-9.34062
hu	-9.34175
▁considered	-9.34236
▁physical	-9.34284
▁wife	-9.34385
ath	-9.34749
▁morning	-9.34827
▁listen	-9.34903
▁employees	-9.34923
▁wall	-9.35003
▁suggest	-9.35008
▁print	-9.35085
▁...	-9.35136
▁examination	-9.35154
tric	-9.3522
▁commercial	-9.35227
ugh	-9.35434
▁para	-9.35488
zz	-9.35688
▁red	-9.35877
▁copy	-9.35907
az	-9.35908
cul	-9.35916
▁tree	-9.35932
Laughter	-9.35959
▁reduce	-9.36102
▁further	-9.3616
▁Pri	-9.36212
▁Other	-9.36294
matic	-9.36409
▁tu	-9.36422
▁released	-9.36546
▁fe	-9.36551
▁wonder	-9.36676
head	-9.36704
▁lower	-9.36749
▁decided	-9.36751
▁qua	-9.36779
ink	-9.3687
▁pull	-9.36945
▁parties	-9.36969
▁science	-9.37102
▁village	-9.37158
▁pick	-9.37164
▁species	-9.37223
▁%	-9.37239
▁infrastructure	-9.37269
ATION	-9.3748
▁title	-9.3756
▁article	-9.37586
▁settlement	-9.37669
rup	-9.37687
▁explain	-9.37884
▁serve	-9.38043
▁7.	-9.38076
▁Comp	-9.38093
▁select	-9.38147
tern	-9.38188
▁maybe	-9.38222
▁John	-9.38279
qua	-9.38332
▁urban	-9.38335
▁carry	-9.38419
▁ju	-9.38444
▁Sha	-9.38482
IS	-9.38485
press	-9.38488
▁officer	-9.38497
▁color	-9.38516
▁base	-9.3853
▁problems	-9.38585
▁capacity	-9.38654
▁size	-9.3868
▁fast	-9.38735
▁factor	-9.38753
▁usually	-9.38825
▁dog	-9.38897
shi	-9.38945
ency	-9.3898
▁Social	-9.39033
▁transaction	-9.39127
▁replace	-9.39142
gan	-9.39182
EN	-9.3927
▁spend	-9.39277
▁eye	-9.39291
▁character	-9.39354
▁Health	-9.39396
▁solution	-9.39411
▁flow	-9.3946
▁Ri	-9.39545
▁fight	-9.39649
▁grant	-9.39839
▁park	-9.40063
▁broke	-9.4028
▁Trade	-9.40364
▁site	-9.40465
▁sun	-9.40521
▁trading	-9.40549
Q	-9.4062
▁alone	-9.4064
▁ver	-9.40751
▁claim	-9.40801
▁facilities	-9.40807
▁Mu	-9.40832
▁available	-9.40846
ient	-9.41038
▁command	-9.41045
▁su	-9.41056
ica	-9.4107
▁wish	-9.41077
▁contracts	-9.41109
▁hit	-9.41222
ham	-9.41265
▁continue	-9.41329
▁bond	-9.41385
▁drink	-9.41465
▁22	-9.41692
dent	-9.41745
▁everyone	-9.41746
▁built	-9.41794
fer	-9.41863
ather	-9.41895
▁involved	-9.42015
▁collection	-9.42151
▁San	-9.42175
▁born	-9.42354
ED	-9.42385
▁u	-9.42636
▁hundred	-9.42712
ja	-9.42717
▁travel	-9.4273
▁processing	-9.42739
▁App	-9.42785
▁breath	-9.42793
▁killed	-9.42818
gue	-9.42943
▁assigned	-9.4307
▁benefit	-9.43244
uc	-9.43276
▁add	-9.43394
▁invest	-9.43408
▁piece	-9.43443
▁cannot	-9.4345
▁gu	-9.43485
low	-9.43499
▁save	-9.43637
▁coordinate	-9.43639
▁electricity	-9.43658
▁chemical	-9.43699
▁window	-9.43741
▁normal	-9.43778
▁leader	-9.43891
▁Wi	-9.43895
▁image	-9.43973
ically	-9.44007
▁goal	-9.4406
▁Who	-9.4406
▁represent	-9.4412
▁evidence	-9.44196
▁Dur	-9.44249
▁exchange	-9.44275
▁stand	-9.44294
▁consist	-9.44413
▁hospital	-9.44595
▁letter	-9.44776
▁series	-9.44781
▁master	-9.44783
▁regular	-9.44876
▁enjoy	-9.44915
▁previous	-9.44936
tan	-9.44996
▁sources	-9.45021
rin	-9.45134
▁chance	-9.45158
▁Bar	-9.4517
▁likely	-9.45283
▁count	-9.45363
▁establishments	-9.45543
▁itself	-9.45561
▁wide	-9.45586
▁advance	-9.4562
▁however	-9.45655
▁device	-9.45703
art	-9.45725
▁complain	-9.45782
▁respect	-9.45864
▁separate	-9.45884
▁fear	-9.45943
▁brought	-9.46086
▁=	-9.46121
▁feature	-9.46249
▁avoid	-9.46271
18	-9.46309
▁ph	-9.46361
▁basic	-9.46368
work	-9.46382
▁providing	-9.46453
▁institution	-9.46493
▁anyone	-9.46628
▁provision	-9.46847
▁option	-9.46943
▁location	-9.46985
▁đ	-9.47032
where	-9.47063
▁hu	-9.47081
▁Regulation	-9.47147
▁scientific	-9.47168
▁Harry	-9.47304
▁ne	-9.47307
ulate	-9.474
atory	-9.47614
▁quite	-9.47869
▁students	-9.47895
▁cha	-9.47989
▁follow	-9.4805
▁text	-9.48065
▁01	-9.48106
▁German	-9.48107
▁certificates	-9.48114
▁sort	-9.48246
▁require	-9.48276
▁wasn	-9.48314
▁press	-9.48387
▁organ	-9.485
▁Y	-9.48514
▁drugs	-9.48522
▁seven	-9.48546
▁okay	-9.48553
▁difference	-9.48615
▁acts	-9.48685
▁attention	-9.48699
▁gone	-9.4871
ute	-9.48731
▁accounting	-9.48755
▁stock	-9.48906
▁India	-9.48985
▁40	-9.49029
▁patients	-9.49111
▁rep	-9.49117
▁monitor	-9.49137
▁mark	-9.4922
▁established	-9.49351
▁guide	-9.49401
▁located	-9.49431
▁tried	-9.49461
▁please	-9.49515
▁ministries	-9.49535
mun	-9.49573
▁billion	-9.49601
ulation	-9.49615
▁code	-9.49644
▁2010	-9.49667
▁handling	-9.49677
ological	-9.49683
▁Cu	-9.49775
▁violation	-9.49788
▁February	-9.49851
cor	-9.49921
ix	-9.49928
▁statement	-9.50036
wer	-9.50083
▁Investment	-9.50126
▁culture	-9.50126
▁Even	-9.50208
▁burn	-9.50211
▁Did	-9.50231
▁Fe	-9.50337
▁deliver	-9.50338
▁daughter	-9.50358
▁died	-9.50418
▁je	-9.50436
▁concerned	-9.50454
▁lie	-9.50474
▁sometimes	-9.50511
▁remove	-9.50625
▁king	-9.50637
▁permit	-9.50724
ack	-9.5073
ear	-9.50795
▁various	-9.50826
▁cross	-9.50829
▁nature	-9.50835
▁search	-9.51003
▁23	-9.51286
30	-9.51315
▁Hey	-9.51381
▁modern	-9.51393
▁simple	-9.51724
▁Chinese	-9.51788
60	-9.51927
▁Within	-9.5199
▁handle	-9.52007
▁degree	-9.52068
▁sorry	-9.52096
▁Lu	-9.52122
▁quickly	-9.52146
▁trust	-9.52265
▁begin	-9.52281
ably	-9.52307
▁version	-9.5243
▁sum	-9.5244
app	-9.52504
▁thousand	-9.52782
cur	-9.52811
ending	-9.52859
▁named	-9.52902
▁island	-9.53109
▁&	-9.53129
mination	-9.53168
mar	-9.53178
▁From	-9.53199
▁localities	-9.53349
▁destroy	-9.53392
▁Chi	-9.53435
▁Ti	-9.53452
▁Gra	-9.53591
▁receipt	-9.5361
▁City	-9.5364
▁Sta	-9.53714
▁response	-9.53785
▁Make	-9.53809
▁funds	-9.53905
▁French	-9.53939
▁prepare	-9.53961
▁season	-9.54127
▁2011	-9.54302
▁pan	-9.54375
▁Any	-9.54417
▁Every	-9.54446
mark	-9.54458
J	-9.5451
▁Assembly	-9.54512
▁exercise	-9.54622
▁couldn	-9.54712
▁allowed	-9.54713
▁picture	-9.54755
tru	-9.54763
▁costs	-9.54849
▁Star	-9.54943
▁south	-9.55048
▁Central	-9.55066
▁bodies	-9.55067
▁sell	-9.55107
▁Use	-9.55156
▁IN	-9.55174
▁commune	-9.55177
▁gold	-9.55217
▁stage	-9.55235
▁whose	-9.55307
▁worked	-9.55309
like	-9.55358
▁media	-9.55435
▁Pu	-9.55472
▁standard	-9.55474
▁box	-9.55594
iff	-9.55604
▁Che	-9.55659
zo	-9.5568
▁opinion	-9.55711
▁Of	-9.55745
▁section	-9.55872
▁page	-9.5592
▁fell	-9.55934
▁expenses	-9.55951
▁Har	-9.55962
▁securities	-9.5598
▁surface	-9.5598
▁pretty	-9.56005
▁fully	-9.56098
AS	-9.56182
▁parents	-9.56245
gate	-9.56283
▁club	-9.56297
▁east	-9.56347
▁jo	-9.56348
▁target	-9.56429
ana	-9.56444
itch	-9.56664
▁river	-9.5668
▁manage	-9.56713
▁determined	-9.56758
▁tend	-9.56775
▁poor	-9.56892
▁led	-9.569
▁contact	-9.56927
▁Ru	-9.57024
▁Ste	-9.57072
▁moved	-9.5712
▁defined	-9.5712
▁Take	-9.57139
▁York	-9.57158
▁private	-9.57243
▁connect	-9.57261
▁auto	-9.57296
▁average	-9.57701
▁running	-9.57738
▁included	-9.57924
▁List	-9.57937
▁chair	-9.58042
mate	-9.58056
▁reserve	-9.58156
ole	-9.58245
▁x	-9.58463
▁27	-9.5851
▁success	-9.58529
▁Section	-9.58541
▁propose	-9.58564
▁dossiers	-9.58569
▁maintain	-9.58578
▁content	-9.58664
▁2015	-9.58698
▁ran	-9.58961
uff	-9.58997
▁realize	-9.59126
▁revenue	-9.59168
▁Dis	-9.5918
▁particular	-9.59226
▁achieve	-9.59284
▁fill	-9.59299
gar	-9.59317
▁industry	-9.5933
▁seemed	-9.59361
▁approach	-9.594
ker	-9.59482
▁eight	-9.59494
▁animals	-9.59499
▁adopt	-9.59522
bra	-9.59563
▁America	-9.59763
ash	-9.5982
▁bus	-9.59845
▁Get	-9.59879
▁feet	-9.59932
vel	-9.60033
80	-9.60072
▁animal	-9.60142
▁operating	-9.60192
▁gun	-9.6022
vid	-9.60266
▁signed	-9.60267
▁household	-9.60402
▁deposit	-9.60405
▁joint	-9.60412
▁community	-9.60426
xi	-9.6051
tail	-9.60614
van	-9.60647
▁28	-9.60699
▁principle	-9.60778
▁entitled	-9.60896
▁multi	-9.6093
▁citizen	-9.60966
ku	-9.60973
▁exc	-9.6103
▁Min	-9.61099
▁investors	-9.61121
lock	-9.61263
right	-9.6127
▁perfect	-9.61275
▁applied	-9.61298
▁Maybe	-9.61337
▁While	-9.61368
point	-9.614
▁dd	-9.61455
▁screen	-9.61463
▁weight	-9.61478
▁immediately	-9.61486
▁street	-9.61488
▁gene	-9.61528
▁floor	-9.6153
▁recover	-9.61581
▁knowledge	-9.61604
▁skill	-9.61629
▁potential	-9.61723
▁policy	-9.61795
▁created	-9.61845
▁cold	-9.6186
hen	-9.6187
▁recent	-9.61899
▁valid	-9.62011
▁discuss	-9.62045
▁addition	-9.62107
▁ready	-9.62128
▁positive	-9.62224
▁carried	-9.6225
cip	-9.62418
▁source	-9.62457
▁touch	-9.62462
term	-9.62493
▁socio	-9.6261
▁Development	-9.62669
pose	-9.62681
▁Miss	-9.62764
14	-9.62824
gro	-9.62852
▁Tra	-9.62855
▁developed	-9.62872
▁additional	-9.62957
▁needed	-9.62967
▁recognize	-9.62989
▁sit	-9.63006
▁release	-9.63014
▁(19	-9.63041
▁Okay	-9.63062
▁birth	-9.63208
▁kept	-9.63279
▁obligations	-9.63343
▁couple	-9.63351
▁happy	-9.63423
▁assume	-9.6348
▁agent	-9.63545
▁manufacture	-9.63713
▁author	-9.6375
LE	-9.63769
▁prior	-9.63812
▁Pol	-9.63818
▁proposal	-9.63834
▁detect	-9.6385
ek	-9.63878
▁electronic	-9.63885
ino	-9.63896
▁refer	-9.63907
▁imported	-9.63916
▁easy	-9.63958
▁announced	-9.6398
▁Earth	-9.63981
▁popular	-9.6401
▁char	-9.64108
▁Air	-9.64193
▁31	-9.64283
í	-9.64345
▁behavior	-9.64442
▁wh	-9.64483
▁growth	-9.6452
▁host	-9.64562
▁26	-9.64646
▁Republic	-9.64777
▁Good	-9.64829
▁investor	-9.6484
▁former	-9.64892
▁completely	-9.64905
▁threat	-9.65156
▁Japan	-9.65177
▁Office	-9.65177
▁suffer	-9.65178
q	-9.65204
▁critic	-9.65253
lam	-9.65274
▁Come	-9.65301
year	-9.65343
▁Organization	-9.65349
▁Korea	-9.65493
▁Ko	-9.65653
▁regime	-9.65763
97	-9.65816
▁confirm	-9.65843
pen	-9.65892
▁Pi	-9.65911
ok	-9.65933
▁specialized	-9.65991
▁exceed	-9.66045
read	-9.66114
▁exactly	-9.6614
▁scr	-9.66155
▁English	-9.66239
▁reported	-9.66288
▁condition	-9.66316
▁granted	-9.66335
▁origin	-9.66344
▁2012	-9.66426
▁added	-9.66426
▁effort	-9.66438
▁imposed	-9.66438
▁hour	-9.6645
zi	-9.66548
▁block	-9.66615
▁Bro	-9.66629
car	-9.66655
▁smile	-9.66663
▁mouth	-9.66663
▁truth	-9.66813
▁administration	-9.66937
▁clause	-9.67112
▁manager	-9.67118
har	-9.67126
▁published	-9.67186
▁match	-9.67211
▁direction	-9.67319
▁track	-9.67443
▁Service	-9.67463
▁accident	-9.67488
wo	-9.67552
▁laugh	-9.67565
▁sanction	-9.6764
▁choice	-9.67649
▁FOR	-9.67661
▁workers	-9.67861
▁Management	-9.67993
▁hurt	-9.68102
â	-9.68127
CE	-9.68212
▁expert	-9.68222
▁significant	-9.68373
▁finger	-9.68582
▁message	-9.68604
▁nice	-9.6861
▁medicine	-9.68627
pha	-9.68666
bin	-9.68796
ference	-9.68799
▁album	-9.68882
cho	-9.68922
hold	-9.69135
▁expect	-9.69144
▁drop	-9.69151
▁traffic	-9.69162
▁simply	-9.69341
pping	-9.69342
▁settle	-9.69346
CT	-9.69352
▁Japanese	-9.69496
▁caused	-9.69552
▁goes	-9.69559
meter	-9.69634
▁giving	-9.69677
▁review	-9.69855
▁scale	-9.69871
▁sister	-9.69923
▁changed	-9.69995
top	-9.70003
▁scar	-9.70028
▁issuance	-9.70087
vol	-9.70105
▁dream	-9.70115
room	-9.70146
▁successful	-9.7039
kin	-9.70427
▁movement	-9.70439
▁Affairs	-9.70501
▁Court	-9.70586
▁strength	-9.7063
▁prevention	-9.7076
▁install	-9.70789
▁teacher	-9.70852
▁According	-9.70916
▁baby	-9.70944
▁clearly	-9.71075
▁mentioned	-9.71126
▁shot	-9.71216
▁lease	-9.71225
acy	-9.71232
▁forward	-9.71232
▁negative	-9.71255
▁husband	-9.71386
hood	-9.71413
▁International	-9.7149
ense	-9.71506
▁pressure	-9.71642
▁mix	-9.71685
▁flu	-9.71748
▁bear	-9.71753
▁farm	-9.7178
▁thank	-9.71909
▁impact	-9.72008
▁syn	-9.72036
▁teach	-9.72057
▁feed	-9.72207
▁mode	-9.72312
▁2014	-9.72333
graph	-9.7243
▁dry	-9.72493
▁prison	-9.72517
ane	-9.72656
▁2016	-9.7269
▁Ben	-9.72739
▁Public	-9.72781
}	-9.72887
▁60	-9.73022
▁extra	-9.73041
▁attempt	-9.73102
▁agreed	-9.73137
▁wa	-9.73225
▁Industry	-9.73233
▁2009	-9.73288
▁engage	-9.73314
▁managing	-9.73315
▁finally	-9.7337
▁bio	-9.73374
▁supervision	-9.73401
▁activity	-9.73435
▁Ke	-9.73468
▁29	-9.73567
RE	-9.73589
▁beginning	-9.73602
▁attend	-9.73627
▁wouldn	-9.73725
▁rock	-9.73727
▁rid	-9.73751
phe	-9.73764
▁employ	-9.73786
▁West	-9.73861
▁firm	-9.73878
▁mine	-9.73915
▁promulgate	-9.73928
well	-9.7396
▁km	-9.73997
▁element	-9.74106
▁department	-9.7417
▁produced	-9.74171
▁obtain	-9.74195
▁Right	-9.74212
col	-9.74237
▁moving	-9.7429
▁establish	-9.74354
▁status	-9.74359
ivity	-9.74413
▁below	-9.7442
▁middle	-9.74602
bel	-9.74613
▁Party	-9.74625
▁worth	-9.74683
▁lose	-9.74724
ius	-9.74737
igh	-9.74794
▁spoke	-9.74822
board	-9.74849
▁ear	-9.74856
▁ON	-9.74916
▁green	-9.75094
▁Most	-9.75097
▁player	-9.75101
load	-9.75113
▁website	-9.75142
▁stuff	-9.75319
▁ball	-9.7536
▁balance	-9.7539
comp	-9.75496
▁guarantee	-9.7555
▁determine	-9.75562
▁Sub	-9.75812
▁declare	-9.75933
▁branch	-9.75968
▁guess	-9.76026
▁internal	-9.76144
ji	-9.76157
▁Have	-9.76245
▁radio	-9.76321
▁played	-9.76332
▁planet	-9.76347
▁returned	-9.76517
▁Cor	-9.76565
▁fat	-9.76684
dding	-9.76693
▁Gi	-9.76757
▁trouble	-9.76785
▁wrote	-9.76785
▁micro	-9.76819
▁Val	-9.76821
▁concern	-9.76937
▁profit	-9.76981
▁Part	-9.77215
▁Thank	-9.77311
bor	-9.77672
▁online	-9.77687
▁range	-9.77718
position	-9.77858
▁volume	-9.78118
stitution	-9.78137
▁active	-9.78161
▁applicable	-9.78174
▁peace	-9.78175
▁photo	-9.78203
▁initial	-9.78491
▁beautiful	-9.78539
▁mission	-9.78563
RA	-9.78668
▁proper	-9.78705
▁Appendix	-9.7882
▁gain	-9.78858
▁participate	-9.78989
tech	-9.79091
▁aircraft	-9.79114
▁battle	-9.79131
▁2008	-9.79131
▁foot	-9.7916
▁Form	-9.79164
▁cultural	-9.79225
▁push	-9.7924
ement	-9.79357
▁relative	-9.79442
QD	-9.79514
▁mid	-9.79543
▁assist	-9.79613
oph	-9.79832
▁2013	-9.79839
▁appropriate	-9.79839
▁complex	-9.79839
▁round	-9.79863
▁opened	-9.79869
▁spread	-9.80215
▁sex	-9.80317
▁Try	-9.80352
▁path	-9.8046
▁vote	-9.80522
▁sir	-9.80606
▁prime	-9.80615
▁operate	-9.80669
▁compensation	-9.80696
▁mechanism	-9.80725
▁stra	-9.80734
▁recommend	-9.80754
even	-9.80762
▁fixed	-9.80794
verse	-9.80798
▁warm	-9.808
00,000	-9.80814
▁sat	-9.80879
▁duty	-9.80881
▁measure	-9.80898
▁Like	-9.80903
▁guidance	-9.80926
pper	-9.81025
▁society	-9.81099
ax	-9.81139
▁glass	-9.81158
▁harm	-9.81259
▁expenditure	-9.81301
teen	-9.81314
▁influence	-9.81358
▁Information	-9.81359
▁continued	-9.81387
▁blue	-9.81394
scription	-9.81559
▁hydro	-9.81661
▁actual	-9.81751
▁examine	-9.81756
▁British	-9.81793
clu	-9.81925
▁correct	-9.81964
▁link	-9.82073
▁First	-9.82114
born	-9.82147
▁spent	-9.82186
▁bra	-9.8226
▁survey	-9.82375
▁horse	-9.82555
▁consult	-9.82611
oid	-9.82666
▁divide	-9.82691
ush	-9.82836
▁married	-9.82874
▁attract	-9.82889
▁Europe	-9.82944
▁chi	-9.82983
▁staff	-9.8299
aries	-9.83063
▁encourage	-9.83078
▁recorded	-9.83079
▁division	-9.83215
▁Africa	-9.83282
▁experiment	-9.83284
▁imagine	-9.83431
▁Planning	-9.83445
▁Shi	-9.83465
▁television	-9.8349
ctive	-9.83556
▁bill	-9.83699
▁schedule	-9.83726
▁Tax	-9.83799
▁mountain	-9.83845
▁progress	-9.83845
▁connection	-9.83854
▁conversation	-9.84171
▁Sea	-9.84206
▁judgment	-9.8423
▁throughout	-9.84354
▁Once	-9.84413
▁defense	-9.84469
▁band	-9.84521
2013	-9.84541
▁2007	-9.84589
run	-9.84698
▁cool	-9.84823
arian	-9.84897
economic	-9.85029
▁traditional	-9.85092
▁flight	-9.85106
▁guard	-9.85109
pho	-9.85155
▁although	-9.85276
▁launch	-9.85307
▁trial	-9.85331
win	-9.85362
▁reached	-9.85428
▁rent	-9.85523
▁spot	-9.85535
▁weapon	-9.85639
east	-9.8564
▁Science	-9.85728
▁holding	-9.85787
▁testing	-9.8597
▁earn	-9.86127
▁whatever	-9.86145
▁registered	-9.86242
▁fair	-9.86434
▁objective	-9.86565
▁independent	-9.86577
▁beyond	-9.86699
▁software	-9.8676
▁Han	-9.86775
▁wood	-9.86814
▁communication	-9.86821
▁infection	-9.87035
▁pack	-9.87043
▁ability	-9.87062
1999	-9.87112
▁bag	-9.873
▁shape	-9.87542
▁promise	-9.87563
▁Time	-9.87659
▁items	-9.87716
▁prove	-9.87728
▁seat	-9.87761
œ	-9.87802
▁particularly	-9.87818
▁followed	-9.87818
▁strange	-9.8786
▁via	-9.87902
UR	-9.87904
▁career	-9.87983
▁Tru	-9.88055
▁Customs	-9.88203
▁cast	-9.8823
scribe	-9.88241
▁distance	-9.88268
▁shop	-9.88356
▁army	-9.8846
▁Park	-9.8862
▁typical	-9.88637
▁stipulated	-9.88658
▁etc	-9.8869
▁competence	-9.8873
▁straight	-9.8876
▁express	-9.88784
▁speed	-9.88817
▁Since	-9.88828
▁wind	-9.88885
▁2006	-9.88912
▁extend	-9.88988
▁Sam	-9.89071
▁introduce	-9.89229
▁Fund	-9.89273
▁playing	-9.89365
▁chief	-9.89366
▁Ber	-9.89445
elect	-9.89507
▁label	-9.89558
▁supposed	-9.89592
▁satisfy	-9.89636
▁quarter	-9.89637
TION	-9.89792
▁cancer	-9.89865
▁High	-9.90011
▁discovered	-9.90015
▁European	-9.90031
▁tea	-9.90096
▁fit	-9.90202
▁Poland	-9.90258
▁har	-9.90281
▁regional	-9.90335
▁2020	-9.90397
war	-9.90404
▁Foreign	-9.90424
▁waiting	-9.90435
▁register	-9.90551
▁surprise	-9.90582
▁choose	-9.90583
▁Ver	-9.90758
▁duration	-9.90801
▁economy	-9.90868
▁setting	-9.90903
▁dollar	-9.90906
▁RE	-9.91005
▁passed	-9.91008
▁France	-9.9106
▁respective	-9.91091
▁acid	-9.91135
▁Construction	-9.91218
▁afraid	-9.9125
▁log	-9.91317
▁arrange	-9.91348
▁female	-9.91378
▁healthy	-9.9139
▁Head	-9.91552
▁Labor	-9.9164
▁dress	-9.91773
off	-9.91813
▁calculate	-9.9189
▁East	-9.91928
▁murder	-9.92083
▁contractor	-9.92212
▁sample	-9.92212
{	-9.92243
▁daily	-9.92246
▁served	-9.9225
▁Asia	-9.92298
▁bid	-9.9233
40	-9.92396
▁belong	-9.92476
▁leaving	-9.92599
▁route	-9.92761
▁described	-9.92779
▁extreme	-9.92825
▁serving	-9.93054
▁rank	-9.93096
▁temperature	-9.93117
▁Many	-9.93121
▁Security	-9.93182
▁Environment	-9.93214
▁weak	-9.93309
▁task	-9.93356
▁wave	-9.93374
▁associated	-9.93401
▁perhaps	-9.93475
▁reflect	-9.93475
▁limited	-9.93571
▁Nor	-9.93588
▁crime	-9.93706
▁draft	-9.93834
▁criminal	-9.939
▁expected	-9.93956
▁artist	-9.93979
▁leading	-9.94043
▁minute	-9.94057
▁seal	-9.94116
▁entities	-9.94196
▁suit	-9.94225
▁mineral	-9.94296
RI	-9.94327
▁stress	-9.94341
▁breed	-9.94406
▁counter	-9.94416
93	-9.94445
▁certification	-9.94524
▁cook	-9.94552
▁lack	-9.94564
▁coast	-9.94679
5%	-9.94696
▁global	-9.94755
▁dangerous	-9.94809
▁aware	-9.94845
▁assess	-9.95008
▁maintenance	-9.95019
▁Q	-9.95047
▁learning	-9.95053
itive	-9.95117
▁guiding	-9.9512
▁charter	-9.95273
▁temporary	-9.95285
▁See	-9.95297
arch	-9.95328
▁bidding	-9.95339
▁Inspect	-9.9551
▁yes	-9.95599
▁worry	-9.95618
▁promote	-9.95628
▁ice	-9.95661
▁contribute	-9.95717
▁asset	-9.9574
▁challenge	-9.95784
▁contribution	-9.95784
▁evaluation	-9.95784
▁Union	-9.95798
▁cooperation	-9.95817
▁engineer	-9.9589
▁attached	-9.95923
▁standing	-9.96171
▁lock	-9.96174
▁dam	-9.96259
▁liquid	-9.96287
▁duties	-9.96288
▁repair	-9.96336
vision	-9.96377
15	-9.96417
▁2017	-9.96474
▁shoot	-9.96589
▁enclosed	-9.96723
▁marriage	-9.96723
▁Sun	-9.96869
▁map	-9.96879
▁slow	-9.96888
rum	-9.9706
2010	-9.97191
▁passenger	-9.97263
▁respond	-9.97467
▁rural	-9.97471
▁ministerial	-9.97526
▁mistake	-9.97535
▁movie	-9.97643
▁Two	-9.97818
▁largest	-9.97863
▁Although	-9.97909
\\	-9.97946
name	-9.98008
▁formula	-9.98072
▁Christ	-9.981
▁completed	-9.98102
▁dig	-9.98109
▁fighting	-9.982
▁bomb	-9.98201
▁finance	-9.98286
▁Tri	-9.98347
▁patient	-9.98397
▁package	-9.98583
with	-9.98592
illa	-9.98662
▁essential	-9.98696
▁technique	-9.98799
▁criteria	-9.98834
▁commit	-9.98852
▁notify	-9.98852
bar	-9.98908
▁increased	-9.98909
▁motor	-9.99055
▁discover	-9.99057
▁fan	-9.99077
▁III	-9.9909
▁adjust	-9.99095
▁spirit	-9.9911
▁performed	-9.99118
▁execution	-9.99178
▁cash	-9.99212
▁distribution	-9.99213
▁technological	-9.99213
▁election	-9.99215
▁bottom	-9.99351
▁channel	-9.99351
ET	-9.9943
▁increasing	-9.99455
▁throw	-9.99501
minate	-9.9953
▁carrying	-9.99632
▁2004	-9.99665
place	-9.99682
▁earth	-9.99697
MENT	-9.99697
▁Internet	-9.99733
▁selling	-9.99958
▁observe	-10.0018
▁failure	-10.002
BTC	-10.0026
▁Bra	-10.0033
▁ownership	-10.0041
▁Before	-10.0043
▁Russian	-10.0043
▁currency	-10.0053
▁nine	-10.0059
▁thus	-10.0063
▁length	-10.0064
▁hang	-10.0064
▁Ye	-10.0077
jo	-10.0082
▁quiet	-10.0092
▁gate	-10.0105
▁Technology	-10.0117
▁larger	-10.0119
▁judge	-10.0131
▁Certificate	-10.0134
▁stood	-10.0155
▁expand	-10.0159
▁herself	-10.0166
▁scope	-10.017
▁corner	-10.0177
▁victim	-10.0191
▁PRO	-10.0191
▁repeat	-10.0201
▁agricultural	-10.0209
▁managed	-10.0212
▁sitting	-10.0227
▁Keep	-10.0247
▁psycho	-10.0254
▁soft	-10.0255
ibility	-10.0258
▁college	-10.0258
▁par	-10.026
▁camp	-10.0263
▁generation	-10.0264
spec	-10.0266
▁borrow	-10.0273
▁Australia	-10.0287
▁sentence	-10.0291
empt	-10.0308
ư	-10.0309
▁investigation	-10.0312
▁multiple	-10.0317
▁*	-10.0337
▁finished	-10.0346
▁transform	-10.0347
▁campaign	-10.0352
ume	-10.0357
water	-10.0362
▁display	-10.037
▁assistance	-10.0375
▁stick	-10.0396
▁Act	-10.0397
▁Soviet	-10.0399
▁comment	-10.0399
13	-10.0422
▁click	-10.0436
▁primary	-10.0446
▁Island	-10.0446
▁rich	-10.0477
▁worse	-10.0483
▁Jack	-10.05
▁stone	-10.0504
▁Education	-10.0508
▁domain	-10.0508
▁spec	-10.051
▁Group	-10.0512
ella	-10.0515
ł	-10.0515
OL	-10.0517
US	-10.0529
▁2005	-10.0531
▁habit	-10.0537
▁consideration	-10.055
▁roll	-10.0553
▁shut	-10.0557
▁manner	-10.0559
▁component	-10.0559
▁earlier	-10.0567
2006	-10.0573
▁Justice	-10.0576
▁heavy	-10.0578
▁trip	-10.0604
▁twenty	-10.0604
▁stopped	-10.0605
▁reaction	-10.0611
▁Center	-10.0612
▁square	-10.0619
▁memory	-10.0619
▁Roman	-10.0621
▁House	-10.063
▁Dan	-10.063
▁favor	-10.0638
▁association	-10.0652
▁nearly	-10.0665
hereinafter	-10.067
▁School	-10.0685
▁TV	-10.0694
▁powerful	-10.0718
▁vessel	-10.0719
▁arrest	-10.0719
▁salt	-10.0721
▁authorized	-10.0748
back	-10.0752
▁minor	-10.0754
▁pattern	-10.076
▁male	-10.0764
▁80	-10.0765
▁electric	-10.0768
▁indicate	-10.0783
▁concept	-10.0786
▁dance	-10.0789
▁rise	-10.0796
▁conclusion	-10.0802
ả	-10.0809
▁Our	-10.0814
▁signal	-10.0821
▁London	-10.0828
▁conformity	-10.0837
▁diploma	-10.0839
▁apartment	-10.084
▁fruit	-10.0863
▁agree	-10.0864
▁currently	-10.0869
▁reduction	-10.0877
▁Thu	-10.0878
▁unless	-10.0879
▁Plan	-10.0881
▁client	-10.0885
▁submitted	-10.0892
▁publish	-10.0893
▁fulfill	-10.09
▁honor	-10.0912
▁David	-10.0919
▁Agriculture	-10.0927
▁gather	-10.093
▁muscle	-10.0931
▁alive	-10.0934
▁correspond	-10.0938
▁fuck	-10.094
▁council	-10.0946
▁sexual	-10.0956
▁rain	-10.0965
▁shift	-10.0965
▁VAT	-10.0967
▁70	-10.097
▁Tell	-10.0971
25	-10.0977
▁load	-10.0986
▁seek	-10.0992
logical	-10.1001
▁wild	-10.1001
responsibilities	-10.1007
▁catch	-10.1015
▁withdraw	-10.1019
ruc	-10.1021
▁frame	-10.1032
▁permitted	-10.1049
▁digital	-10.105
▁incident	-10.105
▁style	-10.1056
agon	-10.1059
\\/	-10.1061
▁architect	-10.1061
▁obvious	-10.1065
▁advantage	-10.1065
plan	-10.107
▁reveal	-10.1082
▁neighbor	-10.1085
▁eventually	-10.1085
ctu	-10.1091
▁bird	-10.1094
▁illegal	-10.1096
▁quantity	-10.11
friend	-10.1107
based	-10.111
▁Inter	-10.1113
▁forget	-10.1116
▁easily	-10.1124
▁overseas	-10.1124
ette	-10.113
owned	-10.1139
▁grade	-10.1147
▁invoice	-10.1151
▁hum	-10.1172
▁instructions	-10.1176
▁African	-10.1182
▁2018	-10.1183
▁airport	-10.1186
▁auction	-10.1187
▁transferred	-10.1189
▁sick	-10.1189
▁causing	-10.119
craft	-10.1219
▁cup	-10.1221
▁suddenly	-10.1225
▁smell	-10.123
▁instrument	-10.1241
▁cooperate	-10.1253
▁maximum	-10.1257
▁desire	-10.1259
count	-10.1267
▁Ya	-10.1272
▁eligible	-10.1273
unk	-10.1287
▁convert	-10.129
▁studies	-10.1296
▁appraisal	-10.13
burg	-10.1301
▁2000	-10.1319
ô	-10.1328
▁mental	-10.1344
▁metal	-10.1355
Z	-10.136
▁huge	-10.1363
▁principal	-10.1368
▁prefer	-10.1369
°	-10.1372
▁Transport	-10.1374
▁tonight	-10.1376
▁emergency	-10.138
▁refuse	-10.1384
ō	-10.1388
\/	-10.14
▁medication	-10.1412
▁educational	-10.1418
▁involve	-10.1443
▁brand	-10.1453
▁hole	-10.1457
▁constant	-10.146
▁luck	-10.1465
▁score	-10.1474
▁database	-10.1489
▁Please	-10.1497
17	-10.1516
▁disaster	-10.1521
▁uh	-10.1523
▁Enterprise	-10.1529
▁equivalent	-10.1529
▁sufficient	-10.1533
▁dispute	-10.1551
▁Work	-10.1551
▁Super	-10.1554
▁combat	-10.1559
▁competition	-10.1565
▁hung	-10.1572
▁announce	-10.1578
▁Germany	-10.1588
▁govern	-10.1591
▁pop	-10.1593
▁Give	-10.1593
▁caught	-10.1598
▁scheme	-10.1606
▁bull	-10.1608
▁doubt	-10.1611
▁solid	-10.1613
▁restrict	-10.1634
▁parent	-10.1641
▁appointed	-10.1651
municipal	-10.1651
▁committed	-10.1656
▁jump	-10.1658
▁finish	-10.1662
▁Under	-10.1662
▁university	-10.1664
▁approximately	-10.1668
▁Paul	-10.1668
▁90	-10.1669
▁engine	-10.1671
▁bridge	-10.168
including	-10.1686
▁Code	-10.1687
▁escape	-10.1697
▁copies	-10.1709
▁wanna	-10.1713
▁Great	-10.1714
▁promotion	-10.1717
▁fresh	-10.1718
▁hereof	-10.1718
chan	-10.1727
▁Rural	-10.1729
▁housing	-10.173
▁proceed	-10.1734
▁35	-10.1744
▁technologies	-10.1746
▁strategy	-10.1755
▁nuclear	-10.1763
▁grand	-10.1764
▁adjustment	-10.1773
2016	-10.1777
▁journal	-10.1784
▁Over	-10.1786
▁servant	-10.1788
▁transportation	-10.1791
▁reality	-10.1796
▁TO	-10.1796
▁exhibit	-10.1796
▁Mark	-10.1817
▁quick	-10.1819
86	-10.1819
▁analysis	-10.1825
▁Company	-10.1825
▁tomorrow	-10.1834
▁therefore	-10.1846
▁lawyer	-10.1855
▁properties	-10.1859
▁combine	-10.1868
▁extension	-10.1871
▁highest	-10.1878
▁summer	-10.1879
▁Natural	-10.1888
ounce	-10.1892
▁edge	-10.1897
▁smart	-10.1919
▁exploitation	-10.1939
▁suspend	-10.1943
▁sweet	-10.1947
▁Control	-10.1952
▁scene	-10.1956
▁flo	-10.1958
▁bottle	-10.196
▁territory	-10.1964
▁sustain	-10.1981
▁enforcement	-10.1983
▁solve	-10.1992
▁Those	-10.1994
▁wound	-10.1997
▁conflict	-10.1998
▁clothes	-10.2002
▁facility	-10.2015
▁selection	-10.2018
▁Army	-10.2024
▁Will	-10.204
▁Administration	-10.2041
▁possess	-10.2045
▁decade	-10.2072
▁instance	-10.208
▁severe	-10.2094
▁River	-10.2117
▁03	-10.2125
▁fuel	-10.2135
▁wage	-10.2135
▁regulation	-10.2144
▁novel	-10.215
▁reform	-10.2154
▁vision	-10.2154
▁adult	-10.2156
▁variety	-10.2178
▁raw	-10.2179
▁camera	-10.218
▁coffee	-10.2183
▁occupational	-10.2188
▁slowly	-10.2199
▁otherwise	-10.2209
▁02	-10.2216
▁families	-10.2217
▁plus	-10.2238
▁Each	-10.2239
▁somebody	-10.224
▁race	-10.2247
▁Israel	-10.2261
▁expression	-10.2274
▁protein	-10.2274
▁thereof	-10.2285
▁tourist	-10.2291
▁Commission	-10.23
▁stories	-10.23
▁vocational	-10.2313
85	-10.2314
▁affair	-10.2318
▁egg	-10.2323
▁Bill	-10.2327
▁bright	-10.2328
▁hall	-10.2329
▁Michael	-10.2331
▁root	-10.234
▁scientist	-10.234
▁Port	-10.2342
▁storage	-10.2353
▁diver	-10.2367
▁Egypt	-10.2371
▁hunt	-10.2373
script	-10.238
▁double	-10.2384
▁estate	-10.2402
▁chain	-10.2404
▁boat	-10.2407
▁conference	-10.241
▁subsequent	-10.2428
power	-10.2435
▁County	-10.2444
▁alcohol	-10.2446
▁error	-10.245
▁neck	-10.2453
▁interview	-10.2455
organ	-10.2457
▁prince	-10.2477
▁famous	-10.2513
▁identify	-10.2517
▁dinner	-10.2522
stock	-10.2522
▁Fail	-10.2528
▁taxpayer	-10.2531
▁procedure	-10.2535
▁resolution	-10.2549
▁symbol	-10.2549
▁Prince	-10.2553
▁creating	-10.2558
known	-10.2577
▁manufacturing	-10.2589
▁secure	-10.2595
▁Land	-10.2614
TTg	-10.2617
▁gotta	-10.2621
▁ingredient	-10.263
▁update	-10.2634
▁entry	-10.264
▁railway	-10.2643
▁Black	-10.2648
▁anymore	-10.2653
▁transit	-10.2654
▁permanent	-10.2661
▁geo	-10.2664
▁committee	-10.2671
▁defeat	-10.2677
▁lip	-10.2677
▁Chief	-10.2682
▁blow	-10.2683
▁minister	-10.2685
▁defend	-10.2699
▁abroad	-10.2707
▁becoming	-10.2713
▁cancel	-10.2715
▁student	-10.2719
▁opportunity	-10.2725
▁western	-10.2746
▁Another	-10.2757
▁Sim	-10.2763
▁kiss	-10.2764
▁liability	-10.2768
affiliated	-10.2769
▁Yahweh	-10.2771
▁combination	-10.2771
▁flat	-10.2776
plicat	-10.2778
▁football	-10.278
▁remind	-10.2783
Responsibilities	-10.2785
ologist	-10.2786
book	-10.2786
▁occasion	-10.2789
▁commitment	-10.2791
▁Governor	-10.2803
▁refund	-10.2813
▁consumer	-10.2813
▁calm	-10.2821
duce	-10.2828
▁instruct	-10.283
▁session	-10.2832
▁explanation	-10.2836
▁Trans	-10.2839
▁frequent	-10.284
curr	-10.2853
▁allowance	-10.2855
down	-10.2862
▁George	-10.2863
▁Peter	-10.2866
▁recognition	-10.2868
▁issuing	-10.2869
▁pair	-10.2875
▁religious	-10.2882
▁climate	-10.2891
▁collective	-10.2901
▁newspaper	-10.2905
▁garden	-10.291
house	-10.2919
▁ratio	-10.2921
You	-10.2923
▁cooperative	-10.2933
▁suspect	-10.2933
▁gift	-10.2939
amine	-10.2942
▁Russia	-10.2947
▁Project	-10.2955
▁absolute	-10.2956
▁minimum	-10.2956
▁ensuring	-10.2971
▁Polish	-10.2971
▁applicant	-10.2975
related	-10.3013
▁easier	-10.3013
▁commission	-10.3022
under	-10.3032
87	-10.3039
▁Game	-10.3044
je	-10.3052
▁substance	-10.3055
▁Lord	-10.3058
▁universe	-10.306
▁twice	-10.3069
▁flood	-10.3086
▁residence	-10.3088
▁Syria	-10.3098
▁Instead	-10.3126
▁northern	-10.3127
▁Luc	-10.3127
▁putting	-10.3129
▁presence	-10.3132
▁guidelines	-10.3136
▁survive	-10.3145
▁compliance	-10.3155
▁decrease	-10.3155
▁sugar	-10.3158
▁predict	-10.3162
▁rescue	-10.3175
▁League	-10.3198
wood	-10.3201
▁Paris	-10.321
▁District	-10.3212
▁05	-10.3222
▁preparation	-10.3222
▁tight	-10.3239
field	-10.3241
▁approve	-10.3249
▁gentle	-10.3256
▁tank	-10.3257
▁Frank	-10.327
▁opt	-10.328
TER	-10.3283
▁signature	-10.3289
▁admit	-10.329
▁specify	-10.3296
▁bacteria	-10.3304
▁protest	-10.331
▁photograph	-10.3324
▁Windows	-10.3328
▁Training	-10.3382
▁excess	-10.3389
▁consequence	-10.3392
▁Account	-10.3392
▁supplies	-10.3411
▁William	-10.3411
2005	-10.3418
lov	-10.3426
▁changing	-10.3426
▁2001	-10.3426
▁lift	-10.3436
▁construct	-10.3446
range	-10.3446
▁email	-10.3451
▁Ministries	-10.3455
▁Add	-10.3467
▁appearance	-10.3472
▁extract	-10.3472
▁church	-10.3476
▁Resources	-10.348
lecommunications	-10.3481
▁sky	-10.3482
▁freedom	-10.3489
▁speech	-10.35
▁permission	-10.3505
▁disappear	-10.351
88	-10.3512
▁rub	-10.3514
▁generate	-10.3534
▁entity	-10.354
▁everybody	-10.3543
▁ancient	-10.3544
▁brief	-10.3554
▁Dar	-10.3558
▁Year	-10.3585
▁Association	-10.3594
▁switch	-10.3599
▁suitable	-10.3604
ography	-10.3608
▁studied	-10.3614
▁1990	-10.3644
▁semi	-10.3657
resident	-10.3661
▁crazy	-10.3684
▁virus	-10.3685
▁quarantine	-10.3694
ạ	-10.3704
ê	-10.3831
ế	-10.3985
ệ	-10.4801
Đ	-10.4948
ü	-10.5144
♪	-10.5338
ộ	-10.5422
#	-10.5476
ö	-10.5615
ớ	-10.5919
ị	-10.6356
«	-10.6683
ã	-10.6792
»	-10.6868
Â	-10.7227
+	-10.7545
ề	-10.7593
ú	-10.7879
è	-10.7933
ậ	-10.8801
=	-10.8811
ا	-10.8979
ơ	-10.909
ể	-10.9317
`	-10.9496
ì	-10.9532
ứ	-10.9613
ñ	-10.9723
ń	-10.9816
ự	-11.0821
−	-11.1113
ữ	-11.1305
ờ	-11.1724
>	-11.1997
а	-11.2207
ụ	-11.2386
ç	-11.2471
ă	-11.2495
ل	-11.2519
@	-11.2654
α	-11.2967
ọ	-11.2967
ằ	-11.3343
$	-11.3464
ي	-11.353
о	-11.3598
ợ	-11.3611
′	-11.3652
ę	-11.3707
ū	-11.3817
ồ	-11.3943
ā	-11.3985
и	-11.4184
<	-11.4344
×	-11.458
ä	-11.4655
(	-11.4875
•	-11.5197
ر	-11.5341
‘	-11.572
]	-11.5787
ở	-11.5838
[	-11.5974
^	-11.6078
|	-11.62
е	-11.6432
ổ	-11.6559
£	-11.6613
μ	-11.6743
	-11.6798
ý	-11.7044
β	-11.7121
ś	-11.7355
~	-11.7375
н	-11.7434
ừ	-11.7534
ن	-11.8029
ą	-11.8264
م	-11.8329
É	-11.8351
Ś	-11.8571
р	-11.8729
ử	-11.8751
Ł	-11.924
ò	-11.9288
ب	-11.9579
⁄	-11.9678
л	-11.9753
с	-11.9778
в	-11.9931
ة	-11.9982
к	-12.0059
ắ	-12.0163
ı	-12.0295
ù	-12.0455
ć	-12.0482
Á	-12.0783
ż	-12.0783
т	-12.0923
ə	-12.1037
́	-12.1094
و	-12.1209
ˈ	-12.1415
ủ	-12.1444
ー	-12.1808
š	-12.19
ï	-12.1963
Ã	-12.2346
±	-12.2444
د	-12.251
·	-12.2744
→	-12.3018
­	-12.3445
ع	-12.3814
ī	-12.4004
	-12.4159
†	-12.4198
س	-12.4396
	-12.4436
&	-12.4477
ø	-12.4638
ë	-12.4762
ỉ	-12.4845
ˆ	-12.5013
*	-12.5407
̃	-12.5447
	-12.5492
ː	-12.5763
ο	-12.5808
æ	-12.5855
Ō	-12.5994
ت	-12.5994
ŏ	-12.6279
ɪ	-12.6327
č	-12.6327
д	-12.6474
м	-12.6622
ẽ	-12.6622
ح	-12.6622
τ	-12.6672
ン	-12.6773
Ż	-12.6926
ũ	-12.7029
π	-12.7082
ş	-12.7187
у	-12.7239
の	-12.7346
ς	-12.7346
ν	-12.7346
ρ	-12.7508
й	-12.7841
ỏ	-12.7897
γ	-12.8421
ẫ	-12.8421
ج	-12.8541
ź	-12.8724
ß	-12.8785
≥	-12.91
ق	-12.91
ε	-12.9164
ι	-12.9164
λ	-12.9228
δ	-12.9359
å	-12.9625
я	-12.9692
σ	-12.9692
ễ	-12.9692
ĩ	-12.976
이	-12.976
ف	-13.0107
ش	-13.0178
ك	-13.025
Ç	-13.0467
Š	-13.0541
イ	-13.0765
ž	-13.0917
ル	-13.0994
―	-13.1149
Ö	-13.1307
õ	-13.1307
□	-13.1307
ỗ	-13.1387
า	-13.1387
ร	-13.1468
г	-13.1549
î	-13.1549
©	-13.1631
ラ	-13.1631
п	-13.1797
ь	-13.1797
ğ	-13.1966
ス	-13.2051
_	-13.2051
ه	-13.2138
ē	-13.2225
θ	-13.2225
ו	-13.2312
大	-13.249
≤	-13.249
ч	-13.258
з	-13.2671
κ	-13.2855
ز	-13.2949
§	-13.3235
்	-13.3332
น	-13.343
ɛ	-13.3529
б	-13.3529
ト	-13.4144
„	-13.4144
С	-13.4251
η	-13.4251
û	-13.4358
Œ	-13.4358
đ	-13.4427
‐	-13.4467
ص	-13.4467
ω	-13.4577
เ	-13.4688
ы	-13.48
ỹ	-13.48
А	-13.4914
י	-13.5029
¥	-13.5145
ỳ	-13.5263
ẻ	-13.5382
К	-13.5502
أ	-13.5624
■	-13.5624
ș	-13.5624
ʻ	-13.5748
ก	-13.5748
Å	-13.5999
ί	-13.5999
φ	-13.5999
ط	-13.5999
Î	-13.6128
Ð	-13.6128
・	-13.6128
ʊ	-13.6128
อ	-13.6257
ア	-13.6257
ה	-13.6389
®	-13.6389
子	-13.6389
ド	-13.6522
خ	-13.6522
ม	-13.6657
ό	-13.6657
ง	-13.6794
Ô	-13.6794
ά	-13.7074
リ	-13.7217
日	-13.7217
х	-13.7217
÷	-13.7362
Δ	-13.7362
ิ	-13.7362
ɑ	-13.7509
☉	-13.7509
М	-13.7658
В	-13.7658
ی	-13.781
¦	-13.7964
ッ	-13.7964
中	-13.812
ク	-13.8279
シ	-13.8279
い	-13.844
ん	-13.844
Р	-13.844
υ	-13.844
일	-13.8604
‡	-13.8604
タ	-13.877
ジ	-13.877
О	-13.8771
사	-13.8771
人	-13.8771
ロ	-13.894
다	-13.894
க	-13.9112
会	-13.9112
스	-13.9112
に	-13.9288
ย	-13.9288
フ	-13.9288
아	-13.9288
ล	-13.9288
⟩	-13.9466
ě	-13.9466
Ó	-13.9648
П	-13.9648
대	-13.9648
コ	-13.9648
த	-13.9833
¿	-13.9833
ẹ	-13.9833
Б	-13.9833
本	-14.0022
社	-14.0022
カ	-14.0022
ʃ	-14.0022
א	-14.0022
ב	-14.0022
ל	-14.0022
国	-14.0214
ɡ	-14.0214
ð	-14.0214
ส	-14.0214
東	-14.0214
ด	-14.0214
、	-14.041
	-14.041
ỷ	-14.0411
√	-14.0411
⊕	-14.0411
ц	-14.0611
ш	-14.0611
¢	-14.0611
ř	-14.0611
에	-14.0611
غ	-14.0815
レ	-14.0815
天	-14.0815
王	-14.1023
一	-14.1023
ŋ	-14.1023
ж	-14.1023
Ü	-14.1023
海	-14.1023
่	-14.1023
「	-14.1236
マ	-14.1236
ỡ	-14.1236
グ	-14.1236
¡	-14.1236
Н	-14.1236
」	-14.1453
Τ	-14.1453
리	-14.1453
Г	-14.1675
ע	-14.1675
ר	-14.1675
ท	-14.1675
ő	-14.1675
Σ	-14.1675
И	-14.1903
만	-14.1903
山	-14.1903
시	-14.1903
ˌ	-14.1903
і	-14.1903
ு	-14.2135
な	-14.2135
ミ	-14.2135
ŭ	-14.2135
テ	-14.2135
ա	-14.2135
ブ	-14.2135
ɔ	-14.2135
지	-14.2135
ว	-14.2135
式	-14.2373
♠	-14.2373
기	-14.2373
道	-14.2373
ะ	-14.2373
ф	-14.2617
Д	-14.2617
์	-14.2617
上	-14.2867
원	-14.2867
Í	-14.2867
인	-14.2867
家	-14.2867
ி	-14.3124
ี	-14.3124
ィ	-14.3124
Т	-14.3124
정	-14.3124
어	-14.3124
พ	-14.3124
小	-14.3124
ா	-14.3387
ḥ	-14.3387
が	-14.3387
공	-14.3387
İ	-14.3387
Ž	-14.3387
Ω	-14.3387
트	-14.3387
া	-14.3387
女	-14.3387
의	-14.3387
新	-14.3387
บ	-14.3387
จ	-14.3387
バ	-14.3657
ɒ	-14.3657
た	-14.3657
˧	-14.3657
ห	-14.3657
ュ	-14.3935
事	-14.3935
ム	-14.3935
ा	-14.3935
À	-14.3935
Ø	-14.3935
ǎ	-14.3935
מ	-14.3935
ש	-14.3935
‹	-14.3935
하	-14.3935
ț	-14.3935
ζ	-14.3935
개	-14.3935
美	-14.3935
ウ	-14.422
ʿ	-14.422
전	-14.422
⋅	-14.422
연	-14.422
と	-14.422
オ	-14.4515
國	-14.4515
さ	-14.4515
Ư	-14.4515
ナ	-14.4515
가	-14.4515
Α	-14.4515
⁡	-14.4515
∞	-14.4515
⊞	-14.4515
る	-14.4515
로	-14.4515
έ	-14.4515
田	-14.4515
藤	-14.4515
之	-14.4515
。	-14.4515
ம	-14.4818
物	-14.4818
ή	-14.4818
キ	-14.4818
≈	-14.4818
χ	-14.4818
ุ	-14.4818
年	-14.4818
行	-14.4818
국	-14.513
나	-14.513
Π	-14.513
ת	-14.513
ى	-14.513
⌘	-14.513
오	-14.513
장	-14.513
ּ	-14.513
ض	-14.513
エ	-14.513
神	-14.513
き	-14.513
ニ	-14.513
ர	-14.5453
♭	-14.5453
パ	-14.5453
동	-14.5453
ต	-14.5453
で	-14.5453
平	-14.5453
고	-14.5453
נ	-14.5453
的	-14.5453
드	-14.5453
상	-14.5453
生	-14.5453
り	-14.5786
メ	-14.5786
보	-14.5786
자	-14.5786
ė	-14.5786
ю	-14.5786
ズ	-14.5786
法	-14.5786
三	-14.5786
公	-14.5786
ப	-14.6131
ָ	-14.6131
þ	-14.6131
ダ	-14.6131
신	-14.6131
ガ	-14.6131
し	-14.6131
世	-14.6488
て	-14.6488
แ	-14.6488
プ	-14.6488
花	-14.6488
ʼ	-14.6488
ち	-14.6488
氏	-14.6488
Ä	-14.6488
Ú	-14.6488
お	-14.6488
라	-14.6488
서	-14.6488
소	-14.6488
方	-14.6488
ま	-14.6488
–	-14.6819
ビ	-14.6858
ค	-14.6858
ი	-14.6858
‚	-14.6858
ய	-14.6858
チ	-14.6858
Μ	-14.6858
백	-14.6858
유	-14.6858
해	-14.6858
화	-14.6858
～	-14.6858
ʔ	-14.6858
‭	-14.6858
저	-14.6858
う	-14.6858
は	-14.7243
ட	-14.7243
्	-14.7243
ช	-14.7243
を	-14.7243
부	-14.7243
위	-14.7243
Ş	-14.7243
ა	-14.7243
我	-14.7243
수	-14.7243
주	-14.7243
ា	-14.7243
비	-14.7243
《	-14.7643
̀	-14.7643
か	-14.7643
̣	-14.7643
●	-14.7643
는	-14.7643
ύ	-14.7643
У	-14.7643
》	-14.7643
く	-14.806
月	-14.806
도	-14.806
한	-14.806
ʒ	-14.806
木	-14.806
̄	-14.806
ξ	-14.806
ṣ	-14.806
∧	-14.806
長	-14.806
마	-14.806
З	-14.806
ู	-14.806
モ	-14.806
Η	-14.806
太	-14.806
戦	-14.806
手	-14.806
原	-14.806
文	-14.806
』	-14.806
『	-14.806
仁	-14.806
デ	-14.8494
ァ	-14.8494
Ï	-14.8494
ְ	-14.8494
空	-14.8494
ǐ	-14.8494
∨	-14.8494
요	-14.8494
은	-14.8494
ד	-14.8494
金	-14.8494
Л	-14.8494
師	-14.8494
正	-14.8494
時	-14.8494
北	-14.8495
郡	-14.8495
ன	-14.8949
ら	-14.8949
ノ	-14.8949
¶	-14.8949
心	-14.8949
絵	-14.8949
김	-14.8949
ִ	-14.8949
合	-14.8949
者	-14.8949
第	-14.8949
サ	-14.9425
र	-14.9425
Ἀ	-14.9425
ネ	-14.9425
ɯ	-14.9425
ո	-14.9425
臺	-14.9425
냐	-14.9425
성	-14.9425
安	-14.9425
버	-14.9425
け	-14.9425
ハ	-14.9425
成	-14.9425
不	-14.9425
界	-14.9425
定	-14.9925
立	-14.9925
星	-14.9925
데	-14.9925
제	-14.9925
إ	-14.9925
단	-14.9925
Ć	-14.9925
ी	-14.9925
九	-14.9925
位	-14.9925
宮	-14.9925
니	-14.9925
미	-14.9925
영	-14.9925
˩	-14.9925
ַ	-14.9925
ピ	-14.9925
四	-14.9925
村	-14.9925
무	-14.9925
明	-14.9925
地	-14.9925
Ý	-15.0451
ป	-15.0451
호	-15.0451
̈	-15.0451
ث	-15.0451
Ụ	-15.0451
Ủ	-15.0451
‰	-15.0451
真	-15.0451
Λ	-15.0451
Ο	-15.0451
Φ	-15.0451
南	-15.0451
כ	-15.0452
ろ	-15.0452
語	-15.0452
高	-15.0452
作	-15.0452
산	-15.1007
ն	-15.1007
ט	-15.1007
二	-15.1007
光	-15.1007
È	-15.1007
Ā	-15.1007
Β	-15.1007
ψ	-15.1007
↓	-15.1007
⊆	-15.1007
代	-15.1007
和	-15.1007
白	-15.1007
記	-15.1007
院	-15.1007
선	-15.1007
세	-15.1007
차	-15.1007
ʾ	-15.1007
ן	-15.1007
ئ	-15.1007
э	-15.1007
็	-15.1007
ข	-15.1007
み	-15.1007
西	-15.1007
全	-15.1007
あ	-15.1595
賞	-15.1595
َ	-15.1595
會	-15.1595
無	-15.1595
李	-15.1595
Ε	-15.1595
여	-15.1595
진	-15.1595
터	-15.1595
ǔ	-15.1595
ւ	-15.1595
Ấ	-15.1595
す	-15.1595
水	-15.1595
그	-15.1595
ţ	-15.1595
京	-15.1595
学	-15.1595
川	-15.1595
Ф	-15.1595
教	-15.1595
理	-15.1595
以	-15.1595
士	-15.1595
有	-15.1596
知	-15.1596
首	-15.222
ゴ	-15.222
台	-15.222
ல	-15.222
ゼ	-15.222
Θ	-15.222
Е	-15.222
ё	-15.222
Ạ	-15.222
∥	-15.222
香	-15.222
을	-15.222
ъ	-15.222
飯	-15.222
녀	-15.222
프	-15.222
こ	-15.222
野	-15.222
컴	-15.222
ס	-15.222
五	-15.222
島	-15.222
林	-15.2887
ケ	-15.2887
ไ	-15.2887
재	-15.2887
း	-15.2887
術	-15.2887
न	-15.2887
ை	-15.2887
よ	-15.2887
ǒ	-15.2887
ɜ	-15.2887
צ	-15.2887
Ố	-15.2887
래	-15.2887
발	-15.2887
최	-15.2887
Ι	-15.2887
ّ	-15.2887
구	-15.2887
조	-15.2887
ल	-15.2887
画	-15.2887
郎	-15.2887
ក	-15.2887
セ	-15.2887
元	-15.2887
港	-15.2887
八	-15.2887
御	-15.2887
雄	-15.2887
所	-15.2887
下	-15.3601
出	-15.3601
名	-15.3601
れ	-15.3601
隊	-15.3601
〜	-15.3601
軍	-15.3601
ի	-15.3601
回	-15.3601
치	-15.3601
ň	-15.3601
ր	-15.3601
Ở	-15.3601
매	-15.3601
티	-15.3601
¬	-15.3601
˥	-15.3601
ک	-15.3601
ব	-15.3601
Ề	-15.3601
⋮	-15.3601
ゲ	-15.3601
場	-15.3601
政	-15.3601
聖	-15.3601
년	-15.3601
열	-15.3601
예	-15.3601
현	-15.3601
ֵ	-15.3601
ワ	-15.3601
출	-15.3601
ק	-15.3601
ธ	-15.3601
레	-15.3601
Ù	-15.3601
ベ	-15.3601
ボ	-15.3601
部	-15.3601
内	-15.3601
信	-15.3602
主	-15.437
ლ	-15.437
話	-15.437
由	-15.437
직	-15.437
Ν	-15.437
品	-15.437
園	-15.437
演	-15.437
내	-15.437
რ	-15.437
ザ	-15.437
강	-15.437
월	-15.437
크	-15.437
Ш	-15.437
ে	-15.437
←	-15.437
千	-15.437
城	-15.437
교	-15.437
문	-15.437
울	-15.437
회	-15.437
ħ	-15.437
Γ	-15.437
ḍ	-15.437
你	-15.437
게	-15.437
올	-15.437
포	-15.437
	-15.437
Ρ	-15.437
រ	-15.437
も	-15.437
十	-15.437
集	-15.437
پ	-15.437
왕	-15.437
ใ	-15.437
ฟ	-15.4371
ษ	-15.4371
ツ	-15.4371
ศ	-15.4371
通	-15.4371
書	-15.4371
为	-15.4371
	-15.5203
โ	-15.5204
発	-15.5204
န	-15.5204
வ	-15.5204
加	-15.5204
度	-15.5204
間	-15.5204
ා	-15.5204
石	-15.5204
役	-15.5204
ச	-15.5204
學	-15.5204
武	-15.5204
电	-15.5204
福	-15.5204
舞	-15.5204
魔	-15.5204
엔	-15.5204
Ế	-15.5204
司	-15.5204
是	-15.5204
와	-15.5204
ِ	-15.5204
گ	-15.5204
র	-15.5204
ර	-15.5204
∂	-15.5204
♯	-15.5204
ヒ	-15.5204
治	-15.5204
皇	-15.5204
곡	-15.5204
남	-15.5204
송	-15.5204
첫	-15.5204
파	-15.5204
ि	-15.5204
つ	-15.5204
ヤ	-15.5204
工	-15.5204
鬼	-15.5204
돌	-15.5204
Ч	-15.5204
ស	-15.5204
ї	-15.5204
官	-15.5204
ソ	-15.5204
好	-15.5204
在	-15.5204
前	-15.5204
基	-15.5204
【	-15.6113
】	-15.6113
っ	-15.6113
ब	-15.6113
開	-15.6113
प	-15.6113
都	-15.6113
楽	-15.6113
ह	-15.6113
ந	-15.6113
☆	-15.6113
古	-15.6113
次	-15.6113
더	-15.6113
민	-15.6113
속	-15.6113
ז	-15.6113
火	-15.6113
線	-15.6113
Ê	-15.6113
恋	-15.6113
清	-15.6113
승	-15.6113
	-15.6113
Ơ	-15.6113
Υ	-15.6113
ם	-15.6113
ـ	-15.6113
व	-15.6113
ল	-15.6113
င	-15.6113
⇧	-15.6113
華	-15.6113
超	-15.6113
과	-15.6113
등	-15.6113
랑	-15.6113
명	-15.6113
음	-15.6113
카	-15.6113
통	-15.6113
Ì	-15.6113
ถ	-15.6113
尾	-15.6113
후	-15.6113
յ	-15.6113
ֹ	-15.6113
ন	-15.6113
ṛ	-15.6113
愛	-15.6113
秀	-15.6113
員	-15.6113
玉	-15.6113
相	-15.6113
流	-15.6113
军	-15.6114
万	-15.7113
ေ	-15.7113
ึ	-15.7113
先	-15.7113
わ	-15.7113
力	-15.7113
州	-15.7113
ე	-15.7113
最	-15.7113
音	-15.7113
स	-15.7113
ผ	-15.7113
ば	-15.7113
布	-15.7113
え	-15.7113
面	-15.7113
そ	-15.7113
突	-15.7113
館	-15.7113
우	-15.7113
Х	-15.7113
ג	-15.7113
क	-15.7113
Ứ	-15.7113
仮	-15.7113
影	-15.7113
百	-15.7113
門	-15.7113
루	-15.7113
안	-15.7113
운	-15.7113
Я	-15.7113
ֶ	-15.7113
Ị	-15.7113
›	-15.7113
∼	-15.7113
友	-15.7113
命	-15.7113
死	-15.7113
護	-15.7113
경	-15.7113
모	-15.7113
작	-15.7113
타	-15.7113
표	-15.7113
ɨ	-15.7113
آ	-15.7113
男	-15.7113
茶	-15.7113
赤	-15.7113
식	-15.7113
천	-15.7113
합	-15.7113
保	-15.7113
त	-15.7113
भ	-15.7113
ি	-15.7113
英	-15.7113
初	-15.7113
重	-15.7113
条	-15.7113
东	-15.7113
密	-15.7114
德	-15.8224
め	-15.8224
်	-15.8224
ნ	-15.8224
吉	-15.8224
谷	-15.8224
щ	-15.8224
言	-15.8224
ង	-15.8224
義	-15.8224
入	-15.8224
端	-15.8224
や	-15.8224
夜	-15.8224
色	-15.8224
鳥	-15.8224
ե	-15.8224
爱	-15.8224
온	-15.8224
ů	-15.8224
ῆ	-15.8224
宇	-15.8224
機	-15.8224
江	-15.8224
두	-15.8224
방	-15.8224
심	-15.8224
학	-15.8224
ׁ	-15.8224
ग	-15.8224
≡	-15.8224
⌥	-15.8224
▪	-15.8224
♥	-15.8224
味	-15.8224
夫	-15.8224
情	-15.8224
戸	-15.8224
目	-15.8224
統	-15.8224
良	-15.8224
里	-15.8224
간	-15.8224
네	-15.8224
노	-15.8224
늘	-15.8224
생	-15.8224
애	-15.8224
य	-15.8224
े	-15.8224
ヴ	-15.8224
字	-15.8224
親	-15.8224
격	-15.8224
군	-15.8224
새	-15.8224
석	-15.8224
종	-15.8224
ƒ	-15.8224
너	-15.8224
口	-15.8224
朝	-15.8224
歌	-15.8224
限	-15.8224
ギ	-15.8224
結	-15.8224
遊	-15.8224
ម	-15.8224
だ	-15.8224
其	-15.8224
決	-15.8224
自	-15.8224
马	-15.8224
尚	-15.8224
食	-15.9474
越	-15.9474
へ	-15.9474
ど	-15.9474
見	-15.9474
韓	-15.9474
気	-15.9474
げ	-15.9474
曲	-15.9474
մ	-15.9474
映	-15.9474
မ	-15.9474
娘	-15.9474
業	-15.9474
메	-15.9474
ត	-15.9474
近	-15.9474
투	-15.9474
Э	-15.9474
կ	-15.9474
ひ	-15.9474
副	-15.9474
受	-15.9474
계	-15.9474
복	-15.9474
¤	-15.9474
ų	-15.9474
Ц	-15.9474
ே	-15.9474
Ộ	-15.9474
井	-15.9474
忠	-15.9474
피	-15.9474
Ñ	-15.9474
ח	-15.9474
₱	-15.9474
久	-15.9474
伊	-15.9474
姫	-15.9474
期	-15.9474
民	-15.9474
浦	-15.9474
源	-15.9474
豆	-15.9474
골	-15.9474
금	-15.9474
말	-15.9474
순	-15.9474
야	-15.9474
	-15.9474
ώ	-15.9474
ु	-15.9474
双	-15.9474
吸	-15.9474
堂	-15.9474
春	-15.9474
特	-15.9474
엑	-15.9474
창	-15.9474
처	-15.9474
태	-15.9474
夏	-15.9474
馬	-15.9474
바	-15.9474
Ж	-15.9474
坂	-15.9474
憲	-15.9474
듀	-15.9474
ަ	-15.9474
ක	-15.9474
市	-15.9474
灣	-15.9474
菜	-15.9474
せ	-15.9474
多	-15.9474
羅	-15.9474
独	-15.9474
試	-15.9474
委	-15.9474
動	-15.9474
号	-15.9474
将	-15.9474
用	-15.9474
战	-15.9474
史	-15.9475
静	-15.9475
陈	-16.0902
功	-16.0902
直	-16.0902
狂	-16.0902
视	-16.0902
常	-16.0902
連	-16.0902
風	-16.0902
計	-16.0902
速	-16.0902
博	-16.0903
支	-16.0903
ொ	-16.0903
ず	-16.0903
剧	-16.0903
建	-16.0903
思	-16.0903
起	-16.0903
ʌ	-16.0903
म	-16.0903
្	-16.0903
六	-16.0903
横	-16.0903
版	-16.0903
街	-16.0903
関	-16.0903
騎	-16.0903
龍	-16.0903
축	-16.0903
ذ	-16.0903
想	-16.0903
放	-16.0903
秘	-16.0903
若	-16.0903
赵	-16.0903
阿	-16.0903
독	-16.0903
	-16.0903
ņ	-16.0903
ť	-16.0903
ǃ	-16.0903
˨	-16.0903
̇	-16.0903
ظ	-16.0903
ާ	-16.0903
ो	-16.0903
্	-16.0903
ோ	-16.0903
ွ	-16.0903
ს	-16.0903
ქ	-16.0903
Ậ	-16.0903
Ọ	-16.0903
ὁ	-16.0903
ὶ	-16.0903
∘	-16.0903
≠	-16.0903
⏎	-16.0903
ゥ	-16.0903
ポ	-16.0903
化	-16.0903
华	-16.0903
吃	-16.0903
型	-16.0903
実	-16.0903
志	-16.0903
改	-16.0903
油	-16.0903
身	-16.0903
雪	-16.0903
배	-16.0903
번	-16.0903
범	-16.0903
분	-16.0903
삼	-16.0903
실	-16.0903
씨	-16.0903
엠	-16.0903
육	-16.0903
입	-16.0903
청	-16.0903
체	-16.0903
틴	-16.0903
핑	-16.0903
행	-16.0903
ÿ	-16.0903
च	-16.0903
ῖ	-16.0903
使	-16.0903
徳	-16.0903
瀬	-16.0903
電	-16.0903
革	-16.0903
韩	-16.0903
려	-16.0903
를	-16.0903
워	-16.0903
剣	-16.0903
技	-16.0903
精	-16.0903
디	-16.0903
봉	-16.0903
참	-16.0903
室	-16.0903
造	-16.0903
同	-16.0903
了	-16.0903
书	-16.0903
长	-16.0903
尊	-16.0903
等	-16.2569
时	-16.2569
帝	-16.2569
宋	-16.2569
送	-16.2569
奇	-16.2569
집	-16.2569
表	-16.2569
히	-16.2569
න	-16.2569
制	-16.2569
峰	-16.2569
洋	-16.2569
竜	-16.2569
ள	-16.2569
打	-16.2569
风	-16.2569
ခ	-16.2569
უ	-16.2569
伝	-16.2569
倉	-16.2569
唱	-16.2569
売	-16.2569
寺	-16.2569
級	-16.2569
編	-16.2569
霊	-16.2569
건	-16.2569
권	-16.2569
글	-16.2569
목	-16.2569
억	-16.2569
틀	-16.2569
ɣ	-16.2569
Щ	-16.2569
Ю	-16.2569
ץ	-16.2569
თ	-16.2569
Ử	-16.2569
Ữ	-16.2569
∀	-16.2569
∇	-16.2569
⊂	-16.2569
呼	-16.2569
宗	-16.2569
宿	-16.2569
张	-16.2569
斎	-16.2569
望	-16.2569
母	-16.2569
煮	-16.2569
盛	-16.2569
草	-16.2569
虎	-16.2569
衣	-16.2569
頭	-16.2569
같	-16.2569
관	-16.2569
까	-16.2569
반	-16.2569
본	-16.2569
븐	-16.2569
블	-16.2569
양	-16.2569
으	-16.2569
있	-16.2569
즈	-16.2569
ĕ	-16.2569
ġ	-16.2569
ľ	-16.2569
͡	-16.2569
Є	-16.2569
ड	-16.2569
ซ	-16.2569
ព	-16.2569
ល	-16.2569
‍	-16.2569
佐	-16.2569
唐	-16.2569
深	-16.2569
約	-16.2569
豊	-16.2569
輪	-16.2569
選	-16.2569
麻	-16.2569
날	-16.2569
달	-16.2569
변	-16.2569
습	-16.2569
역	-16.2569
홍	-16.2569
қ	-16.2569
也	-16.2569
区	-16.2569
那	-16.2569
喜	-16.2569
柱	-16.2569
ヌ	-16.2569
更	-16.2569
外	-16.2569
持	-16.2569
左	-16.257
乃	-16.257
河	-16.257
及	-16.257
指	-16.4569
令	-16.4569
続	-16.4569
တ	-16.4569
获	-16.4569
報	-16.4569
警	-16.4569
ぱ	-16.4569
微	-16.4569
მ	-16.4569
ာ	-16.4569
ペ	-16.4569
丽	-16.4569
俊	-16.4569
後	-16.4569
球	-16.4569
半	-16.4569
居	-16.4569
組	-16.4569
ਾ	-16.4569
ය	-16.4569
ṅ	-16.4569
ⵉ	-16.4569
七	-16.4569
商	-16.4569
始	-16.4569
殿	-16.4569
科	-16.4569
糖	-16.4569
黒	-16.4569
ˁ	-16.4569
স	-16.4569
ண	-16.4569
ო	-16.4569
嘉	-16.4569
开	-16.4569
禄	-16.4569
程	-16.4569
管	-16.4569
紀	-16.4569
紙	-16.4569
肉	-16.4569
萬	-16.4569
趙	-16.4569
덕	-16.4569
란	-16.4569
솔	-16.4569
ȁ	-16.4569
բ	-16.4569
ُ	-16.4569
چ	-16.4569
ܪ	-16.4569
ं	-16.4569
ज	-16.4569
ू	-16.4569
আ	-16.4569
দ	-16.4569
ো	-16.4569
ን	-16.4569
ន	-16.4569
Ồ	-16.4569
Ợ	-16.4569
∉	-16.4569
∶	-16.4569
✈	-16.4569
ね	-16.4569
介	-16.4569
伴	-16.4569
共	-16.4569
别	-16.4569
告	-16.4569
団	-16.4569
宝	-16.4569
實	-16.4569
店	-16.4569
弟	-16.4569
律	-16.4569
摺	-16.4569
族	-16.4569
杯	-16.4569
汁	-16.4569
漫	-16.4569
熊	-16.4569
皆	-16.4569
秋	-16.4569
節	-16.4569
総	-16.4569
网	-16.4569
至	-16.4569
葉	-16.4569
路	-16.4569
雅	-16.4569
青	-16.4569
餅	-16.4569
麦	-16.4569
黑	-16.4569
감	-16.4569
걸	-16.4569
눈	-16.4569
된	-16.4569
든	-16.4569
또	-16.4569
러	-16.4569
룸	-16.4569
막	-16.4569
물	-16.4569
병	-16.4569
십	-16.4569
용	-16.4569
잠	-16.4569
중	-16.4569
즌	-16.4569
첩	-16.4569
친	-16.4569
키	-16.4569
탄	-16.4569
특	-16.4569
함	-16.4569
ܐ	-16.4569
ދ	-16.4569
ম	-16.4569
হ	-16.4569
ත	-16.4569
冷	-16.4569
利	-16.4569
念	-16.4569
慶	-16.4569
沙	-16.4569
沢	-16.4569
破	-16.4569
索	-16.4569
蔵	-16.4569
藍	-16.4569
辺	-16.4569
당	-16.4569
살	-16.4569
임	-16.4569
플	-16.4569
향	-16.4569
ү	-16.4569
ރ	-16.4569
য	-16.4569
ご	-16.4569
欢	-16.4569
章	-16.4569
系	-16.4569
荘	-16.4569
찌	-16.4569
희	-16.4569
ី	-16.4569
乱	-16.4569
検	-16.4569
橋	-16.4569
縄	-16.4569
级	-16.4569
쇼	-16.4569
性	-16.4569
務	-16.4569
奈	-16.4569
詩	-16.4569
儒	-16.4569
来	-16.4569
童	-16.4569
礼	-16.4569
臣	-16.457
数	-16.457
易	-16.457
与	-16.457
兵	-16.7068
防	-16.7069
陸	-16.7069
ပ	-16.7069
旅	-16.7069
早	-16.7069
じ	-16.7069
挑	-16.7069
စ	-16.7069
Ÿ	-16.7069
ရ	-16.7069
ប	-16.7069
ⴰ	-16.7069
び	-16.7069
奖	-16.7069
殺	-16.7069
父	-16.7069
牧	-16.7069
砂	-16.7069
終	-16.7069
ณ	-16.7069
פ	-16.7069
ण	-16.7069
ত	-16.7069
ਰ	-16.7069
ទ	-16.7069
团	-16.7069
守	-16.7069
播	-16.7069
景	-16.7069
津	-16.7069
活	-16.7069
点	-16.7069
热	-16.7069
現	-16.7069
登	-16.7069
補	-16.7069
貞	-16.7069
陆	-16.7069
업	-16.7069
Ă	-16.7069
ܬ	-16.7069
ხ	-16.7069
ἰ	-16.7069
ホ	-16.7069
体	-16.7069
修	-16.7069
克	-16.7069
円	-16.7069
府	-16.7069
給	-16.7069
诗	-16.7069
邪	-16.7069
른	-16.7069
먼	-16.7069
법	-16.7069
잡	-16.7069
Ò	-16.7069
ǝ	-16.7069
˦	-16.7069
ὑ	-16.7069
ふ	-16.7069
朱	-16.7069
漬	-16.7069
貴	-16.7069
陽	-16.7069
黄	-16.7069
락	-16.7069
ǁ	-16.7069
ɲ	-16.7069
̉	-16.7069
̌	-16.7069
̍	-16.7069
̥	-16.7069
ө	-16.7069
վ	-16.7069
ք	-16.7069
ؤ	-16.7069
ܡ	-16.7069
ް	-16.7069
ই	-16.7069
এ	-16.7069
গ	-16.7069
ট	-16.7069
শ	-16.7069
ூ	-16.7069
ီ	-16.7069
ṯ	-16.7069
Ầ	-16.7069
Ự	-16.7069
ὸ	-16.7069
ῶ	-16.7069
◆	-16.7069
◦	-16.7069
々	-16.7069
づ	-16.7069
ヨ	-16.7069
争	-16.7069
亜	-16.7069
任	-16.7069
写	-16.7069
創	-16.7069
善	-16.7069
夢	-16.7069
妈	-16.7069
宏	-16.7069
対	-16.7069
封	-16.7069
岡	-16.7069
幹	-16.7069
幽	-16.7069
庫	-16.7069
康	-16.7069
廠	-16.7069
摩	-16.7069
栗	-16.7069
歴	-16.7069
段	-16.7069
波	-16.7069
派	-16.7069
浮	-16.7069
涼	-16.7069
漢	-16.7069
潜	-16.7069
玄	-16.7069
祭	-16.7069
興	-16.7069
藏	-16.7069
課	-16.7069
謎	-16.7069
議	-16.7069
豪	-16.7069
賀	-16.7069
足	-16.7069
輝	-16.7069
镇	-16.7069
间	-16.7069
険	-16.7069
齊	-16.7069
거	-16.7069
끝	-16.7069
난	-16.7069
누	-16.7069
뉴	-16.7069
득	-16.7069
록	-16.7069
림	-16.7069
별	-16.7069
뷰	-16.7069
뿜	-16.7069
색	-16.7069
앨	-16.7069
었	-16.7069
준	-16.7069
쳐	-16.7069
칠	-16.7069
팅	-16.7069
펑	-16.7069
Ľ	-16.7069
ǀ	-16.7069
़	-16.7069
♦	-16.7069
ユ	-16.7069
孫	-16.7069
屋	-16.7069
崎	-16.7069
果	-16.7069
温	-16.7069
烈	-16.7069
琴	-16.7069
甲	-16.7069
眼	-16.7069
站	-16.7069
遠	-16.7069
録	-16.7069
魚	-16.7069
근	-16.7069
길	-16.7069
몰	-16.7069
북	-16.7069
숙	-16.7069
외	-16.7069
째	-16.7069
택	-16.7069
페	-16.7069
ම	-16.7069
ํ	-16.7069
‧	-16.7069
兄	-16.7069
典	-16.7069
君	-16.7069
廣	-16.7069
总	-16.7069
浪	-16.7069
渡	-16.7069
焼	-16.7069
番	-16.7069
絶	-16.7069
考	-16.7069
苦	-16.7069
蒼	-16.7069
藝	-16.7069
談	-16.7069
達	-16.7069
불	-16.7069
채	-16.7069
他	-16.7069
周	-16.7069
解	-16.7069
գ	-16.7069
ނ	-16.7069
জ	-16.7069
๊	-16.7069
ះ	-16.7069
个	-16.7069
接	-16.7069
盟	-16.7069
耶	-16.7069
锋	-16.7069
昭	-16.7069
թ	-16.7069
怪	-16.7069
沖	-16.7069
能	-16.7069
週	-16.7069
斯	-16.7069
妖	-16.7069
為	-16.7069
汉	-16.707
追	-16.707
攻	-16.707
资	-16.707
县	-16.707
今	-16.707
署	-16.707
当	-16.707
助	-16.707
得	-16.707
分	-16.707
众	-16.7071
杀	-16.7071
际	-17.0402
反	-17.0402
后	-17.0402
谋	-17.0402
丞	-17.0402
熱	-17.0402
威	-17.0402
ீ	-17.0402
題	-17.0402
私	-17.0402
付	-17.0402
産	-17.0402
뒤	-17.0402
ြ	-17.0402
ც	-17.0402
偏	-17.0402
探	-17.0402
榜	-17.0402
評	-17.0402
ْ	-17.0402
ု	-17.0402
ტ	-17.0402
ヶ	-17.0402
何	-17.0402
凯	-17.0402
局	-17.0402
巨	-17.0402
県	-17.0402
祖	-17.0402
離	-17.0402
립	-17.0402
ழ	-17.0402
惹	-17.0402
暫	-17.0402
є	-17.0403
ً	-17.0403
ट	-17.0403
ბ	-17.0403
Ỉ	-17.0403
ῦ	-17.0403
停	-17.0403
党	-17.0403
坤	-17.0403
妃	-17.0403
姑	-17.0403
幻	-17.0403
广	-17.0403
恩	-17.0403
撃	-17.0403
暴	-17.0403
樂	-17.0403
沿	-17.0403
爾	-17.0403
純	-17.0403
芭	-17.0403
雷	-17.0403
질	-17.0403
料	-17.0403
槍	-17.0403
Ē	-17.0403
ĭ	-17.0403
ǧ	-17.0403
ҳ	-17.0403
լ	-17.0403
ި	-17.0403
ङ	-17.0403
ಾ	-17.0403
ග	-17.0403
က	-17.0403
ိ	-17.0403
დ	-17.0403
ጉ	-17.0403
Ổ	-17.0403
ᾶ	-17.0403
傑	-17.0403
傳	-17.0403
億	-17.0403
到	-17.0403
昌	-17.0403
晩	-17.0403
智	-17.0403
森	-17.0403
泰	-17.0403
湾	-17.0403
牛	-17.0403
禅	-17.0403
筆	-17.0403
翻	-17.0403
萌	-17.0403
貓	-17.0403
賢	-17.0403
軒	-17.0403
迎	-17.0403
闘	-17.0403
願	-17.0403
낙	-17.0403
논	-17.0403
린	-17.0403
옥	-17.0403
윤	-17.0403
팥	-17.0403
평	-17.0403
혁	-17.0403
Õ	-17.0403
˂	-17.0403
̂	-17.0403
̅	-17.0403
̋	-17.0403
͂	-17.0403
Й	-17.0403
ў	-17.0403
Ա	-17.0403
އ	-17.0403
ः	-17.0403
ख	-17.0403
ছ	-17.0403
ස	-17.0403
သ	-17.0403
ባ	-17.0403
ና	-17.0403
ḗ	-17.0403
ḳ	-17.0403
ḷ	-17.0403
Ớ	-17.0403
Ờ	-17.0403
ἡ	-17.0403
ὰ	-17.0403
↑	-17.0403
∏	-17.0403
∓	-17.0403
∝	-17.0403
∣	-17.0403
♣	-17.0403
✶	-17.0403
ⵏ	-17.0403
ぎ	-17.0403
ぐ	-17.0403
ゆ	-17.0403
ゾ	-17.0403
乐	-17.0403
份	-17.0403
兆	-17.0403
兰	-17.0403
冠	-17.0403
判	-17.0403
升	-17.0403
単	-17.0403
坡	-17.0403
変	-17.0403
如	-17.0403
姜	-17.0403
季	-17.0403
客	-17.0403
寧	-17.0403
干	-17.0403
弘	-17.0403
录	-17.0403
彦	-17.0403
應	-17.0403
戴	-17.0403
报	-17.0403
振	-17.0403
授	-17.0403
斗	-17.0403
晴	-17.0403
机	-17.0403
桂	-17.0403
桐	-17.0403
權	-17.0403
泉	-17.0403
片	-17.0403
狼	-17.0403
珠	-17.0403
留	-17.0403
盤	-17.0403
祐	-17.0403
祸	-17.0403
秦	-17.0403
笠	-17.0403
策	-17.0403
粉	-17.0403
紋	-17.0403
紫	-17.0403
纪	-17.0403
職	-17.0403
育	-17.0403
臨	-17.0403
艦	-17.0403
茅	-17.0403
薛	-17.0403
蘭	-17.0403
裁	-17.0403
装	-17.0403
裳	-17.0403
観	-17.0403
话	-17.0403
语	-17.0403
谢	-17.0403
走	-17.0403
車	-17.0403
過	-17.0403
闇	-17.0403
陰	-17.0403
陵	-17.0403
隆	-17.0403
雑	-17.0403
雜	-17.0403
雲	-17.0403
震	-17.0403
飞	-17.0403
곤	-17.0403
규	-17.0403
능	-17.0403
델	-17.0403
돈	-17.0403
들	-17.0403
땅	-17.0403
령	-17.0403
룹	-17.0403
맨	-17.0403
면	-17.0403
봄	-17.0403
빛	-17.0403
섭	-17.0403
앞	-17.0403
엘	-17.0403
염	-17.0403
잇	-17.0403
적	-17.0403
절	-17.0403
점	-17.0403
케	-17.0403
팔	-17.0403
팝	-17.0403
폭	-17.0403
풍	-17.0403
형	-17.0403
환	-17.0403
훈	-17.0403
흡	-17.0403
𒆠	-17.0403
ም	-17.0403
ስ	-17.0403
例	-17.0403
发	-17.0403
咲	-17.0403
宣	-17.0403
形	-17.0403
意	-17.0403
柳	-17.0403
根	-17.0403
永	-17.0403
胎	-17.0403
հ	-17.0403
ভ	-17.0403
ฤ	-17.0403
ញ	-17.0403
偉	-17.0403
健	-17.0403
儀	-17.0403
勝	-17.0403
吳	-17.0403
寄	-17.0403
寿	-17.0403
岁	-17.0403
構	-17.0403
穿	-17.0403
竹	-17.0403
米	-17.0403
聯	-17.0403
芦	-17.0403
視	-17.0403
鍋	-17.0403
鱼	-17.0403
麗	-17.0403
브	-17.0403
철	-17.0403
초	-17.0403
Ζ	-17.0403
ީ	-17.0403
চ	-17.0403
ী	-17.0403
两	-17.0403
像	-17.0403
尽	-17.0403
已	-17.0403
権	-17.0403
洞	-17.0403
联	-17.0403
血	-17.0403
飛	-17.0403
겠	-17.0403
추	-17.0403
충	-17.0403
勢	-17.0403
द	-17.0403
ិ	-17.0403
老	-17.0403
못	-17.0403
ހ	-17.0403
క	-17.0403
ฺ	-17.0403
ほ	-17.0403
可	-17.0403
宅	-17.0403
巻	-17.0403
町	-17.0403
裏	-17.0403
僕	-17.0403
漳	-17.0403
誕	-17.0403
求	-17.0403
候	-17.0403
埼	-17.0403
巡	-17.0403
歲	-17.0403
省	-17.0403
要	-17.0403
ญ	-17.0403
交	-17.0403
甘	-17.0403
师	-17.0403
强	-17.0403
折	-17.0403
见	-17.0403
辅	-17.0403
抱	-17.0403
遂	-17.0403
劳	-17.0404
怒	-17.0404
欲	-17.0404
止	-17.0404
骑	-17.0404
于	-17.5399
应	-17.54
然	-17.5401
待	-17.5402
鷲	-17.5402
鲁	-17.5402
〈	-17.5402
〉	-17.5402
侗	-17.5402
差	-17.5402
爆	-17.5402
亚	-17.5402
資	-17.5402
პ	-17.5402
ⲛ	-17.5402
取	-17.5402
専	-17.5402
投	-17.5402
毎	-17.5402
爺	-17.5402
聞	-17.5402
遺	-17.5402
颖	-17.5402
Ꜣ	-17.5402
침	-17.5402
卫	-17.5402
គ	-17.5402
鄭	-17.5402
迷	-17.5402
웃	-17.5402
ծ	-17.5402
ღ	-17.5402
ែ	-17.5402
ៅ	-17.5402
ⲓ	-17.5402
ⲙ	-17.5402
ⵍ	-17.5402
並	-17.5402
刑	-17.5402
包	-17.5402
去	-17.5402
哀	-17.5402
図	-17.5402
夕	-17.5402
尔	-17.5402
強	-17.5402
弾	-17.5402
悪	-17.5402
故	-17.5402
病	-17.5402
磨	-17.5402
秒	-17.5402
貫	-17.5402
过	-17.5402
零	-17.5402
담	-17.5402
삐	-17.5402
술	-17.5402
테	-17.5402
톤	-17.5402
룡	-17.5402
դ	-17.5403
ా	-17.5403
్	-17.5403
ಯ	-17.5403
ප	-17.5403
ὀ	-17.5403
ざ	-17.5403
互	-17.5403
伟	-17.5403
徒	-17.5403
拉	-17.5403
査	-17.5403
罩	-17.5403
習	-17.5403
落	-17.5403
辣	-17.5403
섹	-17.5403
ģ	-17.5403
丁	-17.5403
審	-17.5403
序	-17.5403
復	-17.5403
欧	-17.5403
狩	-17.5403
芳	-17.5403
規	-17.5403
酒	-17.5403
釜	-17.5403
钉	-17.5403
ꜥ	-17.5403
응	-17.5403
𒂗	-17.5403
ċ	-17.5403
Ĩ	-17.5403
ķ	-17.5403
ǚ	-17.5403
ɢ	-17.5403
ɸ	-17.5403
ʁ	-17.5403
ʹ	-17.5403
ˋ	-17.5403
Ό	-17.5403
Ξ	-17.5403
ҙ	-17.5403
ә	-17.5403
Բ	-17.5403
ֲ	-17.5403
ך	-17.5403
ף	-17.5403
ہ	-17.5403
ۇ	-17.5403
۱	-17.5403
ܵ	-17.5403
ސ	-17.5403
थ	-17.5403
ै	-17.5403
ॉ	-17.5403
ও	-17.5403
ਖ	-17.5403
ஜ	-17.5403
ஸ	-17.5403
ಬ	-17.5403
ಿ	-17.5403
ණ	-17.5403
බ	-17.5403
ු	-17.5403
ဝ	-17.5403
အ	-17.5403
ቅ	-17.5403
በ	-17.5403
ት	-17.5403
ክ	-17.5403
ዲ	-17.5403
ጣ	-17.5403
ថ	-17.5403
ṉ	-17.5403
Ặ	-17.5403
Ể	-17.5403
Ễ	-17.5403
ῇ	-17.5403
‒	-17.5403
‖	-17.5403
⇌	-17.5403
⇒	-17.5403
⇩	-17.5403
∖	-17.5403
∙	-17.5403
∩	-17.5403
≃	-17.5403
≅	-17.5403
♬	-17.5403
♰	-17.5403
✳	-17.5403
➝	-17.5403
⟶	-17.5403
ⵢ	-17.5403
ぼ	-17.5403
ヘ	-17.5403
ㄧ	-17.5403
丸	-17.5403
乾	-17.5403
予	-17.5403
云	-17.5403
佑	-17.5403
余	-17.5403
來	-17.5403
個	-17.5403
倪	-17.5403
倭	-17.5403
傣	-17.5403
儿	-17.5403
免	-17.5403
再	-17.5403
別	-17.5403
劍	-17.5403
务	-17.5403
卦	-17.5403
印	-17.5403
参	-17.5403
叔	-17.5403
右	-17.5403
哈	-17.5403
哉	-17.5403
哭	-17.5403
喫	-17.5403
器	-17.5403
园	-17.5403
图	-17.5403
圍	-17.5403
團	-17.5403
土	-17.5403
圣	-17.5403
场	-17.5403
垂	-17.5403
壁	-17.5403
声	-17.5403
头	-17.5403
奴	-17.5403
妮	-17.5403
妹	-17.5403
姓	-17.5403
宴	-17.5403
專	-17.5403
尹	-17.5403
属	-17.5403
岩	-17.5403
巴	-17.5403
希	-17.5403
帖	-17.5403
席	-17.5403
幕	-17.5403
庁	-17.5403
底	-17.5403
座	-17.5403
庵	-17.5403
廟	-17.5403
弓	-17.5403
引	-17.5403
弥	-17.5403
弦	-17.5403
張	-17.5403
彌	-17.5403
往	-17.5403
従	-17.5403
快	-17.5403
急	-17.5403
悦	-17.5403
惜	-17.5403
慧	-17.5403
憂	-17.5403
懂	-17.5403
戏	-17.5403
才	-17.5403
拂	-17.5403
捏	-17.5403
描	-17.5403
敏	-17.5403
敦	-17.5403
施	-17.5403
旋	-17.5403
昼	-17.5403
暮	-17.5403
服	-17.5403
札	-17.5403
杉	-17.5403
染	-17.5403
柴	-17.5403
树	-17.5403
桑	-17.5403
桜	-17.5403
梅	-17.5403
梓	-17.5403
棒	-17.5403
極	-17.5403
槊	-17.5403
樹	-17.5403
橘	-17.5403
歸	-17.5403
毛	-17.5403
池	-17.5403
淵	-17.5403
游	-17.5403
湖	-17.5403
湯	-17.5403
激	-17.5403
灘	-17.5403
煙	-17.5403
牙	-17.5403
犬	-17.5403
猛	-17.5403
率	-17.5403
盆	-17.5403
盗	-17.5403
盧	-17.5403
眞	-17.5403
着	-17.5403
碗	-17.5403
確	-17.5403
祇	-17.5403
祓	-17.5403
祥	-17.5403
禊	-17.5403
積	-17.5403
簡	-17.5403
紹	-17.5403
網	-17.5403
緋	-17.5403
縣	-17.5403
结	-17.5403
羽	-17.5403
翔	-17.5403
耳	-17.5403
聰	-17.5403
膝	-17.5403
致	-17.5403
菅	-17.5403
蘆	-17.5403
虫	-17.5403
蚊	-17.5403
蝉	-17.5403
衛	-17.5403
衫	-17.5403
袅	-17.5403
裙	-17.5403
誌	-17.5403
諜	-17.5403
评	-17.5403
貨	-17.5403
跡	-17.5403
车	-17.5403
转	-17.5403
输	-17.5403
逯	-17.5403
酢	-17.5403
量	-17.5403
鉄	-17.5403
雨	-17.5403
霜	-17.5403
靜	-17.5403
頁	-17.5403
領	-17.5403
领	-17.5403
養	-17.5403
駅	-17.5403
骨	-17.5403
鲇	-17.5403
麈	-17.5403
ꜣ	-17.5403
갑	-17.5403
것	-17.5403
견	-17.5403
광	-17.5403
굴	-17.5403
굿	-17.5403
께	-17.5403
넌	-17.5403
넷	-17.5403
녕	-17.5403
던	-17.5403
됐	-17.5403
되	-17.5403
둥	-17.5403
딩	-17.5403
때	-17.5403
랐	-17.5403
랭	-17.5403
런	-17.5403
력	-17.5403
론	-17.5403
롱	-17.5403
료	-17.5403
링	-17.5403
뱀	-17.5403
벌	-17.5403
볼	-17.5403
붐	-17.5403
빈	-17.5403
빼	-17.5403
쁜	-17.5403
센	-17.5403
슬	-17.5403
싫	-17.5403
싱	-17.5403
앤	-17.5403
약	-17.5403
얼	-17.5403
엽	-17.5403
왜	-17.5403
잖	-17.5403
줄	-17.5403
측	-17.5403
칙	-17.5403
칭	-17.5403
콤	-17.5403
킬	-17.5403
툰	-17.5403
퍼	-17.5403
펀	-17.5403
편	-17.5403
폴	-17.5403
헤	-17.5403
헨	-17.5403
황	-17.5403
	-17.5403
︎	-17.5403
𒂊	-17.5403
罗	-17.5403
ɓ	-17.5403
պ	-17.5403
ু	-17.5403
均	-17.5403
扇	-17.5403
晁	-17.5403
松	-17.5403
炎	-17.5403
碧	-17.5403
鯰	-17.5403
숭	-17.5403
	-17.5403
ű	-17.5403
ܕ	-17.5403
ढ	-17.5403
ထ	-17.5403
ួ	-17.5403
ḏ	-17.5403
ἔ	-17.5403
備	-17.5403
則	-17.5403
妙	-17.5403
娃	-17.5403
察	-17.5403
岐	-17.5403
忍	-17.5403
散	-17.5403
於	-17.5403
暖	-17.5403
洲	-17.5403
淚	-17.5403
炒	-17.5403
發	-17.5403
紺	-17.5403
续	-17.5403
翼	-17.5403
聲	-17.5403
蕃	-17.5403
蛋	-17.5403
讃	-17.5403
贸	-17.5403
踊	-17.5403
込	-17.5403
進	-17.5403
郭	-17.5403
髪	-17.5403
鶴	-17.5403
黎	-17.5403
볶	-17.5403
악	-17.5403
접	-17.5403
젓	-17.5403
졌	-17.5403
謝	-17.5403
댕	-17.5403
혜	-17.5403
ܠ	-17.5403
ध	-17.5403
ం	-17.5403
វ	-17.5403
べ	-17.5403
列	-17.5403
很	-17.5403
排	-17.5403
握	-17.5403
术	-17.5403
签	-17.5403
缘	-17.5403
艺	-17.5403
荒	-17.5403
訪	-17.5403
運	-17.5403
郵	-17.5403
郷	-17.5403
鹿	-17.5403
꿈	-17.5403
넘	-17.5403
휘	-17.5403
𒆳	-17.5403
𒌷	-17.5403
辛	-17.5403
ড	-17.5403
桃	-17.5403
角	-17.5403
被	-17.5403
්	-17.5403
៊	-17.5403
休	-17.5403
况	-17.5403
勞	-17.5403
恵	-17.5403
感	-17.5403
獲	-17.5403
禁	-17.5403
算	-17.5403
素	-17.5403
講	-17.5403
際	-17.5403
농	-17.5403
莎	-17.5403
传	-17.5403
她	-17.5403
棋	-17.5403
様	-17.5403
统	-17.5403
而	-17.5403
詞	-17.5403
证	-17.5403
这	-17.5403
经	-17.5403
提	-17.5403
权	-17.5403
临	-17.5403
凡	-17.5403
勇	-17.5403
单	-17.5403
斩	-17.5403
讀	-17.5403
骁	-17.5403
复	-17.5404
赏	-17.5404
矢	-17.5404
裴	-17.5404
驰	-17.5404
短	-17.5405
又	-17.5405
咸	-17.5405
奏	-17.5405
每	-17.5406
阴	-17.5406
헌	-18.5098
퇴	-18.5099
텔	-18.51
쿵	-18.5101
찍	-18.5102
쩔	-18.5103
않	-18.5104
쓰	-18.5105
써	-18.5106
쌍	-18.5107
설	-18.5108
뽑	-18.5109
밀	-18.511
릿	-18.5111
렐	-18.5112
따	-18.5113
될	-18.5114
뎅	-18.5115
닛	-18.5116
귀	-18.5117
겨	-18.5118
餛	-18.5119
飩	-18.512
题	-18.5121
頡	-18.5122
鞠	-18.5123
雀	-18.5124
錦	-18.5125
鋼	-18.5126
酱	-18.5127
配	-18.5128
轅	-18.5129
輸	-18.513
贴	-18.5131
貌	-18.5132
谦	-18.5133
蛮	-18.5134
蕉	-18.5135
营	-18.5136
芽	-18.5137
舒	-18.5138
背	-18.5139
股	-18.514
聡	-18.5141
绛	-18.5142
継	-18.5143
粵	-18.5144
筒	-18.5145
禪	-18.5146
症	-18.5147
疯	-18.5148
當	-18.5149
獄	-18.515
烏	-18.5151
沃	-18.5152
棠	-18.5153
枚	-18.5154
朋	-18.5155
抹	-18.5156
尋	-18.5157
孩	-18.5158
孔	-18.5159
婧	-18.516
妻	-18.5161
奄	-18.5162
央	-18.5163
噌	-18.5164
卑	-18.5165
労	-18.5166
劇	-18.5167
刀	-18.5168
冰	-18.5169
催	-18.517
假	-18.5171
倍	-18.5172
乳	-18.5173
乌	-18.5174
ょ	-18.5175
む	-18.5176
ⵕ	-18.5177
ⵎ	-18.5178
∪	-18.5179
∅	-18.518
↯	-18.5181
₽	-18.5182
Ὠ	-18.5183
ὅ	-18.5184
Ἴ	-18.5185
ἶ	-18.5186
ἴ	-18.5187
Ἕ	-18.5188
Ἐ	-18.5189
ἄ	-18.519
Ẹ	-18.5191
ᥳ	-18.5192
ᥭ	-18.5193
ᥬ	-18.5194
ᥨ	-18.5195
ᥒ	-18.5196
ᥑ	-18.5197
ឹ	-18.5198
ខ	-18.5199
შ	-18.52
გ	-18.5201
ฒ	-18.5202
ฉ	-18.5203
ව	-18.5204
ి	-18.5205
ద	-18.5206
ஆ	-18.5207
খ	-18.5208
ޚ	-18.5209
ޖ	-18.521
ܼ	-18.5211
ܘ	-18.5212
Վ	-18.5213
Ն	-18.5214
Թ	-18.5215
Ө	-18.5216
һ	-18.5217
ғ	-18.5218
ј	-18.5219
Ј	-18.522
ϸ	-18.5221
Έ	-18.5222
̤	-18.5223
̓	-18.5224
ǂ	-18.5225
Ź	-18.5226
ŵ	-18.5227
Ő	-18.5228
Ī	-18.5229
Ĝ	-18.523
콘	-18.5231
캐	-18.5232
취	-18.5233
촬	-18.5234
총	-18.5235
손	-18.5236
베	-18.5237
롤	-18.5238
람	-18.5239
黃	-18.524
須	-18.5241
錬	-18.5242
説	-18.5243
蕎	-18.5244
肏	-18.5245
異	-18.5246
瑟	-18.5247
琶	-18.5248
琵	-18.5249
浜	-18.525
怀	-18.5251
彼	-18.5252
幸	-18.5253
富	-18.5254
员	-18.5255
吾	-18.5256
吻	-18.5257
占	-18.5258
医	-18.5259
冒	-18.526
仔	-18.5261
Ῥ	-18.5262
ῥ	-18.5263
ឡ	-18.5264
ជ	-18.5265
አ	-18.5266
ඩ	-18.5267
ங	-18.5268
ঁ	-18.5269
आ	-18.527
ܣ	-18.5271
ֱ	-18.5272
Հ	-18.5273
Ά	-18.5274
Ġ	-18.5275
활	-18.5276
확	-18.5277
판	-18.5278
탈	-18.5279
퀴	-18.528
잔	-18.5281
았	-18.5282
빵	-18.5283
銀	-18.5284
鈴	-18.5285
諭	-18.5286
葫	-18.5287
节	-18.5288
泥	-18.5289
植	-18.529
優	-18.5291
Ἑ	-18.5292
Ṭ	-18.5293
ᥰ	-18.5294
ᥖ	-18.5295
ယ	-18.5296
ஊ	-18.5297
ং	-18.5298
ެ	-18.5299
ܝ	-18.53
І	-18.5301
Χ	-18.5302
͘	-18.5303
Ğ	-18.5304
Û	-18.5305
Ë	-18.5306
	-18.5307
츠	-18.5308
벳	-18.5309
벨	-18.531
류	-18.5311
럼	-18.5312
랜	-18.5313
뛰	-18.5314
陳	-18.5315
揚	-18.5316
宙	-18.5317
執	-18.5318
⚙	-18.5319
★	-18.532
₤	-18.5321
ἐ	-18.5322
ḫ	-18.5323
எ	-18.5324
়	-18.5325
ĝ	-18.5326
️	-18.5327
콜	-18.5328
좋	-18.5329
袁	-18.533
紅	-18.5331
岸	-18.5332
ぶ	-18.5333
Ṣ	-18.5334
ṃ	-18.5335
அ	-18.5336
տ	-18.5337
ս	-18.5338
Ș	-18.5339
Ə	-18.534
Ŭ	-18.5341
普	-18.5342
協	-18.5343
∠	-18.5344
ោ	-18.5345
ុ	-18.5346
ි	-18.5347
없	-18.5348
슈	-18.5349
빅	-18.535
극	-18.5351
航	-18.5352
ォ	-18.5353
⊙	-18.5354
↹	-18.5355
இ	-18.5356
ক	-18.5357
Þ	-18.5358
校	-18.5359
充	-18.536
俨	-18.5361
ἀ	-18.5362
ვ	-18.5363
ゃ	-18.5364
ὐ	-18.5365
뷔	-18.5366
멤	-18.5367
☰	-18.5368
ภ	-18.5369
박	-18.537
Ệ	-18.5371
ء	-18.5372
̊	-18.5373
뱅	-18.5374
少	-18.5375
ื	-18.5376
ற	-18.5377
⋯	-18.5378
∑	-18.5379
뮤	-18.538
─	-18.5381
₹	-18.5382
∆	-18.5383
₩	-18.5384
̧	-18.5385
ェ	-18.5386
Æ	-18.5387
ẵ	-18.5388
ョ	-18.5389
ṇ	-18.539
Ḥ	-18.5391
Κ	-18.5392
Ả	-18.5393
株	-18.5394
阶	-18.5395
ャ	-18.5395
∈	-18.5396
ṭ	-18.5397
้	-18.5398
劫	-18.5399
匕	-18.5399
崔	-18.5399
惮	-18.5399
颇	-18.5399
麾	-18.5399
⟨	-18.5399
∗	-18.54
ฬ	-18.5401
喰	-18.5401
猜	-18.5401
隋	-18.5401
ั	-18.5401
値	-18.5402
戒	-18.5402
榮	-18.5402
茜	-18.5402
詠	-18.5402
降	-18.5402
难	-18.5402
ẳ	-18.5402
剑	-18.5402
ऑ	-18.5402
ည	-18.5402
ံ	-18.5402
丨	-18.5402
仆	-18.5402
価	-18.5402
侨	-18.5402
动	-18.5402
娱	-18.5402
払	-18.5402
援	-18.5402
收	-18.5402
暗	-18.5402
涛	-18.5402
災	-18.5402
焦	-18.5402
牵	-18.5402
绿	-18.5402
荣	-18.5402
誉	-18.5402
誘	-18.5402
诸	-18.5402
谭	-18.5402
败	-18.5402
軽	-18.5402
远	-18.5402
违	-18.5402
靓	-18.5402
額	-18.5402
Է	-18.5402
ջ	-18.5402
ֆ	-18.5402
ष	-18.5402
ฑ	-18.5402
ဆ	-18.5402
ဓ	-18.5402
ါ	-18.5402
္	-18.5402
კ	-18.5402
ៃ	-18.5402
ⲉ	-18.5402
ⲣ	-18.5402
ⲭ	-18.5402
ⵇ	-18.5402
ⵡ	-18.5402
亮	-18.5402
凄	-18.5402
创	-18.5402
卖	-18.5402
坊	-18.5402
嫌	-18.5402
屑	-18.5402
展	-18.5402
控	-18.5402
擊	-18.5402
晃	-18.5402
曜	-18.5402
沒	-18.5402
灰	-18.5402
班	-18.5402
盘	-18.5402
累	-18.5402
絆	-18.5402
维	-18.5402
艶	-18.5402
莊	-18.5402
複	-18.5402
訊	-18.5402
誠	-18.5402
誤	-18.5402
赼	-18.5402
趛	-18.5402
趜	-18.5402
趝	-18.5402
趠	-18.5402
趡	-18.5402
趢	-18.5402
辭	-18.5402
迪	-18.5402
隅	-18.5402
鞍	-18.5402
预	-18.5402
飴	-18.5402
騰	-18.5402
魯	-18.5402
듯	-18.5402
릴	-18.5402
봤	-18.5402
익	-18.5402
	-18.5402
Ę	-18.5402
Չ	-18.5402
շ	-18.5402
ׂ	-18.5402
ڪ	-18.5402
ܒ	-18.5402
ܶ	-18.5402
ట	-18.5402
న	-18.5402
ඨ	-18.5402
ෝ	-18.5402
ᵻ	-18.5402
ὕ	-18.5402
仓	-18.5402
兒	-18.5402
冬	-18.5402
剥	-18.5402
問	-18.5402
囮	-18.5402
彫	-18.5402
托	-18.5402
拜	-18.5402
捜	-18.5402
掘	-18.5402
掠	-18.5402
模	-18.5402
澤	-18.5402
瀆	-18.5402
燕	-18.5402
瞳	-18.5402
練	-18.5402
膀	-18.5402
蘋	-18.5402
裤	-18.5402
覲	-18.5402
跨	-18.5402
迫	-18.5402
逗	-18.5402
閑	-18.5402
雌	-18.5402
颉	-18.5402
鸟	-18.5402
겁	-18.5402
깨	-18.5402
륜	-18.5402
뿐	-18.5402
쫄	-18.5402
텐	-18.5402
푸	-18.5402
Մ	-18.5403
భ	-18.5403
ဦ	-18.5403
ዳ	-18.5403
ḇ	-18.5403
ṓ	-18.5403
Ἶ	-18.5403
♍	-18.5403
ⴾ	-18.5403
ㄔ	-18.5403
ㄙ	-18.5403
丈	-18.5403
伯	-18.5403
割	-18.5403
匪	-18.5403
孛	-18.5403
恆	-18.5403
撈	-18.5403
毘	-18.5403
沈	-18.5403
漆	-18.5403
炽	-18.5403
督	-18.5403
縦	-18.5403
總	-18.5403
蘇	-18.5403
蜑	-18.5403
諏	-18.5403
譚	-18.5403
谶	-18.5403
躬	-18.5403
鎮	-18.5403
隼	-18.5403
馮	-18.5403
齐	-18.5403
넥	-18.5403
높	-18.5403
닥	-18.5403
뭇	-18.5403
빌	-18.5403
빠	-18.5403
썸	-18.5403
엎	-18.5403
완	-18.5403
잊	-18.5403
했	-18.5403
𐎶	-18.5403
	-18.5403
	-18.5403
ď	-18.5403
Ė	-18.5403
Į	-18.5403
ļ	-18.5403
Ť	-18.5403
Ũ	-18.5403
ŷ	-18.5403
Ɓ	-18.5403
Ɗ	-18.5403
Ƙ	-18.5403
ƙ	-18.5403
ȉ	-18.5403
ɖ	-18.5403
ɗ	-18.5403
ɘ	-18.5403
ɤ	-18.5403
ɰ	-18.5403
ʂ	-18.5403
ʈ	-18.5403
ʋ	-18.5403
ʐ	-18.5403
ʕ	-18.5403
ʟ	-18.5403
˃	-18.5403
ˇ	-18.5403
ˊ	-18.5403
̑	-18.5403
̞	-18.5403
̟	-18.5403
̱	-18.5403
Ͱ	-18.5403
ͱ	-18.5403
Ί	-18.5403
Ώ	-18.5403
Ψ	-18.5403
ϊ	-18.5403
Ϙ	-18.5403
ϙ	-18.5403
ϛ	-18.5403
Ϸ	-18.5403
Ї	-18.5403
Ы	-18.5403
ѕ	-18.5403
ћ	-18.5403
ѧ	-18.5403
ҁ	-18.5403
Ғ	-18.5403
ҕ	-18.5403
Ҫ	-18.5403
Ұ	-18.5403
ұ	-18.5403
Ӑ	-18.5403
Ӗ	-18.5403
ӣ	-18.5403
Ӳ	-18.5403
Զ	-18.5403
Կ	-18.5403
Յ	-18.5403
Ո	-18.5403
Ս	-18.5403
է	-18.5403
ը	-18.5403
խ	-18.5403
ղ	-18.5403
ռ	-18.5403
֑	-18.5403
֔	-18.5403
ֽ	-18.5403
־	-18.5403
،	-18.5403
ٓ	-18.5403
٘	-18.5403
ٱ	-18.5403
ٴ	-18.5403
ڊ	-18.5403
ڌ	-18.5403
ڕ	-18.5403
ژ	-18.5403
ۋ	-18.5403
ێ	-18.5403
ے	-18.5403
ە	-18.5403
ܟ	-18.5403
ܥ	-18.5403
ܫ	-18.5403
ܲ	-18.5403
ބ	-18.5403
މ	-18.5403
ލ	-18.5403
ޠ	-18.5403
ު	-18.5403
ँ	-18.5403
छ	-18.5403
ठ	-18.5403
फ	-18.5403
श	-18.5403
ঙ	-18.5403
ঢ	-18.5403
থ	-18.5403
ষ	-18.5403
ৃ	-18.5403
ਅ	-18.5403
ਦ	-18.5403
ਬ	-18.5403
ਲ	-18.5403
ਵ	-18.5403
ਿ	-18.5403
ੁ	-18.5403
ੂ	-18.5403
ੱ	-18.5403
உ	-18.5403
ஐ	-18.5403
ஒ	-18.5403
ெ	-18.5403
ఉ	-18.5403
గ	-18.5403
త	-18.5403
ప	-18.5403
య	-18.5403
ర	-18.5403
ు	-18.5403
ಅ	-18.5403
ಇ	-18.5403
ಈ	-18.5403
ಎ	-18.5403
ಏ	-18.5403
ಗ	-18.5403
ದ	-18.5403
ರ	-18.5403
ಸ	-18.5403
ು	-18.5403
ೆ	-18.5403
ං	-18.5403
ච	-18.5403
ජ	-18.5403
ද	-18.5403
ධ	-18.5403
භ	-18.5403
ල	-18.5403
ෂ	-18.5403
ේ	-18.5403
฿	-18.5403
ๆ	-18.5403
๘	-18.5403
ဇ	-18.5403
ဒ	-18.5403
လ	-18.5403
ဟ	-18.5403
ဲ	-18.5403
ှ	-18.5403
ძ	-18.5403
ᄀ	-18.5403
ᅳ	-18.5403
ᅵ	-18.5403
ᆞ	-18.5403
ሀ	-18.5403
ሃ	-18.5403
ል	-18.5403
ሕ	-18.5403
ሙ	-18.5403
ሪ	-18.5403
ር	-18.5403
ሻ	-18.5403
ቆ	-18.5403
ቤ	-18.5403
ተ	-18.5403
ታ	-18.5403
ች	-18.5403
እ	-18.5403
ከ	-18.5403
ዊ	-18.5403
ዋ	-18.5403
ዝ	-18.5403
ይ	-18.5403
ደ	-18.5403
ድ	-18.5403
ዶ	-18.5403
ጻ	-18.5403
ច	-18.5403
ធ	-18.5403
ភ	-18.5403
យ	-18.5403
ហ	-18.5403
អ	-18.5403
ឧ	-18.5403
េ	-18.5403
ំ	-18.5403
៍	-18.5403
ḑ	-18.5403
Ḩ	-18.5403
ḿ	-18.5403
ṕ	-18.5403
ṳ	-18.5403
ẏ	-18.5403
ẓ	-18.5403
ẖ	-18.5403
Ẫ	-18.5403
Ắ	-18.5403
Ằ	-18.5403
Ỏ	-18.5403
Ừ	-18.5403
ỵ	-18.5403
ἁ	-18.5403
Ἁ	-18.5403
Ἠ	-18.5403
Ἡ	-18.5403
Ἥ	-18.5403
ἱ	-18.5403
Ἰ	-18.5403
ὔ	-18.5403
Ὑ	-18.5403
Ὕ	-18.5403
ὤ	-18.5403
ὲ	-18.5403
ὺ	-18.5403
ᾷ	-18.5403
ῳ	-18.5403
—	-18.5403
‛	-18.5403
‟	-18.5403
※	-18.5403
⁠	-18.5403
₣	-18.5403
℞	-18.5403
↔	-18.5403
↺	-18.5403
↽	-18.5403
⇀	-18.5403
∤	-18.5403
∫	-18.5403
∮	-18.5403
≶	-18.5403
⊊	-18.5403
⊗	-18.5403
⊨	-18.5403
⋀	-18.5403
⋁	-18.5403
⋆	-18.5403
⌈	-18.5403
⌉	-18.5403
⌊	-18.5403
⌋	-18.5403
⎙	-18.5403
┼	-18.5403
▮	-18.5403
▲	-18.5403
△	-18.5403
►	-18.5403
▼	-18.5403
○	-18.5403
☠	-18.5403
☺	-18.5403
♏	-18.5403
⟼	-18.5403
⤧	-18.5403
⭐	-18.5403
ⲏ	-18.5403
ⴱ	-18.5403
ⴳ	-18.5403
ⴷ	-18.5403
ⴸ	-18.5403
ⴹ	-18.5403
ⴻ	-18.5403
ⵜ	-18.5403
ⵣ	-18.5403
〒	-18.5403
ぴ	-18.5403
ぷ	-18.5403
ゅ	-18.5403
ㄐ	-18.5403
ㄢ	-18.5403
ㄥ	-18.5403
ㄨ	-18.5403
丙	-18.5403
业	-18.5403
丼	-18.5403
义	-18.5403
乔	-18.5403
习	-18.5403
乡	-18.5403
买	-18.5403
些	-18.5403
亞	-18.5403
亢	-18.5403
亥	-18.5403
亦	-18.5403
产	-18.5403
亲	-18.5403
亿	-18.5403
仕	-18.5403
仙	-18.5403
们	-18.5403
仰	-18.5403
件	-18.5403
伍	-18.5403
伏	-18.5403
伸	-18.5403
佃	-18.5403
住	-18.5403
佛	-18.5403
佢	-18.5403
佳	-18.5403
佶	-18.5403
侘	-18.5403
便	-18.5403
俐	-18.5403
俱	-18.5403
俺	-18.5403
們	-18.5403
值	-18.5403
倾	-18.5403
做	-18.5403
僑	-18.5403
僧	-18.5403
儂	-18.5403
儲	-18.5403
兌	-18.5403
兔	-18.5403
內	-18.5403
关	-18.5403
兴	-18.5403
具	-18.5403
兼	-18.5403
兽	-18.5403
冊	-18.5403
冤	-18.5403
凛	-18.5403
凤	-18.5403
処	-18.5403
凰	-18.5403
凱	-18.5403
刊	-18.5403
劉	-18.5403
劣	-18.5403
効	-18.5403
匠	-18.5403
區	-18.5403
卉	-18.5403
卍	-18.5403
卐	-18.5403
卡	-18.5403
卵	-18.5403
卿	-18.5403
厂	-18.5403
厨	-18.5403
变	-18.5403
句	-18.5403
只	-18.5403
叫	-18.5403
各	-18.5403
吗	-18.5403
吧	-18.5403
哋	-18.5403
哲	-18.5403
啦	-18.5403
啲	-18.5403
單	-18.5403
喼	-18.5403
嘅	-18.5403
囧	-18.5403
固	-18.5403
圀	-18.5403
圓	-18.5403
圖	-18.5403
圭	-18.5403
坚	-18.5403
坝	-18.5403
垚	-18.5403
垣	-18.5403
堀	-18.5403
堪	-18.5403
塘	-18.5403
塞	-18.5403
塩	-18.5403
塾	-18.5403
墓	-18.5403
增	-18.5403
墨	-18.5403
墾	-18.5403
壇	-18.5403
壌	-18.5403
壩	-18.5403
夺	-18.5403
奉	-18.5403
奎	-18.5403
奥	-18.5403
姉	-18.5403
姚	-18.5403
姿	-18.5403
婚	-18.5403
婷	-18.5403
嬢	-18.5403
嬬	-18.5403
嬴	-18.5403
孝	-18.5403
孟	-18.5403
孤	-18.5403
完	-18.5403
宛	-18.5403
宜	-18.5403
实	-18.5403
宠	-18.5403
宫	-18.5403
害	-18.5403
容	-18.5403
寳	-18.5403
寸	-18.5403
对	-18.5403
寻	-18.5403
导	-18.5403
導	-18.5403
尘	-18.5403
尺	-18.5403
尼	-18.5403
屄	-18.5403
履	-18.5403
岗	-18.5403
岚	-18.5403
岭	-18.5403
峨	-18.5403
峴	-18.5403
崇	-18.5403
崑	-18.5403
崗	-18.5403
崩	-18.5403
嶄	-18.5403
巒	-18.5403
巾	-18.5403
帥	-18.5403
帯	-18.5403
帰	-18.5403
帶	-18.5403
帽	-18.5403
幼	-18.5403
広	-18.5403
廊	-18.5403
廳	-18.5403
延	-18.5403
廷	-18.5403
异	-18.5403
彙	-18.5403
彝	-18.5403
彬	-18.5403
彰	-18.5403
彿	-18.5403
征	-18.5403
徐	-18.5403
循	-18.5403
徭	-18.5403
徽	-18.5403
忽	-18.5403
怕	-18.5403
怖	-18.5403
恭	-18.5403
息	-18.5403
悩	-18.5403
惠	-18.5403
惡	-18.5403
愈	-18.5403
愷	-18.5403
懌	-18.5403
戈	-18.5403
戌	-18.5403
戰	-18.5403
房	-18.5403
扒	-18.5403
扭	-18.5403
扶	-18.5403
批	-18.5403
抓	-18.5403
抗	-18.5403
拏	-18.5403
拓	-18.5403
拶	-18.5403
拾	-18.5403
挙	-18.5403
挨	-18.5403
捉	-18.5403
捕	-18.5403
换	-18.5403
捷	-18.5403
掌	-18.5403
掛	-18.5403
推	-18.5403
揭	-18.5403
揮	-18.5403
揽	-18.5403
搬	-18.5403
摂	-18.5403
撒	-18.5403
撞	-18.5403
撲	-18.5403
敌	-18.5403
整	-18.5403
數	-18.5403
斉	-18.5403
斐	-18.5403
旦	-18.5403
旺	-18.5403
昆	-18.5403
昇	-18.5403
昵	-18.5403
晉	-18.5403
晓	-18.5403
晚	-18.5403
晶	-18.5403
暁	-18.5403
暉	-18.5403
暑	-18.5403
曇	-18.5403
曉	-18.5403
曹	-18.5403
曼	-18.5403
曽	-18.5403
替	-18.5403
朦	-18.5403
朧	-18.5403
未	-18.5403
杂	-18.5403
杏	-18.5403
杜	-18.5403
杠	-18.5403
杰	-18.5403
析	-18.5403
柏	-18.5403
柔	-18.5403
柚	-18.5403
查	-18.5403
柯	-18.5403
栄	-18.5403
标	-18.5403
栖	-18.5403
格	-18.5403
栾	-18.5403
案	-18.5403
桧	-18.5403
梁	-18.5403
梦	-18.5403
梨	-18.5403
梭	-18.5403
椎	-18.5403
椿	-18.5403
楊	-18.5403
楼	-18.5403
橙	-18.5403
橫	-18.5403
櫟	-18.5403
欣	-18.5403
欽	-18.5403
款	-18.5403
此	-18.5403
歩	-18.5403
殃	-18.5403
殊	-18.5403
殲	-18.5403
殷	-18.5403
比	-18.5403
氐	-18.5403
氣	-18.5403
氷	-18.5403
泄	-18.5403
注	-18.5403
泪	-18.5403
洁	-18.5403
浄	-18.5403
浅	-18.5403
浩	-18.5403
浴	-18.5403
浸	-18.5403
涉	-18.5403
淑	-18.5403
淳	-18.5403
混	-18.5403
淸	-18.5403
添	-18.5403
渋	-18.5403
減	-18.5403
渠	-18.5403
渤	-18.5403
渦	-18.5403
測	-18.5403
湘	-18.5403
湛	-18.5403
溟	-18.5403
溢	-18.5403
溫	-18.5403
滝	-18.5403
滨	-18.5403
滾	-18.5403
漣	-18.5403
漪	-18.5403
漱	-18.5403
潔	-18.5403
潘	-18.5403
潮	-18.5403
濃	-18.5403
濕	-18.5403
濟	-18.5403
濱	-18.5403
灵	-18.5403
炉	-18.5403
炊	-18.5403
烦	-18.5403
焉	-18.5403
煉	-18.5403
照	-18.5403
熙	-18.5403
爭	-18.5403
爰	-18.5403
牆	-18.5403
牌	-18.5403
牡	-18.5403
状	-18.5403
狐	-18.5403
狗	-18.5403
猎	-18.5403
猫	-18.5403
献	-18.5403
獎	-18.5403
獠	-18.5403
玖	-18.5403
玟	-18.5403
玦	-18.5403
现	-18.5403
珍	-18.5403
珲	-18.5403
琛	-18.5403
琨	-18.5403
琳	-18.5403
琼	-18.5403
瑋	-18.5403
瑚	-18.5403
瑞	-18.5403
瑤	-18.5403
瑷	-18.5403
產	-18.5403
申	-18.5403
畢	-18.5403
略	-18.5403
疾	-18.5403
痊	-18.5403
痞	-18.5403
盃	-18.5403
睇	-18.5403
睛	-18.5403
睿	-18.5403
瞻	-18.5403
码	-18.5403
研	-18.5403
砲	-18.5403
硫	-18.5403
碎	-18.5403
碑	-18.5403
碩	-18.5403
祎	-18.5403
票	-18.5403
禎	-18.5403
禕	-18.5403
移	-18.5403
稀	-18.5403
税	-18.5403
穂	-18.5403
穏	-18.5403
窮	-18.5403
競	-18.5403
竺	-18.5403
笏	-18.5403
笑	-18.5403
笹	-18.5403
筑	-18.5403
筠	-18.5403
简	-18.5403
箍	-18.5403
箕	-18.5403
箭	-18.5403
範	-18.5403
篇	-18.5403
篠	-18.5403
篮	-18.5403
粋	-18.5403
糈	-18.5403
紐	-18.5403
紓	-18.5403
綜	-18.5403
維	-18.5403
綺	-18.5403
綾	-18.5403
緒	-18.5403
縱	-18.5403
績	-18.5403
红	-18.5403
纯	-18.5403
纾	-18.5403
终	-18.5403
置	-18.5403
翅	-18.5403
翰	-18.5403
耀	-18.5403
耆	-18.5403
聂	-18.5403
聚	-18.5403
聴	-18.5403
肥	-18.5403
胃	-18.5403
胞	-18.5403
胧	-18.5403
脚	-18.5403
腐	-18.5403
腔	-18.5403
腾	-18.5403
舊	-18.5403
舎	-18.5403
舜	-18.5403
舟	-18.5403
艾	-18.5403
芋	-18.5403
芝	-18.5403
芬	-18.5403
芸	-18.5403
苗	-18.5403
茂	-18.5403
荅	-18.5403
莞	-18.5403
莽	-18.5403
菊	-18.5403
菱	-18.5403
菽	-18.5403
萃	-18.5403
葱	-18.5403
葳	-18.5403
蒲	-18.5403
蒸	-18.5403
蓮	-18.5403
蔽	-18.5403
薩	-18.5403
薪	-18.5403
薬	-18.5403
藥	-18.5403
虏	-18.5403
虚	-18.5403
號	-18.5403
蛇	-18.5403
蛙	-18.5403
蜜	-18.5403
蝦	-18.5403
蝶	-18.5403
融	-18.5403
螣	-18.5403
蟲	-18.5403
衝	-18.5403
衡	-18.5403
补	-18.5403
袍	-18.5403
袖	-18.5403
裕	-18.5403
裟	-18.5403
裰	-18.5403
製	-18.5403
褆	-18.5403
褲	-18.5403
褶	-18.5403
襦	-18.5403
覧	-18.5403
覽	-18.5403
观	-18.5403
訓	-18.5403
詢	-18.5403
該	-18.5403
認	-18.5403
誓	-18.5403
読	-18.5403
調	-18.5403
諮	-18.5403
謹	-18.5403
譜	-18.5403
譯	-18.5403
讐	-18.5403
认	-18.5403
讯	-18.5403
许	-18.5403
识	-18.5403
译	-18.5403
诛	-18.5403
谈	-18.5403
豐	-18.5403
象	-18.5403
豫	-18.5403
財	-18.5403
費	-18.5403
贤	-18.5403
质	-18.5403
贵	-18.5403
贺	-18.5403
赛	-18.5403
赫	-18.5403
赱	-18.5403
赲	-18.5403
赳	-18.5403
赴	-18.5403
赶	-18.5403
赸	-18.5403
赹	-18.5403
赺	-18.5403
赻	-18.5403
赽	-18.5403
赾	-18.5403
赿	-18.5403
趀	-18.5403
趁	-18.5403
趂	-18.5403
趃	-18.5403
趄	-18.5403
趆	-18.5403
趇	-18.5403
趈	-18.5403
趉	-18.5403
趋	-18.5403
趌	-18.5403
趍	-18.5403
趎	-18.5403
趏	-18.5403
趐	-18.5403
趑	-18.5403
趒	-18.5403
趓	-18.5403
趔	-18.5403
趕	-18.5403
趖	-18.5403
趗	-18.5403
趘	-18.5403
趚	-18.5403
趞	-18.5403
趟	-18.5403
趣	-18.5403
趤	-18.5403
趥	-18.5403
趦	-18.5403
趧	-18.5403
趨	-18.5403
趩	-18.5403
趪	-18.5403
趫	-18.5403
趬	-18.5403
趭	-18.5403
趮	-18.5403
趯	-18.5403
趰	-18.5403
趱	-18.5403
趲	-18.5403
趾	-18.5403
跑	-18.5403
跳	-18.5403
踢	-18.5403
載	-18.5403
輔	-18.5403
輯	-18.5403
輿	-18.5403
辉	-18.5403
辰	-18.5403
运	-18.5403
返	-18.5403
迴	-18.5403
迹	-18.5403
逆	-18.5403
透	-18.5403
途	-18.5403
這	-18.5403
逸	-18.5403
遍	-18.5403
邑	-18.5403
邓	-18.5403
鄕	-18.5403
酉	-18.5403
醫	-18.5403
醬	-18.5403
釁	-18.5403
錄	-18.5403
鎌	-18.5403
鏡	-18.5403
鐵	-18.5403
钦	-18.5403
铁	-18.5403
锁	-18.5403
键	-18.5403
閩	-18.5403
閪	-18.5403
门	-18.5403
队	-18.5403
阵	-18.5403
附	-18.5403
陣	-18.5403
除	-18.5403
階	-18.5403
隠	-18.5403
雁	-18.5403
難	-18.5403
雾	-18.5403
霆	-18.5403
露	-18.5403
靡	-18.5403
靴	-18.5403
韆	-18.5403
頂	-18.5403
順	-18.5403
預	-18.5403
頤	-18.5403
頼	-18.5403
顆	-18.5403
顕	-18.5403
页	-18.5403
项	-18.5403
顺	-18.5403
颐	-18.5403
额	-18.5403
飥	-18.5403
餃	-18.5403
餡	-18.5403
餺	-18.5403
饰	-18.5403
駿	-18.5403
騒	-18.5403
験	-18.5403
驛	-18.5403
骋	-18.5403
鬘	-18.5403
鬚	-18.5403
魁	-18.5403
魅	-18.5403
魏	-18.5403
鮮	-18.5403
鯨	-18.5403
鲵	-18.5403
鳌	-18.5403
鳩	-18.5403
鳰	-18.5403
鳴	-18.5403
鹸	-18.5403
麟	-18.5403
麥	-18.5403
麵	-18.5403
黨	-18.5403
鼓	-18.5403
齋	-18.5403
龙	-18.5403
ꞌ	-18.5403
ꠋ	-18.5403
ꠎ	-18.5403
ꠚ	-18.5403
ꠟ	-18.5403
ꠣ	-18.5403
각	-18.5403
객	-18.5403
걷	-18.5403
검	-18.5403
결	-18.5403
겸	-18.5403
궁	-18.5403
귤	-18.5403
급	-18.5403
깃	-18.5403
깝	-18.5403
깡	-18.5403
깰	-18.5403
꼼	-18.5403
꾸	-18.5403
납	-18.5403
낭	-18.5403
낸	-18.5403
냥	-18.5403
널	-18.5403
놀	-18.5403
놨	-18.5403
닝	-18.5403
닿	-18.5403
댈	-18.5403
덤	-18.5403
둔	-18.5403
뒷	-18.5403
땐	-18.5403
땡	-18.5403
떨	-18.5403
뜨	-18.5403
띵	-18.5403
랄	-18.5403
랙	-18.5403
램	-18.5403
략	-18.5403
량	-18.5403
렇	-18.5403
렌	-18.5403
련	-18.5403
렬	-18.5403
렴	-18.5403
례	-18.5403
롯	-18.5403
률	-18.5403
륨	-18.5403
름	-18.5403
맞	-18.5403
먹	-18.5403
멜	-18.5403
며	-18.5403
멱	-18.5403
묵	-18.5403
뮈	-18.5403
밤	-18.5403
벗	-18.5403
벽	-18.5403
봇	-18.5403
봐	-18.5403
뻔	-18.5403
삽	-18.5403
샷	-18.5403
섣	-18.5403
섰	-18.5403
셉	-18.5403
셋	-18.5403
셔	-18.5403
션	-18.5403
셜	-18.5403
쉐	-18.5403
쉬	-18.5403
슨	-18.5403
슴	-18.5403
싹	-18.5403
쌈	-18.5403
썩	-18.5403
썼	-18.5403
쏘	-18.5403
쏙	-18.5403
쓸	-18.5403
알	-18.5403
앳	-18.5403
얀	-18.5403
얘	-18.5403
엣	-18.5403
옆	-18.5403
옷	-18.5403
욕	-18.5403
욱	-18.5403
웅	-18.5403
웨	-18.5403
웰	-18.5403
웹	-18.5403
윈	-18.5403
윌	-18.5403
윗	-18.5403
윙	-18.5403
율	-18.5403
융	-18.5403
잎	-18.5403
잘	-18.5403
젝	-18.5403
져	-18.5403
족	-18.5403
존	-18.5403
졸	-18.5403
죄	-18.5403
줘	-18.5403
줬	-18.5403
짓	-18.5403
쩌	-18.5403
찜	-18.5403
찬	-18.5403
찰	-18.5403
찾	-18.5403
책	-18.5403
첨	-18.5403
촌	-18.5403
춤	-18.5403
칩	-18.5403
커	-18.5403
컵	-18.5403
콩	-18.5403
쾌	-18.5403
큐	-18.5403
큰	-18.5403
탁	-18.5403
탐	-18.5403
탕	-18.5403
틱	-18.5403
팡	-18.5403
패	-18.5403
팩	-18.5403
폐	-18.5403
풀	-18.5403
품	-18.5403
할	-18.5403
험	-18.5403
혈	-18.5403
협	-18.5403
혼	-18.5403
홋	-18.5403
효	-18.5403
훔	-18.5403
흔	-18.5403
흠	-18.5403
흥	-18.5403
	-18.5403
	-18.5403
	-18.5403
𐎠	-18.5403
𐎭	-18.5403
𐤀	-18.5403
𐤉	-18.5403
𐤊	-18.5403
𐤍	-18.5403
𐰞	-18.5403
𐰴	-18.5403
𐰸	-18.5403
𐰺	-18.5403
𒀭	-18.5403
𒄀	-18.5403
𒇺	-18.5403
𒈗	-18.5403
𒈠	-18.5403
𒉡	-18.5403
𒊭	-18.5403
Č	-18.5403
ǰ	-18.5403
ȫ	-18.5403
ṙ	-18.5403
ἵ	-18.5403
冉	-18.5403
勲	-18.5403
婆	-18.5403
寛	-18.5403
幡	-18.5403
弁	-18.5403
敷	-18.5403
碾	-18.5403
谨	-18.5403
避	-18.5403
邇	-18.5403
駒	-18.5403
팬	-18.5403
Ή	-18.5403
њ	-18.5403
ң	-18.5403
ҷ	-18.5403
Շ	-18.5403
֖	-18.5403
֫	-18.5403
ؔ	-18.5403
ۈ	-18.5403
ধ	-18.5403
প	-18.5403
ਗ	-18.5403
ላ	-18.5403
ወ	-18.5403
ፈ	-18.5403
Ἱ	-18.5403
ὄ	-18.5403
ぁ	-18.5403
ぃ	-18.5403
ぅ	-18.5403
ぽ	-18.5403
亀	-18.5403
仲	-18.5403
依	-18.5403
切	-18.5403
厚	-18.5403
収	-18.5403
呂	-18.5403
妆	-18.5403
寬	-18.5403
届	-18.5403
嵐	-18.5403
彤	-18.5403
徹	-18.5403
忐	-18.5403
忑	-18.5403
応	-18.5403
愍	-18.5403
憑	-18.5403
扎	-18.5403
杨	-18.5403
椒	-18.5403
歡	-18.5403
済	-18.5403
湄	-18.5403
滇	-18.5403
澜	-18.5403
獅	-18.5403
獸	-18.5403
瓊	-18.5403
甫	-18.5403
硝	-18.5403
碌	-18.5403
禮	-18.5403
秩	-18.5403
稽	-18.5403
筷	-18.5403
粥	-18.5403
粹	-18.5403
納	-18.5403
紳	-18.5403
經	-18.5403
缅	-18.5403
胡	-18.5403
脇	-18.5403
荡	-18.5403
莫	-18.5403
處	-18.5403
蠣	-18.5403
购	-18.5403
辞	-18.5403
连	-18.5403
逢	-18.5403
遇	-18.5403
針	-18.5403
釣	-18.5403
闪	-18.5403
靖	-18.5403
饭	-18.5403
鴨	-18.5403
麩	-18.5403
꼭	-18.5403
녹	-18.5403
딸	-18.5403
맛	-18.5403
몇	-18.5403
밴	-18.5403
뵙	-18.5403
쇠	-18.5403
웬	-18.5403
캠	-18.5403
코	-18.5403
킹	-18.5403
토	-18.5403
	-18.5403
Պ	-18.5403
ܸ	-18.5403
অ	-18.5403
উ	-18.5403
ొ	-18.5403
අ	-18.5403
ฏ	-18.5403
៉	-18.5403
ぜ	-18.5403
ぞ	-18.5403
傻	-18.5403
児	-18.5403
吴	-18.5403
哥	-18.5403
培	-18.5403
壞	-18.5403
宪	-18.5403
峇	-18.5403
廓	-18.5403
懷	-18.5403
暨	-18.5403
极	-18.5403
標	-18.5403
樣	-18.5403
浒	-18.5403
準	-18.5403
满	-18.5403
澳	-18.5403
瓜	-18.5403
簽	-18.5403
类	-18.5403
纶	-18.5403
罪	-18.5403
腦	-18.5403
腹	-18.5403
茵	-18.5403
蕭	-18.5403
踞	-18.5403
障	-18.5403
뽕	-18.5403
징	-18.5403
𒀜	-18.5403
𒄡	-18.5403
𒄩	-18.5403
ց	-18.5403
供	-18.5403
俄	-18.5403
卹	-18.5403
卻	-18.5403
叡	-18.5403
呎	-18.5403
嘢	-18.5403
域	-18.5403
失	-18.5403
憶	-18.5403
或	-18.5403
承	-18.5403
撫	-18.5403
泽	-18.5403
監	-18.5403
稱	-18.5403
群	-18.5403
退	-18.5403
鍵	-18.5403
频	-18.5403
颜	-18.5403
什	-18.5404
围	-18.5404
夷	-18.5404
姐	-18.5404
岷	-18.5404
己	-18.5404
披	-18.5404
押	-18.5404
无	-18.5404
暂	-18.5404
歉	-18.5404
環	-18.5404
瓦	-18.5404
肃	-18.5404
臂	-18.5404
覆	-18.5404
访	-18.5404
韻	-18.5404
颠	-18.5404
麼	-18.5404
ẩ	-18.5404
ặ	-18.5405
偃	-18.5405
叱	-18.5405
哪	-18.5405
寇	-18.5405
归	-18.5405
惧	-18.5405
甚	-18.5405
膊	-18.5405
阳	-18.5405
僣	-18.5406
ầ	-18.5406
♫	-18.5407
卒	-18.5407
即	-18.5407
坠	-18.5407
救	-18.5407
敝	-18.5407
监	-18.5407
袭	-18.5407
辟	-18.5407
遣	-18.5407
邙	-18.5407
ố	-18.5408
ấ	-18.5409
劾	-18.5409
怨	-18.5409
抑	-18.5409
萧	-18.5409
