,	10686
.	9514
▁và	3729
▁của	3625
▁có	3111
▁là	2707
▁một	2425
▁"	2272
▁không	2239
▁được	2180
▁các	2040
▁trong	1772
▁với	1701
▁cho	1575
▁tôi	1568
▁người	1504
▁đã	1494
▁thể	1378
▁định	1263
▁này	1248
▁những	1186
▁ở	1094
)	1087
▁để	1076
▁đó	1039
▁về	1014
▁sẽ	1004
▁(	995
n	976
▁ta	974
▁ra	970
▁khi	968
?	968
▁đến	966
▁năm	960
▁bạn	927
▁vào	926
▁công	918
▁phải	899
▁làm	883
▁như	877
-	837
▁quan	828
▁theo	824
m	804
▁chúng	788
▁đầu	771
▁từ	770
ng	762
;	759
i	747
▁-	747
▁việc	745
▁lại	744
y	744
t	739
▁sự	724
▁anh	723
▁tại	716
▁hiện	715
▁nói	708
▁thành	677
▁thực	665
▁cơ	661
▁dụng	661
▁số	658
▁động	654
s	651
▁điều	647
▁nó	641
▁hành	638
▁nhà	635
▁trên	627
▁quy	626
u	625
▁bị	622
▁hợp	622
▁nước	621
▁ngày	617
o	617
▁hoặc	610
▁mà	610
▁cô	594
▁đi	592
▁	572
▁khác	562
▁lý	560
▁chính	558
▁nhân	550
▁cũng	550
:	549
▁ông	541
▁gì	537
▁Tôi	536
▁chỉ	523
▁hàng	523
a	518
▁sau	509
▁con	508
c	507
▁thế	505
▁hơn	500
▁tháng	497
▁họ	497
▁thì	496
▁học	485
▁đang	483
▁thời	481
▁bảo	475
▁cả	468
▁đồng	467
▁chức	465
▁biết	462
▁nhận	459
▁sản	455
▁thấy	449
▁tư	449
▁nhất	446
▁mình	443
▁rằng	442
▁trường	441
▁cách	438
▁vụ	437
▁trình	435
▁sử	435
▁Điều	434
▁đối	433
▁phát	426
▁ấy	425
▁nhưng	421
p	418
▁cấp	415
▁thông	415
▁bản	413
▁gia	412
▁nào	408
▁đây	401
▁pháp	399
▁b	396
▁bằng	382
▁xuất	382
▁nhiều	380
▁C	372
▁cái	366
▁nghiệp	365
▁muốn	365
▁B	365
/	364
▁giá	363
▁quyền	363
▁tin	362
▁hình	359
...	359
▁bộ	352
▁do	352
▁còn	349
▁S	347
▁hội	346
▁kết	346
▁T	341
▁cần	340
▁1	338
▁thứ	338
▁'	338
▁lên	335
▁tự	334
▁tổ	333
▁trước	329
▁vì	328
▁Anh	326
▁rồi	325
▁doanh	321
▁sao	321
g	317
▁qua	316
▁Bộ	313
▁án	311
▁tiếp	311
▁viên	308
I	305
▁lượng	304
▁sinh	304
▁hai	301
▁đổi	299
▁đề	299
▁tế	296
▁kinh	295
C	293
▁độ	292
▁em	291
T	290
▁phần	289
▁giờ	289
▁dân	289
▁tính	286
▁trị	285
▁tài	282
▁bao	282
▁A	282
▁lập	281
▁quản	281
▁quyết	281
▁cùng	281
▁c	281
▁cầu	281
e	279
▁tạo	278
▁trở	278
▁nên	278
▁a	277
▁nếu	277
▁toàn	277
▁liên	274
▁nghĩ	274
N	273
▁điểm	273
▁19	272
▁sở	272
▁vi	271
▁thu	270
▁dự	270
▁thường	270
▁báo	269
▁tiền	268
▁chất	268
▁cuộc	267
▁phòng	265
▁hoạt	262
▁phương	262
▁giới	261
▁rất	261
!	261
▁tìm	259
▁vị	259
▁đất	258
▁:	258
▁vậy	257
▁mới	256
h	255
▁năng	255
▁luật	254
▁gian	253
▁lực	253
▁chứng	253
▁đại	252
▁thuộc	252
▁chuyện	251
▁nhiệm	250
▁vật	249
▁ban	248
▁quả	247
▁chuyển	246
▁quá	246
▁dịch	245
▁đ	245
▁thống	245
▁giải	245
▁máy	244
▁Và	242
▁ý	241
nh	241
▁ngoài	241
▁tới	241
▁hạn	241
▁chủ	240
▁Nam	237
▁đơn	237
▁lớn	237
▁bắt	236
▁Các	235
▁r	235
▁mặt	235
A	234
▁hệ	234
▁2	233
▁thức	233
▁quốc	233
▁chế	232
▁kiểm	232
▁triển	230
▁loại	230
▁tác	230
▁mọi	229
S	229
▁nhiên	229
▁cảm	229
▁dựng	228
▁phẩm	227
▁thiết	227
▁s	226
▁điện	225
d	224
▁D	224
▁yêu	222
▁sống	221
▁tên	220
▁chi	219
▁đường	218
▁xác	218
▁Trong	218
▁văn	217
▁vẫn	217
▁hóa	214
▁tâm	213
▁thay	211
▁cao	211
▁giao	211
▁sách	211
▁hiệu	210
▁tập	210
ra	210
▁cậu	210
▁tay	209
▁khu	208
▁v	208
▁phủ	206
▁phân	206
▁trọng	206
▁tra	205
▁giúp	204
▁phí	204
▁liệu	204
▁nữa	203
▁Nếu	203
▁Chúng	202
▁hay	202
▁H	201
▁m	201
▁cá	200
▁bên	200
▁2.	199
▁ký	199
▁tình	198
▁sát	197
▁trả	197
▁3	197
▁tiêu	197
▁chưa	196
▁Việt	196
▁g	196
▁n	195
▁nhập	195
▁Có	193
▁xây	193
le	193
▁trung	192
re	192
▁L	192
▁nghĩa	192
▁trợ	191
▁địa	191
▁dẫn	190
▁bởi	190
▁cứ	189
▁kế	189
▁gọi	189
▁d	188
▁mục	188
▁toán	188
▁nhìn	187
▁bố	187
▁biệt	187
▁Nhưng	186
▁1.	186
▁khoản	186
▁xem	185
▁5	185
▁tất	185
▁lần	185
▁thích	185
▁tốt	185
▁lời	184
▁ứng	184
▁l	182
th	182
▁bệnh	182
▁chiến	180
▁gồm	180
▁Một	179
ch	179
ư	179
▁tục	179
▁cáo	178
▁Không	178
▁M	177
▁phạm	177
P	177
▁an	177
▁tiếng	176
▁bất	176
▁bỏ	176
▁nơi	176
).	175
▁hoàn	175
▁tiên	174
▁xã	174
▁dùng	174
▁cứu	173
▁vấn	173
▁V	173
M	172
▁N	172
▁nhau	172
la	171
▁kiện	171
▁câu	170
▁I	170
▁thanh	169
▁ty	169
▁giáo	169
▁phía	168
▁thuế	168
▁hoạch	167
▁trưởng	167
in	167
▁hướng	167
▁vệ	167
▁thủ	166
▁K	166
▁\'	166
O	166
▁G	165
▁Cô	165
▁ai	165
▁vực	165
▁nhỏ	164
▁hỏi	163
▁đều	163
▁thẩm	163
▁thương	162
▁khai	162
▁nghe	162
▁ăn	161
b	161
lo	161
▁đánh	160
▁Ông	160
B	160
▁ng	160
▁đúng	159
▁thị	159
▁Chính	157
er	156
▁đâu	156
▁khỏi	156
▁nguyên	156
▁Đ	155
▁Nó	155
▁đưa	155
▁đặc	155
▁trí	153
▁dưới	152
▁bán	152
▁phép	152
▁3.	152
▁lúc	151
▁Quốc	151
▁thật	150
▁mức	150
▁từng	150
▁bà	149
▁ảnh	149
▁phụ	148
▁hết	148
▁4	148
▁tham	148
▁xử	147
▁đủ	147
▁gặp	147
▁diện	147
▁sĩ	146
▁thuật	145
▁sơ	145
4	145
▁xe	145
▁nh	144
k	144
▁kể	143
▁thi	142
▁khoảng	142
▁giữa	142
▁tương	142
▁biến	142
▁Khi	142
ạ	142
▁tăng	141
us	141
▁Trung	140
▁trách	139
▁E	139
5	139
"	139
al	138
á	138
▁nghị	138
▁kỳ	138
▁tích	138
on	138
el	137
▁cố	137
U	137
▁khẩu	137
▁nội	137
▁chọn	136
▁thuốc	136
▁vùng	136
▁Nhà	136
▁tr	135
▁nghiệm	135
▁Bạn	135
▁diễn	135
D	135
▁xuống	134
▁giữ	134
▁ba	134
▁đạo	134
▁trang	134
▁đồ	133
▁mạnh	133
▁mẹ	133
▁mô	133
▁tưởng	132
▁6	132
r	132
▁tiến	132
▁dung	132
▁phục	132
▁nghệ	131
l	130
▁sáng	130
▁lệ	130
▁mua	130
▁hồ	130
▁cổ	130
▁hãy	130
▁tối	129
▁vốn	129
▁gần	129
▁trực	129
▁h	128
▁ch	127
▁t	127
▁bình	127
▁xét	126
H	126
E	126
ma	125
▁mất	125
▁cảnh	125
ri	125
▁quân	124
▁phố	124
▁bay	124
▁Công	124
▁10	124
▁đấy	123
▁rõ	123
en	123
▁Ba	123
▁lợi	122
▁hiểu	122
▁chuẩn	122
▁O	121
▁thân	121
▁tàu	121
NG	121
▁đấu	121
▁chết	120
▁lấy	120
▁kiến	120
▁X	120
▁y	120
▁tượng	119
▁đảm	119
▁chiếc	119
▁tranh	119
▁cuối	118
▁sức	118
▁áp	117
▁bài	117
▁ngay	117
▁tử	117
▁đặt	117
▁khoa	117
▁đội	116
▁hiểm	116
▁F	116
▁giấy	116
ả	116
ia	115
▁dù	115
na	115
▁biển	115
▁dục	115
9	114
▁hắn	114
▁vận	114
▁vô	113
▁bàn	113
▁danh	112
▁Nghị	112
▁chịu	112
an	112
▁Con	112
▁trẻ	111
ta	111
▁tỉnh	111
▁gửi	111
▁thôi	111
▁giống	111
or	111
▁hữu	111
▁chơi	111
▁thư	111
▁lưu	110
▁7	110
▁P	110
f	110
▁truyền	110
▁bé	110
▁nhóm	109
▁khó	109
▁nữ	109
▁khả	109
▁Người	109
▁khách	108
ro	108
▁Thông	108
▁dài	108
▁th	107
1	107
▁chương	107
▁ít	107
▁U	107
▁cửa	107
▁xảy	107
▁viết	106
▁chuyên	106
▁lãnh	106
ơ	106
%	106
▁tổng	105
▁gây	105
ọ	105
▁mắt	105
▁duy	105
▁nhớ	105
▁12	105
▁Những	105
▁mang	104
▁cung	104
▁hoá	104
▁trò	104
7	104
2	104
▁di	104
3	104
▁giảm	104
▁vài	103
▁phản	103
▁Sau	103
▁màu	103
▁đăng	102
8	102
▁nguồn	102
▁chẳng	102
▁lao	102
▁x	101
x	101
▁Tr	101
▁mở	101
▁chú	101
▁Ma	101
▁mỗi	100
▁kỹ	100
▁ghi	99
▁hưởng	99
ệ	99
▁cây	99
▁chí	99
▁Đây	98
▁nay	98
▁thêm	98
▁chắc	98
▁môi	98
▁tinh	98
▁giám	97
ô	97
▁Ta	97
▁tuổi	97
▁chung	96
▁Hãy	96
ê	96
▁nghiên	96
L	96
▁chân	96
▁khiến	96
▁),	96
▁đầy	95
▁Ch	95
▁nằm	94
'	94
▁8	94
▁bổ	94
▁chứ	93
▁hộ	93
▁to	93
▁yếu	93
▁luôn	93
▁lẽ	92
▁4.	92
▁R	92
6	92
li	92
▁lịch	91
▁viện	91
ol	90
▁cụ	90
▁da	89
▁hỗ	89
▁soát	89
ine	89
te	89
▁Em	88
▁11	88
▁cư	88
to	88
▁thầu	88
▁Th	87
▁so	87
▁9	87
▁dụ	87
▁đóng	87
ar	87
ặ	87
▁biểu	87
▁thần	87
à	86
▁TH	86
▁15	86
▁Mỹ	86
▁minh	86
▁đa	86
▁Đối	86
▁vừa	86
▁âm	85
é	85
▁ngân	85
▁chỗ	85
▁mặc	85
V	85
R	85
▁bóng	85
▁đá	85
▁kẻ	84
▁đáng	84
▁sư	84
▁lo	84
▁nguy	84
▁luận	84
▁tín	84
▁Hội	84
▁chống	84
▁đốc	84
ck	83
▁tiết	83
ó	83
▁dễ	83
▁lòng	83
▁độc	82
▁Việc	82
̣	82
▁rộng	82
▁tải	82
▁giả	82
▁mạng	82
▁Đó	81
▁Thủ	81
▁cộng	81
▁đình	81
ce	81
▁nộp	81
▁nhạc	80
▁đô	80
▁Trường	80
▁Lan	80
ne	80
▁phá	80
▁ngành	79
▁trạng	79
▁đời	79
▁W	79
▁chạy	79
▁hồi	79
Y	79
▁dạng	79
▁mẫu	78
▁hải	78
▁duyệt	78
▁k	78
▁p	78
▁Đại	78
▁Cơ	78
▁nàng	78
ợ	78
▁phù	77
z	77
▁trì	77
do	77
▁triệu	77
▁riêng	77
▁Ph	77
▁Tổ	77
▁chỉnh	77
▁đông	76
▁trái	76
▁phê	76
▁kh	76
ed	76
▁Tuy	76
ter	76
ộ	76
▁vay	76
Á	75
▁Ban	75
▁Chỉ	75
▁khí	75
▁nhanh	75
▁sửa	75
▁nghề	75
▁cập	74
▁gái	74
v	74
▁Luật	74
▁kích	74
▁tỷ	74
▁18	74
▁vai	73
▁căn	73
▁thuận	73
▁Ủ	73
▁Tổng	73
G	73
▁ma	73
▁La	73
▁thử	73
▁Họ	73
▁đôi	73
▁bước	72
▁trời	72
đ	72
▁20	72
▁phối	72
▁dành	72
▁chia	72
▁kiếm	72
̀	72
▁Hoa	72
▁phim	72
▁nợ	72
▁in	71
â	71
de	71
▁)	71
▁thuê	71
▁tuần	71
da	71
▁trừ	71
▁vẻ	71
▁qu	71
es	71
▁đau	71
▁hạ	70
▁trai	70
F	70
ba	70
▁ngữ	70
ga	70
▁Vào	70
▁Pháp	70
co	69
▁tức	69
́	69
▁Y	69
ên	69
▁Do	69
▁chấp	69
▁Năm	69
▁loài	69
ớ	68
▁lạc	68
▁thấp	68
▁dấu	68
sa	68
▁thuyết	68
▁đứng	68
▁Ro	68
▁quanh	67
▁mấy	67
ke	67
▁Vậy	67
▁vòng	67
▁cười	67
▁nông	67
▁f	67
▁lĩnh	67
▁Bản	67
▁Giấy	67
▁ngôi	67
ur	67
▁Al	67
▁Ng	66
ết	66
▁đào	66
▁đàn	66
▁lâu	66
▁Tài	66
▁Phi	66
▁tả	66
▁gi	66
ò	66
▁xa	66
▁đạt	66
▁Vì	66
▁ngủ	65
ú	65
vi	65
se	65
▁áo	65
▁thác	65
▁e	65
▁5.	65
▁kèm	65
et	65
▁sung	65
ad	65
▁mối	65
▁Vi	65
▁ô	65
▁xúc	65
NH	64
▁ánh	64
▁ích	64
▁vui	64
▁lỗi	64
▁thúc	64
▁sợ	64
▁sang	64
il	64
▁dữ	64
id	64
▁bác	63
▁TR	63
▁nam	63
▁ca	63
▁nhiễm	63
▁tái	63
▁thú	63
▁đoàn	63
▁đáp	63
▁trận	62
▁Mi	62
▁cạnh	62
▁vọng	62
▁khăn	61
▁xin	61
▁chữa	61
▁châu	61
▁Kỳ	61
▁tố	61
ổ	61
▁quay	61
▁rừng	61
▁mày	61
ki	61
▁chứa	61
▁30	61
ở	61
▁lương	60
▁cử	60
st	60
▁ngoại	60
▁giết	60
▁hôn	60
▁Để	60
ì	60
ỉ	60
▁Ho	60
▁tránh	60
▁Chủ	60
▁lớp	60
▁chắn	59
▁bọn	59
▁la	59
▁buộc	59
▁giác	59
▁Quy	59
wa	59
▁suất	59
ỗ	59
▁lá	59
▁tội	59
▁Ja	59
▁^	58
▁đích	58
▁mại	58
▁tướng	58
▁tiện	58
▁lệnh	58
▁càng	58
ễ	58
▁gốc	58
▁cha	58
ka	58
▁vũ	57
▁ương	57
▁tuyệt	57
land	57
▁Thế	57
▁cực	57
▁hát	57
ul	57
è	57
▁thẳng	57
▁Cậu	57
▁tạm	57
▁thủy	57
20	57
▁Bà	57
▁ơn	56
▁Ha	56
▁tồn	56
▁ràng	56
▁đảo	56
▁dòng	56
▁à	56
▁phiếu	56
▁tịch	56
▁thiên	56
w	56
▁sâu	56
▁Khoản	56
▁tờ	56
bo	55
▁nổi	55
▁chút	55
▁13	55
000	55
▁đứa	55
▁thoại	55
▁kia	55
K	55
▁chữ	54
▁sai	54
▁sắc	54
▁tầng	54
▁Liên	54
200	54
▁thiếu	54
▁chu	54
▁hòa	54
▁nghiêm	54
CP	54
▁ước	54
▁Tại	54
▁Được	53
▁gắng	53
▁hại	53
▁Di	53
ell	53
ry	53
▁kéo	53
▁đoạn	53
ẹ	53
▁thái	53
▁hôm	53
▁Tây	53
▁tắc	53
man	52
▁du	52
▁bức	52
▁Nhật	52
▁Đức	52
▁Sa	52
▁Gi	52
▁phi	52
▁ro	52
▁thậm	52
▁Mo	52
▁mùa	52
▁kỷ	52
▁Mar	52
ã	52
▁dõi	52
▁quý	52
son	51
▁sắp	51
ốt	51
ic	51
ờ	51
▁Jo	51
▁NG	51
▁chiếu	51
▁cuốn	51
▁chị	51
▁băng	50
ù	50
▁Po	50
▁nhẹ	50
▁17	50
▁ngăn	50
ian	50
▁Ngày	50
▁Ngân	50
▁Nh	50
▁hậu	50
▁uống	50
▁ngươi	49
▁tấm	49
▁khá	49
▁PH	49
▁Re	49
▁kê	49
▁nối	49
▁Quyết	49
ực	49
▁đẹp	49
▁New	49
di	49
▁Theo	49
▁cánh	49
▁De	49
va	49
▁Văn	49
▁máu	48
▁xếp	48
▁xuyên	48
▁bại	48
▁Na	48
▁16	48
ân	48
▁lựa	48
ow	48
▁Su	48
▁nghi	48
▁Căn	48
▁hầu	48
ủ	48
▁thưởng	48
ton	48
▁huy	48
▁+	48
âm	48
▁Ra	48
gi	48
▁nhu	48
▁hạt	48
▁Chi	48
ụ	47
▁bầu	47
êu	47
▁nâng	47
▁CH	47
00	47
▁biện	47
▁trụ	47
Ư	47
go	47
▁phạt	47
za	47
▁tao	47
▁24	47
▁cường	47
is	47
ước	46
▁Pe	46
▁luyện	46
▁suy	46
▁ngồi	46
ỏ	46
▁phút	46
▁vượt	46
▁thảo	46
▁rời	46
▁Sự	46
À	46
ni	46
▁cháu	46
▁Ar	46
▁thụ	46
ver	46
▁de	46
▁sông	45
âu	45
▁nạn	45
▁nhiệt	45
▁chó	45
▁đen	45
▁Li	45
▁Le	45
▁ph	45
▁sân	45
▁cấu	45
ũ	45
▁sẵn	45
▁Pa	45
▁the	45
bi	45
be	45
▁suốt	45
it	45
▁Cha	45
);	45
ĩ	44
▁đêm	44
▁So	44
▁mã	44
ir	44
▁mời	44
ần	44
▁thập	44
▁đo	44
▁6.	44
▁ngôn	44
▁lễ	44
▁phong	44
tin	44
▁Cho	44
▁khỏe	44
▁coi	44
▁Từ	44
ph	44
▁Kh	44
ent	44
▁bây	44
▁tuyến	44
▁).	44
▁phổ	44
ế	44
▁lục	44
ấy	44
ông	43
ẻ	43
▁mắc	43
▁Á	43
▁buổi	43
▁đoán	43
ff	43
▁Qu	43
▁thừa	43
▁nhờ	43
▁nghỉ	43
▁lộ	43
▁biên	43
▁Me	43
NĐ	43
▁linh	43
un	43
▁mật	43
▁đọc	43
Đ	43
▁tai	43
▁ví	42
▁hút	42
▁thao	42
▁Bố	42
ền	42
▁quỹ	42
▁of	42
▁phiên	42
▁nền	42
▁tuyên	42
▁thắng	42
▁hoàng	42
▁thỏa	42
▁An	42
▁tộc	42
▁Ri	42
▁nhằm	42
▁cảng	42
▁cháy	42
▁trao	42
sh	42
ti	42
ầy	42
▁quen	41
▁khám	41
▁Truy	41
▁môn	41
ị	41
▁lắm	41
▁tớ	41
▁II	41
▁kho	41
▁Cục	41
me	41
▁Làm	41
▁bày	41
▁Ka	41
lin	41
▁hơi	41
▁phóng	41
▁tầm	41
▁xung	41
▁giản	41
▁Như	41
▁tốc	41
▁chuyến	41
▁đột	41
▁xấu	41
▁sạch	41
▁Lo	41
▁kiểu	41
▁thiện	41
▁buồn	40
▁hạng	40
ard	40
▁quần	40
▁góp	40
ến	40
▁Đừng	40
▁dầu	40
▁trông	40
Ế	40
▁In	40
▁ổn	40
▁/	40
▁tây	40
▁đừng	40
▁cận	40
▁Sao	40
▁trữ	40
▁ngược	40
▁hoa	40
▁lai	40
▁trải	40
í	40
▁bắc	40
▁nặng	39
▁Da	39
▁He	39
▁Cái	39
▁Ca	39
▁thất	39
ét	39
▁vàng	39
▁The	39
▁Bo	39
▁14	39
▁sàng	39
▁Hu	39
▁25	39
▁tóc	39
▁Chúa	39
▁cải	39
▁bốn	38
▁cũ	38
▁Ki	38
▁não	38
▁Giám	38
▁cân	38
▁tấn	38
▁Khu	38
0.000.000	38
les	38
▁Phụ	38
▁thí	38
▁nhé	38
ất	38
ve	38
▁sổ	38
ận	38
▁khối	38
▁Mẹ	38
▁thoát	38
▁St	38
▁hủy	38
▁trú	38
▁Thực	38
̉	38
án	38
▁niên	38
Ệ	38
▁hy	38
ya	38
▁khởi	38
ation	38
▁giành	38
▁bắn	37
▁thằng	37
▁vết	37
ắt	37
▁màn	37
▁Ví	37
▁Ni	37
▁kính	37
▁nêu	37
▁o	37
▁niệm	37
ự	37
▁Tớ	37
--	37
▁bí	37
▁nửa	37
▁lắng	37
▁Hắn	37
kh	37
▁Thu	37
▁Si	37
▁thăm	37
▁lạ	37
▁mong	37
per	37
▁thải	37
▁Tất	36
▁ninh	36
▁Ý	36
▁nóng	36
▁Nội	36
▁dựa	36
▁mộ	36
▁Se	36
ze	36
nes	36
▁đỏ	36
▁thôn	36
▁2010	36
▁kim	36
ới	36
▁binh	36
ran	36
ru	36
▁đĩa	36
▁J	36
▁miễn	36
▁tệ	36
as	36
ster	36
pe	36
ill	36
▁nhánh	36
wi	36
▁vợ	36
▁Dự	36
▁Trước	35
em	35
▁sẻ	35
▁chàng	35
▁cục	35
ối	35
▁khoẻ	35
▁bạo	35
50	35
W	35
▁phán	35
▁khoán	35
Ố	35
▁cứng	35
▁miệng	35
X	35
▁km	35
▁ưu	35
Ạ	35
▁dàng	35
shi	35
▁tĩnh	35
▁50	35
▁bạc	35
▁cú	35
▁dưỡng	34
▁trăm	34
▁0	34
▁Hàng	34
ie	34
▁nhắc	34
▁ngờ	34
▁Tu	34
▁thiểu	34
▁chiếm	34
▁u	34
▁ngài	34
▁Phát	34
▁bào	34
pa	34
tt	34
os	34
ế	34
ồ	34
▁miền	34
▁nỗ	34
▁cắt	34
▁nhật	34
ể	34
ca	34
ss	34
▁Hồ	34
▁To	34
Ả	33
▁nắm	33
ấm	33
▁7.	33
▁rối	33
▁thả	33
▁bữa	33
▁sớm	33
▁tu	33
▁túi	33
▁Ju	33
mi	33
▁mái	33
▁tim	33
▁rơi	33
▁trồng	33
ưu	33
um	33
▁đợi	33
ci	33
▁Điểm	33
po	33
▁Ga	33
ler	33
▁bánh	32
▁dây	32
▁Co	32
ải	32
▁dạy	32
▁mươi	32
▁hãi	32
▁cam	32
rist	32
ôn	32
ho	32
▁John	32
▁Đông	32
▁Xây	32
▁bang	32
Ô	32
▁đám	32
▁ly	32
▁Thời	32
▁chạm	32
".	32
ứ	32
▁chấm	32
▁trống	32
▁tù	32
ă	32
▁trắng	32
▁căng	32
ập	32
▁Ai	32
lia	32
▁chặn	32
lu	32
▁tạp	32
▁2016	32
▁vua	32
▁mười	32
▁dứt	32
▁Độ	32
▁bờ	32
và	32
ly	32
▁hề	32
▁lối	31
at	31
ầu	31
▁Kế	31
▁cầm	31
▁trúc	31
▁cán	31
▁bãi	31
▁đẩy	31
▁Uỷ	31
▁hấp	31
▁chảy	31
▁Phải	31
▁chờ	31
▁i	31
▁tắt	31
▁lược	31
▁Số	31
▁Âu	31
▁2017	31
▁2012	31
ật	31
."	31
▁Gu	31
ha	31
▁ẩn	31
▁Harry	31
▁thịt	31
▁01	31
▁gà	31
▁hộp	31
▁chồng	31
eo	31
▁kháng	31
10	31
▁Hi	31
▁Là	31
▁Bảo	31
▁mơ	31
ăng	31
ing	31
ấn	30
▁Hai	30
▁phận	30
ục	30
▁xu	30
pi	30
▁Du	30
11	30
▁kém	30
▁tiểu	30
▁VÀ	30
▁góc	30
▁2013	30
all	30
▁Thái	30
▁xứ	30
▁thở	30
▁Ở	30
▁rượu	30
▁co	30
▁khuyến	30
▁Rồi	30
▁su	30
ếu	30
▁ủy	30
▁nuôi	30
▁tách	30
ỡ	30
ấu	30
ong	30
▁Be	30
nếu	30
ói	30
▁khắc	30
▁làng	30
▁nỗi	30
▁khắp	30
▁mềm	30
ốc	30
▁đương	30
▁giọng	30
▁Bên	30
mb	30
ja	30
▁đổ	30
................	30
ài	29
▁bảng	29
▁lí	29
▁Mục	29
▁Đầu	29
▁đài	29
▁Mặc	29
▁mi	29
▁đem	29
ệ	29
▁Quỹ	29
▁vời	29
▁lửa	29
ử	29
Â	29
▁Vâng	29
ời	29
▁Giải	29
no	29
▁Car	29
▁Chương	29
▁sóng	29
ắc	29
ah	29
▁bò	29
▁cà	29
▁tô	29
ạt	29
tra	29
Ộ	29
TT	29
ẩ	29
▁tri	29
▁Am	29
mer	29
▁VI	29
▁22	29
▁ạ	29
▁Hợp	29
▁ho	29
▁hả	29
1.	29
▁thuỷ	29
▁chiều	29
▁Kiểm	29
▁khảo	29
▁chậm	29
▁&	29
ley	29
▁bồi	28
▁Pro	28
▁hàm	28
Ụ	28
▁ngạc	28
▁huấn	28
▁Z	28
▁dần	28
▁quảng	28
▁sa	28
▁thước	28
▁chăm	28
ham	28
30	28
▁Hiệp	28
▁KH	28
one	28
▁họp	28
od	28
Ậ	28
▁100	28
▁thầy	28
▁đèn	28
ừ	28
ội	28
ate	28
ái	28
▁ngắn	28
▁Nha	28
2.	28
▁ngừng	28
▁khủng	28
▁mạch	28
▁Vụ	28
▁ngang	27
▁đai	27
▁bi	27
▁Chắc	27
▁súng	27
▁khóa	27
ốn	27
op	27
▁Còn	27
▁ấn	27
gu	27
ôi	27
▁dường	27
▁thổ	27
▁Nói	27
▁quận	27
Q	27
▁Hải	27
▁giận	27
niềm	27
▁trùng	27
▁Thương	27
▁Phạt	27
ầm	27
▁Cả	27
một	27
▁Cộng	27
ox	27
ắn	27
xi	27
▁sóc	27
▁rút	27
▁chào	27
su	27
▁and	27
▁chụp	27
▁Mặt	27
▁tôn	27
▁rủi	27
▁răng	27
▁60	27
▁Mọi	27
▁gắn	27
▁hoà	27
▁Tên	27
▁sắt	27
▁tận	27
▁Bar	27
ấy	27
▁lính	26
▁lưng	26
▁No	26
ion	26
Ự	26
▁Phương	26
▁tường	26
▁Ko	26
▁hi	26
ắp	26
▁Ả	26
▁đỡ	26
ẽ	26
▁lỗ	26
▁thuyền	26
▁phúc	26
tic	26
▁Chị	26
▁dậy	26
▁Nguyên	26
▁2009	26
ris	26
▁truy	26
▁tuân	26
▁Bọn	26
▁tàn	26
mp	26
so	26
▁nại	26
▁gói	26
▁Tri	26
Ê	26
▁nhượng	26
▁21	26
we	26
▁phức	26
ồng	26
ức	26
▁hoang	26
▁Ne	26
16	26
▁cơn	26
0.000	26
▁lâm	26
▁lạnh	26
▁Go	26
▁tuyển	26
tri	26
-19	25
bu	25
▁nổ	25
▁chối	25
▁Ke	25
▁31	25
▁Lu	25
iệt	25
▁Tư	25
▁món	25
▁mãi	25
mo	25
▁Bắc	25
▁thánh	25
▁dám	25
▁2006	25
Ấ	25
▁hạnh	25
▁dương	25
han	25
▁bụng	25
▁ghế	25
▁tuy	25
stan	25
vo	25
3.	25
ment	25
▁trấn	25
▁khiếu	25
om	25
▁Ngoài	25
▁mừng	25
▁siêu	25
▁Trái	25
▁lang	25
▁khoá	25
▁núi	25
▁toà	25
nder	25
▁xanh	25
▁(19	25
18	25
▁li	25
ây	24
▁thẻ	24
ide	24
▁NH	24
▁2005	24
ý	24
▁Chú	24
▁may	24
õ	24
▁Ngài	24
▁York	24
▁(20	24
▁Q	24
▁tỏ	24
▁hè	24
▁video	24
▁điên	24
▁khiển	24
▁w	24
không	24
▁nhỉ	24
▁Trên	24
▁Cũng	24
▁–	24
úng	24
ron	24
▁CỦA	24
▁re	24
▁trương	24
ko	24
▁Cam	24
▁Sở	24
▁già	24
▁Thật	24
▁tán	24
▁=	24
▁bề	24
▁As	24
▁giai	24
▁đảng	24
▁Col	24
▁chuỗi	24
▁album	24
▁Giờ	24
ew	24
▁Nhiều	24
▁tan	23
▁mảnh	23
ăm	23
ut	23
▁thiệu	23
ọc	23
▁dừng	23
ot	23
▁Khoa	23
▁ga	23
CH	23
▁tổn	23
▁xâm	23
óc	23
▁ủng	23
▁thù	23
▁Ed	23
ight	23
▁trốn	23
ẫ	23
▁nhiêu	23
▁quên	23
▁Quản	23
▁ống	23
▁sữa	23
tiếng	23
▁El	23
ina	23
▁(1	23
▁lẻ	23
▁đe	23
im	23
ờ	23
▁khung	23
▁một	23
hi	23
▁ngọn	23
▁tiệc	23
ề	23
ov	23
▁chóng	23
▁đòi	23
▁liệt	23
▁ngựa	23
mon	23
ùng	23
▁xoá	23
▁Chiến	23
ung	23
▁Nga	23
pp	23
▁dược	23
ana	23
▁lãi	23
▁liền	23
▁xạ	23
▁Cách	23
nia	23
ber	23
ica	23
19	23
▁Với	22
ường	22
-1	22
▁Bởi	22
▁Bâ	22
▁Mu	22
▁hẳn	22
ồn	22
▁Đúng	22
▁thảm	22
▁Bi	22
▁Thanh	22
len	22
▁Dù	22
Ổ	22
▁2015	22
▁2014	22
▁cỡ	22
lan	22
▁Giáo	22
xã	22
▁gã	22
▁hương	22
▁xương	22
▁mu	22
▁for	22
tr	22
▁dị	22
▁Chẳng	22
▁khích	22
▁Hà	22
▁tặng	22
▁Viện	22
ts	22
▁Thành	22
▁Báo	22
▁Nông	22
▁#	22
▁Fi	22
ạc	22
▁ngu	22
▁Danh	22
▁Thay	22
▁mai	22
▁lặng	22
▁dư	22
Th	22
▁sàn	22
▁Ge	22
▁2008	22
▁đức	22
▁tha	22
êm	22
▁Emily	22
▁Giao	22
▁sót	22
▁hiệp	22
13	22
▁cột	22
▁sáu	21
▁huyết	21
▁lu	21
▁đẳng	21
ook	21
▁mèo	21
QĐ	21
▁lành	21
▁29	21
▁khổ	21
▁sánh	21
▁gợi	21
▁tước	21
▁lão	21
▁Đơn	21
▁Đảng	21
Ể	21
tion	21
▁tật	21
▁giường	21
▁2011	21
▁khái	21
▁mưa	21
▁Quân	21
▁Man	21
ble	21
▁huyện	21
ương	21
▁khấu	21
éo	21
ứt	21
▁cản	21
▁mê	21
▁chim	21
▁mẽ	21
▁lũ	21
12	21
▁QUY	21
▁Har	21
▁yên	21
▁viễn	21
▁cấm	21
▁thờ	21
▁giam	21
▁mũi	21
wo	21
▁tá	21
▁vẽ	21
▁đỉnh	21
▁Wal	21
dy	21
▁thách	21
and	21
▁ẩm	21
▁bảy	21
▁đốt	21
ers	21
▁hài	21
▁xong	21
ách	21
tor	21
nny	21
▁chặt	20
▁Cảm	20
▁thận	20
▁Mày	20
▁đống	20
▁ni	20
▁bè	20
▁Fa	20
gen	20
tan	20
ther	20
▁nhảy	20
▁kịch	20
úc	20
▁2004	20
▁Châu	20
▁SỐ	20
▁2007	20
▁tảng	20
ích	20
▁Hệ	20
▁ức	20
▁Hồi	20
▁Bu	20
tch	20
▁song	20
▁dặm	20
zo	20
▁tụi	20
▁hùng	20
▁Thẩm	20
▁đựng	20
▁hồn	20
J	20
ex	20
▁thang	20
▁And	20
▁28	20
▁ĐỊNH	20
ăn	20
▁huỷ	20
van	20
▁lái	20
▁Wi	20
▁vầ	20
▁Mã	20
▁quái	20
sau	20
▁lắp	20
▁nhắn	20
▁Lần	20
▁phỏng	20
▁trứng	20
▁kì	20
▁địch	20
▁lông	20
age	20
út	20
ji	20
que	20
ren	20
▁nhấn	20
ai	20
am	20
▁mét	20
▁tòa	20
by	20
▁viêm	20
▁he	20
▁Je	19
rus	19
▁Cuộc	19
▁chủng	19
▁hứng	19
art	19
▁lô	19
▁po	19
▁Giá	19
▁liều	19
▁dạ	19
▁Gia	19
▁giây	19
▁Pi	19
cho	19
▁chúa	19
▁me	19
▁Bình	19
▁va	19
▁Gra	19
▁trại	19
ger	19
▁Đi	19
ể	19
▁người	19
▁ti	19
▁hô	19
▁gương	19
▁thai	19
ros	19
bra	19
ép	19
ằng	19
▁23	19
40	19
▁ấm	19
ge	19
rin	19
▁web	19
▁vỡ	19
▁kịp	19
▁Nhân	19
j	19
▁chuột	19
▁đập	19
ữ	19
▁tàng	19
▁Ðức	19
▁xám	19
▁Hy	19
▁lệch	19
▁kênh	19
▁đuổi	19
ạn	19
ab	19
▁gió	19
▁Ru	19
▁lưới	19
▁giấc	19
NN	19
du	19
Ờ	19
▁vải	19
ens	18
ker	18
▁bật	18
▁lầm	18
▁khuôn	18
▁Xin	18
ans	18
▁thiệt	18
▁bù	18
▁Mà	18
▁Kinh	18
▁kêu	18
dia	18
▁che	18
▁trích	18
▁loạt	18
Ị	18
Ợ	18
ty	18
▁hư	18
lip	18
▁điển	18
▁Bác	18
▁lượt	18
▁tùy	18
▁Thi	18
▁Qua	18
▁ha	18
▁quang	18
▁huống	18
tter	18
▁Tòa	18
▁khẩn	18
▁Về	18
ance	18
Ử	18
dor	18
ấp	18
hoặc	18
▁rác	18
▁gen	18
▁Rập	18
▁Mình	18
ác	18
▁HIV	18
ls	18
▁giày	18
▁ung	18
hấp	18
.000.000	18
▁móc	18
▁al	18
ớ	18
▁Mỗi	18
▁Shi	18
res	18
▁Thống	18
▁Alex	18
▁phiền	18
▁Ngay	18
▁San	18
▁thưa	18
▁is	18
▁lặp	18
▁hẹn	18
▁trục	18
▁thói	17
▁cất	17
▁hổ	17
IỆN	17
▁26	17
don	17
▁Tìm	17
▁khuyên	17
ướng	17
▁khuẩn	17
▁bếp	17
ẫn	17
tôi	17
▁nghèo	17
▁vĩ	17
ius	17
▁buôn	17
▁hoạ	17
▁khô	17
cin	17
▁Đa	17
▁tròn	17
▁đãi	17
▁pro	17
der	17
▁kín	17
▁loạn	17
▁Phòng	17
elle	17
▁cắp	17
▁Nor	17
▁nô	17
▁cai	17
Ch	17
▁thoải	17
▁Ấn	17
▁ki	17
▁vá	17
▁Xô	17
▁Đến	17
▁kem	17
▁lò	17
▁%	17
▁cốc	17
▁Va	17
Ó	17
▁lỏng	17
▁Thậ	17
▁Chứng	17
▁cỏ	17
▁tháo	17
yl	17
▁đồi	17
ud	17
▁ngón	17
▁Trách	17
▁trào	17
▁Tập	17
▁Minh	17
▁Trưởng	17
▁vé	17
▁na	17
▁ngại	17
▁than	17
▁sốt	17
▁9.	17
▁Hay	17
▁Thứ	17
▁dính	17
zi	17
ang	17
▁Kết	17
▁họa	17
sk	17
▁$	17
ừng	17
▁40	17
anda	17
est	16
▁đạn	16
▁Chào	16
▁gỗ	16
▁Mức	16
che	16
▁quyển	16
ính	16
36	16
Cười	16
▁ngon	16
▁tiềm	16
▁tụ	16
▁chán	16
▁j	16
▁với	16
▁nhuận	16
▁Te	16
ban	16
▁We	16
▁ư	16
▁quán	16
yo	16
▁đáo	16
▁05	16
▁Cuối	16
lf	16
▁mùi	16
▁dọc	16
▁Thiết	16
▁tiêm	16
rea	16
▁Phần	16
▁Lao	16
▁khứ	16
▁xô	16
our	16
▁Liệu	16
▁ngực	16
ồi	16
Ứ	16
▁Huy	16
▁Doanh	16
las	16
ùa	16
▁săn	16
▁khoáng	16
ành	16
▁tám	16
▁Paris	16
zy	16
ria	16
ence	16
▁Tiếng	16
▁chép	16
cha	16
ếm	16
▁Wa	16
▁hiển	16
phi	16
▁Biên	16
▁You	16
ney	16
▁trưng	16
▁Pre	16
-20	16
▁nghìn	16
nis	16
▁hiếm	16
ten	16
▁Này	16
he	16
kin	16
▁phế	16
wer	16
ino	16
▁hứa	16
▁Tao	16
▁Hoặc	16
▁giặt	16
▁lọc	16
ore	16
▁Cảnh	16
▁Cá	16
▁Dân	16
▁tủ	16
▁bậc	16
▁chín	16
▁Chu	16
▁cừu	16
sta	16
tu	16
hu	16
ắ	16
át	15
Ầ	15
Ề	15
▁ghét	15
▁Chọn	15
▁nhá	15
▁tốn	15
hy	15
ít	15
▁im	15
▁ru	15
▁treo	15
▁bia	15
tro	15
▁hỏng	15
▁hối	15
▁rắn	15
▁ám	15
chi	15
▁2000	15
▁2001	15
▁hà	15
line	15
▁mỹ	15
illa	15
▁sứ	15
▁Câu	15
có	15
ậ	15
▁vững	15
▁Phân	15
▁mát	15
▁Ben	15
80	15
▁Luc	15
▁Nhìn	15
▁Nên	15
▁bột	15
86	15
▁Cor	15
▁Lưu	15
nhưng	15
▁rãi	15
▁Cháu	15
ẩu	15
▁West	15
lic	15
▁điệu	15
▁dịu	15
lli	15
Ủ	15
ity	15
▁Canada	15
▁kiên	15
▁bó	15
▁quà	15
▁diệt	15
▁Cập	15
▁ngốc	15
▁nha	15
▁ngàn	15
▁Mon	15
▁mắn	15
▁Nghe	15
▁Yêu	15
▁mãn	15
ẳng	15
▁giấu	15
ez	15
▁bom	15
min	15
▁tháp	15
si	15
▁đua	15
▁Nữ	15
old	15
▁02	15
▁hảo	15
▁cặp	15
▁đeo	14
17	14
ñ	14
▁mệt	14
ƯƠNG	14
Ì	14
▁cậy	14
▁mỏ	14
▁...	14
BC	14
▁miếng	14
▁hầm	14
▁tươi	14
▁thề	14
ski	14
▁27	14
ome	14
▁đàm	14
ek	14
▁hỗn	14
▁Đã	14
\'	14
▁kiệm	14
▁sắm	14
▁pháo	14
▁thơ	14
▁Lúc	14
▁Ver	14
▁bám	14
ết	14
▁cờ	14
▁đợt	14
▁bông	14
hỉnh	14
ric	14
▁muối	14
▁vinh	14
▁khốn	14
▁pha	14
▁CÔNG	14
▁VỀ	14
ound	14
▁rửa	14
▁xứng	14
▁Ừ	14
▁Bài	14
ượng	14
▁Hầu	14
▁Khoảng	14
▁vang	14
io	14
▁hằng	14
▁Ghi	14
rt	14
▁Nhiệm	14
▁dã	14
▁đế	14
▁bơ	14
▁đê	14
▁Hơn	14
▁tỉ	14
▁8.	14
sco	14
▁Sp	14
ett	14
24	14
▁mệnh	14
▁Trời	14
▁vương	14
▁vuông	14
sion	14
▁ngư	14
ãi	14
▁Hoàng	14
▁dối	14
▁Toà	14
▁Cổ	14
▁gián	14
▁đằng	14
▁Thường	14
▁khán	14
▁Đồng	14
▁Za	14
▁trăng	14
▁dao	14
▁bơi	14
▁cúi	14
ẩm	14
25	14
pho	14
▁can	14
▁bọ	14
▁Ac	14
ive	14
ect	14
01	14
dge	14
▁đếm	14
▁Sha	14
▁xóa	14
▁leo	13
▁tràn	13
sse	13
▁Bill	13
ẩy	13
▁Fer	13
▁ơi	13
▁đón	13
▁Xem	13
dan	13
▁rắc	13
▁Nước	13
5%	13
▁Lập	13
▁khóc	13
▁Xã	13
▁Ab	13
▁Môi	13
▁se	13
▁thấu	13
ỵ	13
▁lẫn	13
▁bá	13
q	13
▁nguyện	13
▁ngọt	13
AN	13
▁cãi	13
anh	13
▁pa	13
▁quê	13
▁xoay	13
▁Kể	13
người	13
▁NĂM	13
ess	13
▁Edward	13
▁III	13
▁trà	13
ear	13
zz	13
ose	13
▁đền	13
▁cưng	13
ft	13
▁HÀNH	13
ary	13
▁nút	13
▁03	13
▁tí	13
▁vớ	13
hiếp	13
ỹ	13
tal	13
▁hét	13
ite	13
▁doạ	13
▁hò	13
▁2002	13
▁tuệ	13
▁Hỗ	13
▁chả	13
cy	13
▁thầm	13
▁lãng	13
▁óc	13
▁trạm	13
▁mo	13
▁dò	13
▁te	13
▁chở	13
ami	13
▁Internet	13
▁rẻ	13
ave	13
fi	13
45	13
▁kìa	13
ển	13
▁Khá	13
▁mọc	13
ame	13
▁Cal	13
uyên	13
▁chênh	13
rom	13
70	13
ller	13
▁*	13
▁lắc	13
▁nhạt	13
▁Tránh	13
dio	13
▁Đội	13
▁Học	13
0	13
ven	13
▁Dùng	13
▁xưa	13
▁Ti	13
▁nhẫn	13
▁Ly	13
▁Lạp	13
▁phó	13
fe	13
▁Thiên	13
rd	13
▁Tiên	13
▁triết	13
▁chăn	13
▁dâm	13
như	13
▁mực	13
qu	13
▁GTGT	13
▁tồi	13
dd	13
▁35	13
port	13
▁triều	13
▁Jack	13
▁mì	13
▁dán	12
vin	12
▁Tin	12
▁thùng	12
▁nắng	12
▁chợ	12
▁tựa	12
qua	12
▁Mac	12
▁ngừa	12
▁Đề	12
ạp	12
▁dày	12
09	12
TTg	12
▁nồng	12
▁khen	12
end	12
▁Lin	12
▁thua	12
▁tóm	12
▁Hoàn	12
via	12
▁vú	12
Ă	12
▁cựu	12
▁She	12
▁trầm	12
▁2018	12
▁Hàn	12
▁nét	12
▁Bất	12
▁bì	12
bb	12
▁điệp	12
▁hưu	12
ộc	12
▁Google	12
mar	12
▁com	12
▁Tăng	12
▁ảo	12
▁thăng	12
▁ko	12
▁on	12
▁ngũ	12
▁ném	12
▁Paul	12
▁há	12
̃	12
▁Ya	12
▁khổng	12
▁lồ	12
▁xí	12
CN	12
Ớ	12
▁Mc	12
▁2003	12
▁Giống	12
àn	12
▁sếp	12
▁500	12
▁bền	12
▁bụi	12
▁bão	12
▁vỏ	12
lly	12
▁Vương	12
▁đuôi	12
▁lan	12
▁Xử	12
▁chấn	12
đối	12
▁bận	12
burg	12
▁giảng	12
ier	12
▁phái	12
▁ổng	12
tis	12
▁Com	12
▁xăng	12
▁Frank	12
sp	12
▁khẳng	12
▁vong	12
▁Tiến	12
▁cụm	12
-2	12
▁Thầy	12
▁tắm	12
▁("	12
ix	12
32	12
▁vườn	12
nie	12
▁Quá	12
je	12
ấ	12
▁Cup	12
▁thợ	12
ire	12
▁cương	12
▁Đất	12
▁1980	12
▁George	12
Tôi	12
▁1999	12
trong	12
▁tuỳ	12
ửa	12
▁dáng	12
ev	12
▁hồng	12
▁Tự	12
▁xoa	12
▁nâu	12
▁trộm	12
▁Loại	12
▁Nghiên	12
den	12
▁giàu	12
ress	12
▁gỡ	12
ngày	12
▁Áp	12
▁tân	12
▁bể	12
▁hu	12
ist	12
▁nhãn	12
▁lọ	11
▁nát	11
▁2015.	11
▁nhàng	11
▁thoả	11
▁London	11
▁cát	11
▁giãn	11
▁quát	11
▁mồ	11
cia	11
ice	11
tes	11
▁Per	11
▁nghịch	11
▁ngưỡng	11
là	11
▁bến	11
02	11
ll	11
▁game	11
▁những	11
▁ngơi	11
▁Sử	11
▁nhắm	11
zu	11
▁nhú	11
▁nhầm	11
ł	11
▁nấu	11
60	11
▁Vị	11
▁USD	11
ast	11
▁đớn	11
▁nhựa	11
▁Dương	11
▁THU	11
▁Chánh	11
▁lơ	11
ậy	11
▁cưỡng	11
▁Thị	11
▁phấn	11
▁mượn	11
▁tung	11
▁Ồ	11
▁thoảng	11
▁Xác	11
▁Bảng	11
▁lân	11
ps	11
Ẩ	11
▁bón	11
▁hạm	11
ỳ	11
▁bẩn	11
▁Đả	11
▁chìm	11
▁War	11
ium	11
Tr	11
▁vội	11
▁Washington	11
▁hít	11
▁Vua	11
▁nhấp	11
▁En	11
▁Alice	11
iềm	11
car	11
77	11
▁gối	11
ku	11
lar	11
rac	11
▁Rất	11
▁Mẫu	11
▁Điện	11
▁Thánh	11
rit	11
▁Giê	11
▁lãm	11
▁ngầm	11
▁lấp	11
ime	11
▁Gre	11
▁mạc	11
ep	11
▁Tiếp	11
wn	11
▁đùa	11
▁kẹt	11
▁Đánh	11
az	11
▁soạn	11
▁hiến	11
sen	11
▁quỷ	11
▁ngẫu	11
▁lùi	11
▁ép	11
▁Her	11
▁Hình	11
23	11
▁xả	11
▁Đường	11
▁cốt	11
▁Thưa	11
▁luồng	11
▁kỉ	11
▁táo	11
ẫu	11
▁My	11
▁khúc	11
ón	11
0%	11
▁Quan	11
▁lây	11
▁Kho	11
▁hào	11
▁lợn	11
▁đạc	11
▁hẹp	11
▁Cùng	11
ford	11
▁Ngoại	11
òng	10
▁ngập	10
▁cẩn	10
▁mò	10
vel	10
▁phẫu	10
▁90	10
▁rà	10
▁bối	10
ất	10
QH	10
▁ốm	10
▁tạ	10
▁Cố	10
▁lõi	10
rie	10
ỷ	10
ịch	10
▁Đặt	10
ington	10
▁1997	10
▁trật	10
▁Đôi	10
▁hòn	10
ish	10
▁chúc	10
▁Dan	10
▁dọa	10
ậu	10
▁sợi	10
▁thuẫn	10
▁Carl	10
▁lát	10
▁Sta	10
▁mến	10
iện	10
▁trộn	10
ện	10
▁đáy	10
▁xưởng	10
sky	10
▁non	10
▁1970	10
▁Thuốc	10
▁Thư	10
▁chinh	10
▁80	10
▁gấp	10
▁mờ	10
▁đạp	10
▁Sẽ	10
▁thượng	10
▁khuyết	10
▁US	10
▁tẩy	10
▁Peter	10
rs	10
▁Trừ	10
▁no	10
▁Oh	10
Z	10
▁vã	10
những	10
▁lôi	10
▁Tim	10
ase	10
05	10
▁Bằng	10
▁chẩn	10
▁2020	10
bert	10
▁be	10
▁khiếp	10
▁Dịch	10
if	10
bằng	10
▁sụp	10
▁đới	10
▁trượt	10
▁kĩ	10
▁Thần	10
▁lăm	10
▁hoãn	10
out	10
▁45	10
▁canh	10
=	10
▁Sam	10
▁bội	10
▁xỉ	10
▁chừng	10
▁mỉm	10
▁Robert	10
▁TV	10
14	10
▁hỏa	10
ua	10
▁Hiện	10
▁Hôm	10
▁nho	10
▁cạn	10
▁dĩ	10
15	10
ey	10
▁ngã	10
▁thạch	10
▁Ku	10
ằ	10
>	10
lie	10
▁Triều	10
▁đói	10
▁Định	10
65	10
▁Bur	10
▁ong	10
▁sạn	9
▁quét	9
21	9
▁À	9
▁mây	9
▁Truyền	9
▁Biểu	9
▁bớt	9
▁Giả	9
▁Cứ	9
▁nhóc	9
87	9
ning	9
▁tui	9
▁âu	9
ura	9
Ở	9
▁Tha	9
erry	9
con	9
▁chăng	9
ene	9
▁Bra	9
▁ác	9
ống	9
▁nướng	9
▁Ber	9
ign	9
▁nụ	9
▁dinh	9
26	9
É	9
ella	9
▁tống	9
▁mỡ	9
▁béo	9
▁dọn	9
▁trôi	9
▁1,2	9
cor	9
▁(2	9
▁TƯ	9
▁Chất	9
▁Trình	9
ếp	9
und	9
▁Hoạt	9
▁Trang	9
▁vĩnh	9
▁200	9
▁túc	9
▁Mark	9
▁nghiêng	9
ugh	9
▁uỷ	9
▁vắng	9
▁Gmina	9
▁Nghĩa	9
▁cướp	9
▁tiếc	9
▁Chưa	9
ố	9
▁hoại	9
▁rau	9
Ð	9
▁Long	9
▁ưa	9
hen	9
▁Tàu	9
▁50%	9
▁Rachel	9
▁gật	9
mit	9
▁đậu	9
▁gọn	9
▁Yo	9
jo	9
▁Min	9
▁Chiếc	9
▁khoan	9
04	9
▁Địa	9
ston	9
75	9
ctor	9
▁được	9
ies	9
▁túy	9
ví	9
▁xinh	9
▁Michael	9
▁Pri	9
▁thổi	9
▁1996	9
▁For	9
−	9
▁♪	9
▁mạn	9
▁cưới	9
ín	9
▁Bru	9
▁lưỡi	9
▁Or	9
ssa	9
/2013	9
gue	9
▁California	9
▁Sản	9
▁Game	9
▁xà	9
▁bùng	9
▁CÁC	9
ant	9
▁thiệp	9
▁Hạ	9
▁Fe	9
▁axit	9
▁Buộc	9
▁CHÍNH	9
ind	9
▁thuần	9
▁Israel	9
▁06	9
▁Đưa	9
▁nạp	9
ū	9
▁NƯỚC	9
97	8
can	8
▁38	8
▁chằm	8
theo	8
/2011	8
▁đỗ	8
▁đố	8
rick	8
sinh	8
▁khía	8
row	8
▁Quyền	8
▁Đặc	8
▁giỏi	8
▁gãy	8
▁tùng	8
ner	8
ves	8
▁email	8
DA	8
▁nhũng	8
ak	8
▁giáp	8
ash	8
▁ngợi	8
▁Sal	8
Í	8
▁Kar	8
▁niêm	8
▁chua	8
▁Ron	8
▁vở	8
▁World	8
fa	8
▁36	8
ald	8
▁Tiêu	8
▁bút	8
net	8
▁phu	8
▁32	8
▁trưa	8
▁cài	8
▁Ít	8
▁thâm	8
ward	8
▁lừa	8
tta	8
▁Mary	8
▁mỏi	8
▁Đào	8
vis	8
▁củng	8
▁trần	8
▁Tính	8
▁mốc	8
▁thắt	8
▁chà	8
▁nôn	8
ding	8
▁thô	8
85	8
29	8
Ẫ	8
ting	8
▁42	8
▁mưu	8
par	8
ếch	8
▁Syria	8
▁hố	8
▁TK	8
▁lui	8
▁bo	8
▁nghiện	8
▁cắm	8
▁qui	8
Thương	8
▁trừng	8
▁Dar	8
▁đắn	8
▁lường	8
500	8
ợ	8
ần	8
▁Tiền	8
▁cổng	8
ō	8
hay	8
▁Bệnh	8
▁mỏng	8
men	8
berg	8
▁lăn	8
▁toa	8
▁van	8
▁cuộn	8
ẵ	8
▁Sửa	8
▁Tháng	8
▁chai	8
off	8
▁dạo	8
▁Thể	8
▁Đế	8
▁tần	8
..............	8
99	8
▁Star	8
▁IV	8
fer	8
▁tuyết	8
▁James	8
har	8
▁Kim	8
▁May	8
ằn	8
▁Chế	8
▁kề	8
rian	8
▁Windows	8
▁lộn	8
▁Biển	8
▁cớ	8
pha	8
▁khoảnh	8
+	8
▁khoác	7
▁cước	7
▁đà	7
­	7
▁Ngươi	7
▁Hồng	7
sha	7
▁gan	7
03	7
▁hạch	7
▁Lấy	7
▁dãy	7
▁Đoàn	7
ara	7
▁Ôi	7
▁Can	7
ida	7
Ù	7
Ơ	7
▁1990	7
▁Quảng	7
▁nén	7
▁1998	7
▁Par	7
▁sáp	7
▁Cap	7
▁pho	7
▁dịp	7
▁ổ	7
33	7
▁vân	7
▁bát	7
▁Gã	7
Ọ	7
▁chục	7
được	7
▁sôi	7
▁protein	7
▁Hiệu	7
▁David	7
▁vướng	7
▁vỗ	7
▁1992	7
/12	7
ture	7
▁bê	7
▁Úc	7
iều	7
▁móng	7
▁37	7
▁Chí	7
▁lũng	7
▁hoảng	7
▁Tom	7
▁khớp	7
ick	7
ö	7
▁trúng	7
▁khơi	7
▁Thôi	7
▁xi	7
08	7
▁tỏa	7
▁300	7
rge	7
▁phe	7
▁mạo	7
▁2019	7
▁Mô	7
▁William	7
▁thép	7
▁Ad	7
▁vây	7
TC	7
iz	7
▁Chuyển	7
▁nạ	7
а	7
`	7
▁Phó	7
▁hung	7
▁Thuế	7
ń	7
▁Mag	7
▁LÝ	7
▁Mont	7
▁Tốt	7
gan	7
67	7
▁huyền	7
▁ODA	7
/2014	7
▁43	7
▁đâm	7
com	7
▁48	7
88	7
▁Tham	7
▁sưu	7
▁say	7
▁ghép	7
▁1994	7
▁or	7
▁with	7
▁trễ	7
▁nấm	7
way	7
▁xá	7
▁phà	7
▁Chà	7
▁thỏ	7
▁khát	7
▁dốc	7
▁Nơi	6
▁mòn	6
▁tò	6
▁pin	6
▁04	6
▁thể	6
▁Han	6
▁Cung	6
▁hoan	6
▁Mer	6
Ữ	6
▁sơn	6
Ồ	6
ette	6
Ắ	6
▁Giữ	6
▁Đạo	6
OS	6
▁Val	6
▁chẽ	6
-3	6
▁08	6
▁Hướng	6
07	6
▁33	6
ữa	6
▁Chuyện	6
▁Bắt	6
tha	6
▁chôn	6
27	6
ola	6
▁oxy	6
năm	6
▁Cl	6
▁Khả	6
▁Gần	6
▁dì	6
▁39	6
▁bồn	6
▁tụng	6
▁tuý	6
gh	6
▁trắc	6
▁Fu	6
▁Hiến	6
▁phường	6
▁Tác	6
▁phô	6
▁ngột	6
▁miêu	6
▁mù	6
▁mụ	6
▁run	6
35	6
▁nảy	6
Ph	6
▁ven	6
/3	6
▁tông	6
▁Ex	6
▁mũ	6
▁rỗng	6
rk	6
▁Thêm	6
▁hãng	6
}	6
▁le	6
trừ	6
▁chìa	6
▁dắt	6
▁Cấp	6
▁Martin	6
22	6
ser	6
▁giật	6
▁Vũ	6
34	6
ld	6
▁Bán	6
▁Vấn	6
▁thám	6
38	6
ám	6
▁bắp	6
▁pe	6
▁Ol	6
▁Henry	6
▁ngắm	6
ẳ	6
▁bỏng	6
act	6
▁Sch	6
89	6
▁Hành	6
▁khôi	6
▁ruột	6
-4	6
▁kiệt	6
▁nhạy	6
ction	6
▁Điển	6
о	6
с	6
gg	6
ç	6
▁san	6
để	5
▁ve	5
▁nở	5
▁Đô	5
▁Tra	5
▁xơ	5
▁GIA	5
▁muộn	5
▁Tương	5
▁sỹ	5
▁gác	5
▁lau	5
▁tị	5
▁Gen	5
▁Sinh	5
▁Thì	5
▁cắn	5
▁Charles	5
▁uy	5
▁thọ	5
ano	5
▁virus	5
▁bọc	5
▁hôi	5
▁cuồng	5
▁Mor	5
▁súc	5
SA	5
ini	5
▁má	5
28	5
▁Toàn	5
▁gạch	5
▁Yu	5
\	5
▁Steve	5
▁lờ	5
▁1995	5
▁nhịp	5
▁giơ	5
del	5
▁Nguồn	5
▁°	5
▁Nhóm	5
▁yết	5
▁phổi	5
ig	5
▁truyện	5
▁Van	5
AS	5
78	5
и	5
▁Park	5
itz	5
▁Đăng	5
▁QUẢN	5
▁rẽ	5
▁dàn	5
06	5
▁chốt	5
▁chọc	5
▁thoáng	5
▁Lee	5
▁League	5
BTC	5
▁Vùng	5
▁100%	5
gor	5
▁Tờ	5
▁ĐỘNG	5
▁thèm	5
▁Langdon	5
Tiếng	5
69	5
▁dỡ	5
▁ván	5
▁Tình	5
▁men	5
▁rào	5
▁hao	5
▁Tỷ	5
▁TỔ	5
▁Thử	5
н	5
▁phun	5
pro	5
▁lề	5
Ỉ	4
^	4
64	4
▁bạch	4
▁Mal	4
•	4
49	4
▁gõ	4
⁄	4
▁mồi	4
▁kí	4
cker	4
▁Thượng	4
ś	4
▁34	4
▁1960	4
bin	4
cô	4
gar	4
▁Gar	4
▁rã	4
/2006	4
95	4
39	4
α	4
▁mổ	4
▁Mấy	4
▁ôm	4
▁ướt	4
е	4
tur	4
л	4
90	4
▁Los	4
▁lật	4
ec	4
▁lùng	4
uk	4
bao	4
/2015/	4
68	4
▁tia	4
Ừ	4
▁78	4
Ĩ	4
°	4
▁đụng	4
▁Eve	4
▁07	4
Ú	4
31	4
▁Phối	4
▁Apple	4
▁Thổ	4
the	4
♫	4
อ	4
б	4
▁khói	4
37	4
Ặ	4
▁củ	4
1998	4
▁thoái	4
′	4
▁lúa	4
œ	4
đã	3
▁khử	3
ling	3
Ã	3
▁ả	3
▁DỤNG	3
▁Mở	3
▁mầm	3
48	3
ầ	3
@	3
AR	3
ów	3
▁rũ	3
β	3
▁Thụy	3
▁Phí	3
www	3
р	3
Г	3
の	3
▁khôn	3
|	3
ink	3
Ỡ	3
▁cởi	3
▁lê	3
▁Mexico	3
Ł	3
▁Lãnh	3
ا	3
¥	3
▁Sĩ	3
▁ngục	3
[	3
]	3
▁Win	3
▁mụn	3
qui	3
▁quãng	3
ę	3
▁Bồ	3
к	3
С	3
▁xuân	3
▁đẻ	3
▁Máy	3
다	3
▁bốc	3
▁lạm	3
≤	3
ü	3
▁Bea	3
▁Tối	3
▁xích	3
信	3
州	3
▁đồn	2
九	2
共	2
±	2
Ỹ	2
š	2
÷	2
rr	2
Ś	2
ā	2
▁Che	2
ą	2
▁Lý	2
*	2
76	2
ー	2
ド	2
ɪ	2
▁giọt	2
ï	2
▁ngoan	2
Ỏ	2
♯	2
в	2
片	2
航	2
ン	2
▁70	2
Ẽ	2
▁ngụ	2
▁{	2
ź	2
▁phẳng	2
ë	2
47	2
ร	2
่	2
ย	2
у	2
д	2
т	2
Р	2
아	2
▁ngạch	2
사	2
이	2
나	2
$	2
ل	2
ē	2
È	2
瀬	2
戸	2
Ẻ	1
評	1
產黨	1
评	1
产	1
党	1
Ẹ	1
Õ	1
▁Nhận	1
⌘	1
몽	1
고	1
정	1
蒙	1
古	1
井	1
■	1
·	1
☆	1
コ	1
ギ	1
ア	1
ス	1
反	1
逆	1
日	1
記	1
ć	1
ɡ	1
ʊ	1
γ	1
Б	1
г	1
∞	1
「	1
こ	1
世	1
界	1
隅	1
に	1
」	1
渕	1
監	1
督	1
海	1
外	1
渡	1
を	1
サ	1
ポ	1
ト	1
す	1
る	1
ク	1
ラ	1
ウ	1
フ	1
ァ	1
デ	1
ィ	1
グ	1
が	1
始	1
動	1
学	1
院	1
å	1
▁Đài	1
~	1
Ō	1
Ễ	1
Ỳ	1
(	1
ک	1
ت	1
德	1
妃	1
●	1
♪	1
ğ	1
▁lồng	1
ы	1
й	1
ş	1
잔	1
치	1
μ	1
름	1
워	1
η	1
ű	1
«	1
Т	1
»	1
ь	1
О	1
м	1
п	1
К	1
▁\	1
헌	1
왕	1
巾	1
帽	1
冠	1
₩	1
👁	1
입	1
술	1
야	1
랑	1
걷	1
자	1
누	1
구	1
비	1
밀	1
은	1
있	1
을	1
의	1
연	1
애	1
기	1
려	1
≥	1
教	1
友	1
ø	1
Ò	1
Ý	1
キ	1
空	1
機	1
ج	1
ب	1
د	1
خ	1
ن	1
Ỷ	1
금	1
곡	1
<	1
\\	1
▁big	1
ż	1
오	1
늘	1
뭐	1
해	1
そ	1
ば	1
味	1
噌	1
€	1
ε	1
→	1
針	1
尾	1
早	1
岐	1
£	1
