s	13187
,	10712
.	10368
▁the	10219
▁of	6548
▁and	5333
▁to	5111
▁a	4178
▁in	3860
t	3211
'	3160
ing	2766
ed	2696
d	2359
▁"	2279
▁I	2113
▁you	2041
▁for	1902
▁is	1682
▁that	1623
-	1549
▁on	1460
y	1382
re	1382
▁with	1323
n	1259
▁it	1251
▁be	1231
er	1205
ly	1196
▁was	1152
▁as	1138
▁or	1128
▁The	1080
▁	1040
al	1022
)	1015
▁(	986
?	971
m	910
or	851
▁at	839
▁-	836
▁by	835
▁this	831
▁are	811
c	809
▁have	791
e	776
▁s	761
▁from	760
in	731
;	728
▁your	704
▁he	694
▁not	690
▁re	682
▁A	670
▁c	667
p	644
▁me	615
ll	607
▁an	607
o	593
▁we	586
ri	572
le	570
ation	551
▁S	547
▁shall	547
▁can	545
/	531
▁de	522
ic	521
r	518
▁'	513
a	508
th	507
▁her	505
ve	496
▁his	496
▁all	495
▁do	491
▁but	486
▁b	477
:	474
g	471
li	469
▁they	464
u	459
▁one	453
es	452
▁In	441
▁out	441
ur	438
il	438
▁C	433
l	431
▁my	427
b	422
it	419
i	417
S	414
▁which	412
en	404
an	403
▁You	398
▁It	396
on	396
▁n	395
▁up	395
▁she	385
▁had	385
▁their	384
▁what	380
ra	369
▁will	365
▁He	363
ar	363
▁so	360
▁if	357
▁were	355
...	355
▁about	353
w	349
▁st	340
▁time	337
▁E	336
ent	336
el	335
I	332
▁there	331
▁19	329
f	329
▁other	327
▁Article	325
▁like	323
k	322
▁And	322
lo	320
▁con	317
▁more	317
ter	314
▁them	313
▁no	311
C	308
▁has	307
ch	304
ro	303
h	299
la	298
ment	296
▁who	296
▁g	292
A	291
ce	291
ate	291
▁said	290
▁when	289
\'	288
et	288
T	287
▁into	286
▁e	284
vi	280
us	280
▁F	280
▁know	279
▁just	278
ion	276
ol	275
▁B	275
▁over	272
se	271
▁p	271
ia	269
ers	268
▁:	266
▁him	266
2	265
ity	263
ist	261
ne	260
▁Re	258
!	256
▁un	256
▁would	252
▁people	251
▁G	249
▁com	248
▁get	248
de	248
▁under	248
at	247
▁We	247
▁been	245
able	244
▁make	243
ng	241
z	241
▁So	240
▁than	238
▁use	237
▁d	237
ul	236
P	236
mi	236
3	234
▁If	233
▁i	232
▁must	231
▁f	230
id	229
D	228
4	228
▁No	227
E	227
mp	227
ive	226
ine	225
▁pro	224
pe	223
ma	222
▁P	221
ir	219
▁may	218
O	216
▁also	215
▁This	215
▁want	214
▁right	214
▁could	214
ry	213
to	213
▁ex	211
as	211
ary	210
▁after	209
▁T	209
▁To	208
▁some	206
▁see	205
▁2.	204
M	203
▁its	202
▁us	201
tic	200
▁first	200
7	199
▁1.	198
ance	198
▁here	198
9	197
ies	197
ating	196
▁any	195
▁M	194
me	194
ant	194
▁O	193
te	193
▁don	192
ck	191
▁even	189
▁then	188
ian	188
om	187
▁our	186
▁now	186
is	186
▁She	185
▁go	184
B	184
5	183
▁work	182
▁But	182
6	182
▁back	181
1	180
est	180
▁K	180
▁such	179
op	178
tion	178
"	175
▁new	174
im	174
▁take	173
8	173
▁3	172
▁two	172
age	171
▁dis	171
▁think	171
▁pre	170
▁W	170
ty	169
▁\'	169
▁N	168
▁where	167
am	167
▁For	166
ke	165
▁need	164
mo	163
ci	162
▁only	162
▁part	162
▁land	159
▁going	159
ge	159
▁before	158
▁way	158
▁Ma	158
na	157
▁V	157
▁3.	157
▁state	155
um	155
▁management	154
L	154
▁down	154
ical	154
ous	154
▁did	154
▁mo	154
▁De	153
x	153
▁Do	152
ca	151
V	151
▁got	151
N	151
▁how	150
▁Ministry	149
▁come	148
▁U	148
▁5	146
ti	146
ta	145
G	145
).	145
▁help	145
▁these	144
▁D	144
ted	144
H	144
un	144
ish	143
ting	143
ow	143
ence	142
▁la	141
▁2	141
up	140
▁They	140
▁should	140
▁Vietnam	140
▁co	139
▁through	139
▁name	138
F	138
▁off	138
▁What	137
▁day	137
ha	137
▁form	137
ver	137
U	137
and	136
ial	136
▁4	136
▁po	135
▁La	135
▁most	135
▁law	134
cu	132
▁ra	132
rs	131
pa	131
▁system	131
ated	131
▁years	130
ations	130
▁Con	130
man	129
▁business	129
▁well	129
▁Ca	129
▁ma	128
▁made	127
ho	127
▁That	127
▁world	126
▁between	125
▁because	125
▁place	125
sion	124
▁1	124
▁Clause	124
ex	124
▁man	123
ect	123
co	123
▁still	123
ite	122
ad	122
▁year	122
▁As	122
▁An	122
rr	122
port	122
▁used	122
em	121
▁Pro	120
▁State	120
▁each	119
▁investment	119
R	119
the	119
%	119
▁head	118
ful	118
▁being	118
▁end	118
▁little	118
ut	117
▁very	117
▁en	117
po	117
no	116
ally	116
▁find	115
▁say	115
▁Ba	115
0	115
mb	115
▁construction	114
▁Mo	114
▁mean	114
per	113
▁water	113
for	113
200	113
one	113
lu	113
di	113
▁life	112
▁agencies	112
▁Ha	112
▁much	111
▁following	111
min	111
▁good	111
▁same	110
▁k	110
les	109
▁information	108
ud	108
ction	108
▁those	108
ture	108
▁organizations	108
▁th	107
ru	107
▁number	107
ff	107
▁around	107
▁People	107
▁person	107
ig	107
▁tell	107
▁thought	106
go	106
▁show	105
ni	105
▁Sa	105
▁sub	105
ab	104
ness	104
20	104
▁case	104
▁There	104
▁Me	104
ure	104
▁tax	104
tra	102
▁never	102
▁vi	101
▁Al	101
qu	101
land	101
▁10	101
▁Ro	101
▁H	101
ag	101
▁many	100
▁Be	100
▁within	100
▁found	100
▁app	100
▁look	99
▁sp	99
▁te	99
sh	99
▁too	99
▁regulations	99
▁something	99
--	98
ton	98
▁Ho	97
▁really	97
▁great	97
▁)	97
▁things	97
▁Th	96
red	96
▁prescribed	96
▁goods	96
▁while	96
ual	96
if	96
▁),	96
pi	95
▁mi	95
▁days	95
▁am	95
▁ti	94
▁15	94
ling	94
▁When	94
▁another	94
▁own	93
oc	93
ard	93
ving	93
vo	93
▁Li	92
▁during	92
▁long	92
end	92
ound	92
▁according	91
▁Minister	91
▁point	91
▁three	91
▁change	91
▁might	91
ments	90
od	90
▁h	90
ative	90
▁house	90
pos	90
▁capital	90
ities	89
▁ca	89
son	89
ba	89
be	89
▁di	89
▁St	89
▁Co	88
00	88
gen	88
ise	88
nd	87
▁order	87
Y	87
▁without	87
▁em	87
▁va	86
▁development	86
▁li	86
▁L	86
led	86
ot	86
▁4.	86
▁home	86
va	86
▁set	86
▁ro	86
▁On	86
▁war	86
▁Government	86
▁called	86
▁high	85
▁OF	85
▁Well	85
ach	85
der	85
▁ho	85
▁project	85
▁keep	84
▁social	84
ga	84
▁price	84
▁gra	84
▁school	84
▁o	84
▁company	84
▁small	84
com	84
▁power	84
▁put	83
▁give	83
▁Decree	83
▁per	83
▁Cha	83
ward	83
▁Pa	83
fe	83
▁car	83
gu	82
ie	82
▁interest	82
▁value	82
▁period	82
her	82
tro	82
ens	81
▁pay	81
▁Se	81
▁together	81
▁plan	81
▁Ar	81
ize	81
▁request	81
▁6	81
▁line	81
▁control	81
wa	81
ster	81
fi	81
▁start	81
▁Na	80
hi	80
sa	80
▁area	80
ight	79
▁every	79
▁support	79
ip	79
▁foreign	79
▁ch	79
ang	79
▁20	78
▁v	78
▁sure	78
▁food	78
▁pa	78
ning	78
▁Le	78
ions	78
▁love	78
da	78
▁m	78
▁until	78
tin	78
▁8	78
▁Da	77
ES	77
ious	77
▁Circular	77
ism	77
▁old	77
gg	77
W	77
tain	77
▁didn	77
▁government	76
▁against	76
▁money	76
rate	76
less	76
our	76
▁live	76
▁training	75
val	75
▁feel	75
▁last	75
▁fa	75
ice	75
way	74
▁activities	74
lin	74
▁provisions	74
▁does	74
▁lo	74
ces	74
▁ta	74
▁Law	74
▁w	74
os	74
▁pu	74
▁Mar	74
▁few	73
ten	73
ified	73
▁ha	73
▁R	73
▁National	73
do	73
▁le	73
▁health	73
▁t	73
▁18	73
mon	73
▁both	73
▁Ja	73
▁projects	72
con	72
qui	72
K	72
▁competent	72
▁Vi	72
▁conditions	72
▁ne	72
ring	72
side	71
▁let	71
ake	71
▁Wa	71
ick	71
▁type	71
he	71
row	71
▁All	71
ron	71
▁national	71
▁Or	71
▁inter	71
ny	71
v	70
▁sh	70
▁individuals	70
ough	70
▁decision	70
du	70
▁documents	70
ki	70
ze	70
iv	70
▁issue	70
000	70
ap	70
▁products	70
▁7	70
▁next	70
cy	70
▁hand	69
▁second	69
ND	69
▁report	69
ong	69
▁operation	69
ory	69
▁human	69
▁important	69
▁Di	69
ult	69
▁areas	69
form	69
▁group	68
ide	68
▁How	68
▁design	68
tal	68
▁services	68
▁body	68
lic	68
▁VND	68
day	68
ator	68
▁thing	68
ber	68
▁Ex	68
que	68
we	68
▁why	68
▁rate	68
▁Now	67
▁subject	67
▁left	67
▁general	67
ell	67
ak	67
▁pi	67
▁ph	67
▁room	67
ship	67
rac	67
ition	67
▁always	67
▁light	67
ph	67
▁kind	67
▁My	67
▁Po	66
▁example	66
▁insurance	66
▁imp	66
ue	66
▁again	66
▁provide	66
▁went	66
tle	66
▁hard	66
▁real	66
▁12	66
▁public	65
▁date	65
ized	65
▁whole	65
▁application	65
▁works	65
▁sa	65
ER	65
▁away	65
▁top	65
▁Committee	65
fa	65
out	64
▁list	64
▁Lo	64
ium	64
▁pe	64
▁send	64
▁talk	64
cent	64
act	64
▁Ra	64
▁9	64
dy	64
pen	63
▁level	63
bu	63
▁four	63
▁less	63
▁5.	63
▁legal	63
▁different	63
▁guy	63
▁hi	63
mber	63
▁came	63
▁ba	63
▁Mr	62
▁New	62
ger	62
old	62
ries	62
▁post	62
gra	62
▁term	62
stan	62
▁Jo	62
▁team	62
▁specified	62
cle	62
pro	62
ization	61
use	61
che	61
lar	61
▁include	61
bi	61
▁working	61
▁market	61
io	61
▁known	61
▁r	60
▁su	60
▁charge	60
▁Department	60
▁anything	60
▁organization	60
▁30	60
▁amount	60
▁cost	60
▁rest	60
▁production	60
."	60
▁present	60
▁including	60
ible	60
▁week	59
▁al	59
▁ask	59
▁call	59
▁At	59
19	59
king	59
▁become	59
▁force	59
ee	59
▁close	59
▁import	59
▁fl	59
tri	59
▁bank	59
line	59
▁enterprises	58
▁doing	58
▁five	58
▁believe	58
▁meet	58
▁local	58
ress	58
ration	58
pp	58
cr	58
▁service	58
eg	58
▁country	58
▁having	58
▁col	58
▁cases	58
▁face	58
▁tra	58
▁–	57
▁means	57
▁y	57
▁office	57
▁big	57
000,000	57
▁Mi	57
▁Then	57
▁best	57
ification	57
uck	57
▁book	57
▁Bo	57
▁ever	57
▁later	57
tter	57
▁Go	57
▁run	57
▁took	57
▁tr	57
▁city	57
▁using	57
ef	56
▁gonna	56
▁girl	56
▁cap	56
▁months	56
▁War	56
▁least	56
▁safety	56
▁13	56
▁Gu	56
▁written	56
put	56
ctor	56
▁million	56
vol	56
▁course	56
▁fine	56
▁record	55
▁result	55
▁enough	55
▁results	55
▁side	55
▁already	55
▁asked	55
ub	55
▁financial	55
▁stay	55
▁Why	55
▁requirements	55
The	55
▁contents	55
▁implementation	55
▁try	55
▁forest	55
▁trade	54
▁care	54
▁After	54
level	54
▁lot	54
▁once	54
▁United	54
av	54
▁Can	54
▁actually	54
▁class	54
▁Fi	54
▁Bu	54
▁mis	54
▁plant	54
tern	54
▁property	54
▁Qu	53
▁effect	53
▁Per	53
▁method	53
▁death	53
fin	53
▁enter	53
duct	53
vent	53
▁better	53
▁inspection	53
▁payment	53
▁equipment	53
▁mind	53
▁el	53
▁told	53
▁test	52
▁fr	52
▁times	52
low	52
▁quality	52
▁Finance	52
▁Ta	52
par	52
▁share	52
▁non	52
▁answer	52
▁air	52
▁Ph	52
▁contain	52
▁Dr	52
▁making	52
▁cor	52
▁short	52
▁process	52
▁protection	52
▁Let	52
▁17	51
▁star	51
▁reason	51
▁yourself	51
▁children	51
▁security	51
▁stop	51
▁father	51
▁walk	51
é	51
▁happen	51
ense	51
▁Some	51
▁question	51
au	51
▁turn	51
▁Point	51
▁tri	51
str	51
▁sha	50
ever	50
ox	50
▁Committees	50
▁hear	50
▁super	50
ew	50
▁du	50
▁pass	50
nt	50
AL	50
▁someone	50
▁limit	50
of	50
cur	50
▁machine	50
bo	50
sign	50
ric	50
▁since	50
IN	50
▁rights	50
▁yet	50
▁met	50
bit	50
▁pain	49
▁special	49
▁game	49
ather	49
dent	49
▁clear	49
▁cover	49
▁certain	49
AN	49
▁Te	49
ep	49
▁May	49
▁open	49
▁credit	49
ev	49
▁common	49
▁transfer	49
);	49
sis	49
▁says	49
▁1,	48
▁wi	48
▁Du	48
▁night	48
▁hours	48
▁research	48
▁Z	48
▁bo	48
ulate	48
▁agency	48
▁sign	48
▁free	48
▁Yeah	48
▁leave	48
br	48
▁11	48
▁sound	48
mer	48
CP	48
▁related	48
▁planning	48
▁contract	48
▁se	48
▁representative	48
▁rule	48
▁fact	48
▁accordance	47
▁study	47
▁several	47
▁men	47
▁based	47
▁submit	47
▁budget	47
▁though	47
ging	47
▁0	47
▁reach	47
▁Vietnamese	47
▁increase	47
gi	47
▁Un	47
tu	47
time	47
▁bit	47
ING	47
bb	47
▁June	47
▁remain	47
▁anti	47
▁product	47
▁--	47
▁became	47
▁everything	47
▁hands	47
▁environmental	47
▁members	47
▁port	47
cul	47
▁center	46
▁key	46
▁effective	46
▁fund	46
▁district	46
▁leg	46
▁dated	46
▁account	46
▁procedures	46
▁na	46
han	46
ral	46
▁age	46
▁technology	46
▁Hu	46
qua	46
▁getting	46
▁full	46
ically	46
rn	45
▁laws	45
▁sale	45
ged	45
▁program	45
OR	45
▁specific	45
▁authority	45
▁conf	45
▁Ch	45
▁understand	45
▁trans	45
ai	45
▁treatment	45
ner	45
▁issued	45
▁treat	45
▁due	45
▁read	45
▁bring	45
▁natural	45
▁win	45
▁export	45
▁party	45
ify	44
▁relevant	44
▁matter	44
▁family	44
▁idea	44
ability	44
▁wanted	44
▁China	44
▁exc	44
▁heard	44
▁often	44
▁cha	44
▁qua	44
▁cat	44
▁administrative	44
▁directly	44
▁position	44
▁single	44
▁registration	44
but	44
▁education	44
▁coming	44
tru	43
▁seem	43
▁Look	43
▁professional	43
▁One	43
▁16	43
▁job	43
ney	43
▁General	43
▁looking	43
▁else	43
▁6.	43
▁son	43
▁total	43
ov	43
▁AND	43
▁direct	43
tur	43
▁kill	43
▁Ka	43
by	43
▁plans	43
▁road	43
▁step	43
▁ob	43
▁protect	43
▁remember	43
▁scr	43
▁organ	43
▁vehicle	43
dic	43
▁Pe	42
▁...	42
cing	42
ON	42
▁art	42
cor	42
▁violations	42
▁act	42
▁Am	42
▁along	42
▁saw	42
▁American	42
▁25	42
▁ship	42
▁large	42
▁red	42
▁Oh	42
late	42
▁+	42
▁units	42
▁woman	42
▁lower	42
▁Sp	42
▁These	42
▁J	42
▁Su	42
ook	42
ea	42
▁En	42
▁risk	42
ka	42
elect	42
den	42
▁nothing	42
▁practice	41
▁dead	41
ped	41
▁doesn	41
▁half	41
mun	41
▁comply	41
ah	41
▁today	41
▁X	41
▁consider	41
▁official	41
▁customs	41
ac	41
▁pla	41
IC	41
▁Decision	41
▁provided	41
▁eyes	41
▁story	41
ular	41
▁child	41
EN	41
▁mon	41
▁authorities	41
▁Man	41
▁fire	41
▁mu	41
▁play	41
▁Yes	41
▁Ne	41
▁die	41
▁loan	41
lay	41
▁Her	41
▁debt	41
ink	40
▁blood	40
MENT	40
▁industrial	40
▁claim	40
▁boy	40
▁provincial	40
▁50	40
▁disc	40
▁rep	40
▁mar	40
▁Bank	40
IS	40
▁His	40
ier	40
▁Car	40
▁moment	40
▁l	40
▁fall	40
ler	40
za	40
▁Not	40
ute	40
▁Y	40
wi	40
▁relationship	40
▁cause	40
ath	40
1.	40
▁sea	40
▁unit	40
▁won	40
uch	39
ek	39
▁minutes	39
▁zone	39
▁central	39
▁II	39
▁return	39
▁Don	39
▁agreement	39
▁fe	39
ient	39
▁November	39
▁problem	39
▁civil	39
cho	39
▁far	39
▁States	39
▁bi	39
▁current	39
▁December	39
▁region	39
▁economic	39
▁goal	39
AT	39
▁24	39
▁tasks	39
▁possible	39
▁amend	39
▁enterprise	39
▁field	38
▁grow	38
▁Prime	38
▁exist	38
▁purchase	38
▁computer	38
▁paper	38
▁size	38
▁true	38
▁trying	38
▁mother	38
▁fi	38
▁Comm	38
▁January	38
lf	38
▁persons	38
▁political	38
▁medical	38
▁assets	38
und	38
▁fail	38
▁color	38
▁Ri	38
▁director	38
▁international	38
▁figure	38
▁perform	38
▁move	38
▁US	38
▁seen	38
▁experience	37
▁purpose	37
▁music	37
▁Je	37
men	37
▁building	37
ibility	37
11	37
▁suggest	37
acy	37
▁estimate	37
▁meeting	37
▁south	37
▁video	37
▁President	37
▁14	37
▁situation	37
ju	37
▁offer	37
▁located	37
▁heart	37
▁wh	37
▁materials	37
▁main	37
▁100	37
ja	37
ulation	37
izing	37
€	37
▁science	37
2.	37
ile	37
▁learn	37
ple	37
▁Col	37
▁Christ	36
ATION	36
▁hold	36
▁lu	36
▁month	36
▁held	36
▁deep	36
▁friends	36
▁ru	36
▁thinking	36
▁Pre	36
istic	36
▁receipt	36
▁check	36
▁black	36
▁problems	36
▁Social	36
▁higher	36
ug	36
▁fish	36
part	36
tric	36
▁started	36
▁THE	36
▁others	36
▁pull	36
▁phone	36
▁data	36
▁function	36
rup	36
▁transport	36
▁card	36
▁University	36
ran	36
▁conduct	36
▁wo	36
gue	36
▁file	36
▁gene	36
▁early	36
▁sent	35
light	35
▁develop	35
▁writing	35
pir	35
▁title	35
▁dossier	35
▁Director	35
wn	35
▁felt	35
ency	35
▁document	35
▁mark	35
ib	35
▁role	35
▁table	35
east	35
IT	35
▁South	35
▁avoid	35
▁sold	35
▁write	35
▁assessment	35
▁wide	35
▁word	35
▁buy	35
▁Your	35
▁apply	35
▁French	35
ung	35
▁disease	35
▁changed	34
▁improve	34
▁women	34
▁annual	34
▁outside	34
▁low	34
vision	34
▁late	34
▁Just	34
▁among	34
▁statement	34
nder	34
▁flow	34
▁door	34
AR	34
▁action	34
▁Mu	34
mm	34
ban	34
▁talking	34
▁knew	34
ign	34
▁piece	34
▁focus	34
▁cell	34
To	34
▁labor	34
▁follows	34
▁watch	34
▁cut	34
▁Assembly	34
▁Ju	34
▁appear	34
▁future	34
▁hair	34
▁fo	34
▁countries	34
▁ten	34
▁bad	34
▁chemical	34
▁establishment	34
▁past	34
▁supplement	34
ley	34
▁collection	34
▁done	33
LE	33
▁major	33
▁deal	33
dom	33
▁responsibility	33
▁create	33
wer	33
▁original	33
▁Are	33
▁physical	33
▁across	33
▁ground	33
▁break	33
▁Gra	33
▁implement	33
▁arm	33
▁store	33
▁base	33
▁separate	33
▁longer	33
cal	33
ED	33
press	33
▁floor	33
where	33
▁court	33
▁feeling	33
▁necessary	33
▁trading	33
▁doctor	33
▁safe	33
▁join	33
ending	32
▁mass	32
▁income	32
▁cur	32
▁friend	32
▁environment	32
rap	32
▁imported	32
chi	32
▁sun	32
Q	32
▁maybe	32
▁approval	32
▁Bar	32
▁basis	32
▁pen	32
▁above	32
▁collect	32
▁kid	32
▁response	32
hold	32
▁language	32
TT	32
▁quite	32
vel	32
▁basic	32
▁Bi	32
▁origin	32
og	32
▁ju	32
▁However	32
▁white	32
▁box	32
▁complain	32
iff	32
▁skin	32
lor	32
▁population	32
▁cities	32
▁especially	32
az	32
▁north	32
▁energy	32
▁fear	32
▁technical	32
▁address	32
▁near	32
▁App	32
▁pretty	32
▁With	31
▁six	31
▁funds	31
▁gun	31
ject	31
▁Get	31
▁Fa	31
ase	31
▁7.	31
▁March	31
▁individual	31
▁Where	31
▁equal	31
▁responsible	31
aries	31
▁island	31
▁living	31
▁strong	31
▁wait	31
▁follow	31
▁sat	31
▁wonder	31
▁toward	31
▁approach	31
▁structure	31
▁upon	31
▁officer	31
▁military	31
▁Every	31
▁Council	31
comp	31
▁Harry	31
▁wrong	31
▁assigned	31
▁organize	31
▁almost	31
▁film	31
▁regard	31
rch	31
▁certificate	31
ash	31
tail	31
pri	31
ya	31
▁Pri	31
▁entire	31
▁lead	31
▁jo	31
▁eye	31
ina	31
rg	30
▁given	30
▁benefit	30
▁hundred	30
▁chance	30
▁Mon	30
▁produce	30
▁option	30
▁model	30
▁World	30
▁released	30
▁reports	30
▁nice	30
▁drug	30
uff	30
hy	30
ches	30
▁God	30
▁dark	30
▁companies	30
▁received	30
j	30
▁behind	30
▁character	30
▁IN	30
▁da	30
▁consist	30
▁El	30
▁history	30
mate	30
▁coordinate	30
▁Central	30
▁fell	30
▁Sta	30
▁listen	30
▁invest	30
▁Okay	30
▁notice	30
▁prepare	30
matic	30
▁either	30
▁difference	30
▁hope	30
▁waste	30
pt	30
▁able	30
▁eat	30
ology	30
50	30
▁sense	30
................	30
▁myself	30
graph	30
▁wasn	29
▁PRO	29
RA	29
▁$	29
▁began	29
▁Because	29
itch	29
Laughter	29
▁Pursuan	29
▁detail	29
▁favor	29
▁laugh	29
▁fun	29
▁ver	29
▁king	29
▁accept	29
▁sleep	29
▁soon	29
▁levels	29
load	29
▁ensure	29
▁leader	29
▁paid	29
▁usually	29
over	29
well	29
zo	29
point	29
▁cho	29
▁serious	29
▁spoke	29
pping	29
▁solution	29
▁license	29
12	29
▁select	29
▁province	29
▁resources	29
▁approved	29
ping	29
▁Cu	29
▁clean	29
▁programs	29
▁carry	29
▁hit	29
▁saying	29
▁taken	29
▁shot	28
▁final	28
▁wall	28
▁space	28
▁promulgate	28
top	28
▁dog	28
▁screen	28
▁decisions	28
▁themselves	28
▁measures	28
▁coast	28
▁employees	28
itive	28
cept	28
▁RE	28
▁employ	28
▁self	28
▁monitor	28
▁voice	28
▁Regulation	28
shi	28
▁turned	28
▁April	28
▁giving	28
▁August	28
▁policies	28
ET	28
▁bra	28
▁various	28
oid	28
▁Cor	28
▁build	28
▁village	28
▁contracts	28
▁Dur	28
▁settlement	28
▁remove	28
▁master	28
▁modern	28
▁im	28
▁rather	28
▁code	28
▁created	28
teen	28
cip	28
▁exchange	28
▁visit	28
▁words	27
pl	27
J	27
▁expenses	27
▁radio	27
▁except	27
▁Health	27
▁add	27
▁park	27
▁par	27
▁Ni	27
▁John	27
▁count	27
▁draw	27
atory	27
▁tree	27
▁completely	27
▁looked	27
▁fight	27
CT	27
UR	27
▁Japan	27
▁allow	27
zz	27
▁bond	27
▁search	27
art	27
ft	27
▁club	27
▁drive	27
▁Who	27
▁reduce	27
lan	27
▁raise	27
▁Har	27
▁21	27
▁exercise	27
▁taking	27
▁Tu	27
▁ja	27
▁respect	27
empt	27
ably	27
▁=	27
▁(19	27
oph	27
▁Other	27
ush	27
▁couldn	27
▁train	27
▁principle	27
▁demand	27
▁ago	27
minate	27
▁whether	27
▁species	27
▁Good	26
▁Make	26
▁likely	26
▁previous	26
▁birth	26
▁localities	26
▁difficult	26
▁sum	26
▁glass	26
▁prevent	26
ological	26
▁brother	26
hen	26
▁died	26
tan	26
▁fee	26
▁exceed	26
▁extra	26
▁rock	26
▁nature	26
▁/	26
▁developed	26
▁limited	26
▁micro	26
▁handle	26
▁October	26
▁km	26
▁fully	26
▁alone	26
▁breath	26
▁movement	26
▁needed	26
▁guidance	26
▁discuss	26
▁secret	26
▁town	26
▁season	26
uc	26
▁built	26
body	26
▁expect	26
▁condition	26
gan	26
▁operating	26
▁hydro	26
▁Trade	26
▁Hi	26
resident	26
year	26
▁22	26
▁worked	26
bor	26
▁branches	26
▁east	26
▁Asia	26
▁Of	26
▁Ki	26
▁feet	26
▁signed	26
▁page	26
▁personal	26
▁board	26
▁whose	26
▁confirm	26
ana	26
▁char	25
▁probably	25
mark	25
▁attempt	25
▁speak	25
▁calculate	25
▁performance	25
▁receive	25
▁decide	25
▁proposal	25
gro	25
▁ran	25
▁imposed	25
▁continue	25
▁broke	25
18	25
▁image	25
▁investors	25
▁actual	25
agon	25
TION	25
▁Sha	25
▁custom	25
▁Party	25
▁decided	25
▁2010	25
xi	25
▁feature	25
▁gave	25
▁September	25
▁hurt	25
▁considered	25
▁travel	25
▁normal	25
▁factor	25
gate	25
▁represent	25
▁sector	25
bra	25
▁involved	25
▁bar	25
▁required	25
80	25
ey	25
▁sex	25
▁text	25
▁effort	25
▁bio	25
▁provinces	25
▁forward	25
▁Investment	25
▁stand	25
ó	25
▁certificates	25
▁Shi	25
rk	25
▁Min	25
▁participate	25
▁gone	25
▁instead	25
▁mode	25
▁attention	25
▁judgment	25
▁Any	24
▁FOR	24
▁31	24
▁average	24
igh	24
app	24
▁pick	24
▁object	24
ius	24
▁household	24
▁capacity	24
▁experiment	24
▁agent	24
▁manager	24
▁teacher	24
▁Did	24
▁inside	24
▁view	24
▁gu	24
▁series	24
▁students	24
▁degree	24
▁mouth	24
▁advance	24
▁owner	24
▁socio	24
▁successful	24
▁contractor	24
30	24
▁har	24
▁English	24
▁Poland	24
▁detect	24
▁front	24
▁please	24
▁đ	24
▁defined	24
▁applicable	24
▁replace	24
▁third	24
▁young	24
▁billion	24
▁institutions	24
▁60	24
▁cast	24
▁Tru	24
▁â	24
▁motor	24
▁site	24
ference	24
▁deliver	24
▁suit	24
▁bill	24
▁however	24
à	24
phe	24
▁drink	24
ji	24
board	23
▁killed	23
▁entitled	23
▁provision	23
▁infrastructure	23
▁British	23
▁stick	23
▁inspect	23
▁brain	23
▁print	23
▁command	23
▁Within	23
▁former	23
▁Ga	23
ette	23
▁served	23
▁article	23
▁institution	23
pha	23
lam	23
kin	23
▁Ti	23
▁2012	23
▁2015	23
▁Korea	23
▁spend	23
▁Thu	23
▁Public	23
arch	23
▁president	23
▁Sun	23
▁ear	23
▁continued	23
▁Ben	23
▁lease	23
▁running	23
▁path	23
pho	23
▁commune	23
▁strength	23
▁auto	23
▁Ste	23
illa	23
▁animals	23
▁save	23
▁Board	23
ko	23
▁himself	23
▁mine	23
▁lost	23
▁added	23
▁fill	23
▁smile	23
ham	23
▁dream	23
▁urban	23
á	23
ble	23
▁expert	23
ume	23
▁exactly	23
verse	23
▁refer	23
▁bid	23
▁hospital	22
▁particularly	22
▁attract	22
scribe	22
▁named	22
▁absolute	22
▁sit	22
▁domestic	22
▁caused	22
ctive	22
▁complete	22
▁commercial	22
X	22
▁loss	22
▁established	22
hu	22
▁Chinese	22
ane	22
▁seven	22
▁York	22
▁below	22
▁While	22
mination	22
▁partner	22
▁window	22
▁published	22
ker	22
▁2009	22
▁valid	22
ement	22
▁heavy	22
▁media	22
▁included	22
▁defense	22
▁police	22
▁Polish	22
▁execution	22
▁speed	22
▁destroy	22
▁cannot	22
▁online	22
▁positive	22
▁threat	22
▁charter	22
▁morning	22
▁picture	22
▁establishments	22
▁transform	22
▁moved	22
▁volume	22
▁28	22
▁rid	22
▁July	22
▁grant	22
room	22
▁bodies	22
▁drop	22
▁member	22
van	22
▁brought	22
▁wife	22
▁measure	22
▁seemed	22
▁simply	22
▁investor	22
▁contact	22
▁accounting	22
10	22
▁referred	22
▁2016	22
▁spec	22
▁beginning	22
▁happened	22
▁community	22
▁worth	22
▁itself	22
▁assume	22
▁simple	22
▁objective	22
▁affect	22
▁playing	22
▁realize	22
▁Office	22
▁attend	22
head	22
14	22
▁attack	21
vid	21
▁skill	21
▁Section	21
▁Take	21
▁peace	21
▁facilities	21
▁dam	21
▁Ko	21
▁enjoy	21
▁Union	21
▁Affairs	21
▁costs	21
▁oil	21
▁described	21
▁access	21
▁anyone	21
▁location	21
▁First	21
air	21
▁Tra	21
▁street	21
▁permit	21
▁version	21
▁available	21
chan	21
▁concept	21
▁concern	21
▁tu	21
▁From	21
▁tend	21
▁Pu	21
▁tea	21
▁happy	21
▁border	21
▁flu	21
▁dress	21
▁duties	21
▁reality	21
▁traffic	21
▁North	21
▁shift	21
▁specialized	21
▁je	21
▁carried	21
▁stuff	21
▁seat	21
▁wish	21
har	21
▁quickly	21
run	21
▁concerned	21
▁century	21
▁audit	21
▁standard	21
dding	21
▁begin	21
▁supply	21
▁evidence	21
▁song	21
▁fast	21
▁List	21
▁standards	21
▁para	21
▁perfect	21
▁receiving	21
▁sort	21
▁chain	21
▁cross	21
▁scar	21
▁played	21
pose	21
off	21
fer	21
▁Hey	21
▁pan	20
▁significant	20
97	20
17	20
▁regular	20
▁progress	20
▁maintain	20
▁parties	20
▁hot	20
▁propose	20
▁stock	20
▁review	20
▁via	20
▁success	20
▁carrying	20
▁weak	20
▁aircraft	20
▁German	20
▁Try	20
▁gas	20
▁similar	20
▁approximately	20
▁electronic	20
▁Pol	20
▁Security	20
▁spot	20
▁deposit	20
▁India	20
▁passenger	20
▁scale	20
▁selling	20
▁granted	20
▁Part	20
RE	20
▁encourage	20
tech	20
▁Ver	20
▁wouldn	20
▁lock	20
▁transaction	20
▁Organization	20
▁appraisal	20
▁processing	20
▁recognize	20
▁Tri	20
▁activity	20
▁ON	20
jo	20
▁Si	20
▁cold	20
▁prime	20
▁reported	20
▁thank	20
ugh	20
▁Air	20
▁West	20
▁suffer	20
ix	20
▁release	20
meter	20
▁fan	20
▁policy	20
▁discovered	20
▁holding	20
▁finger	20
▁cancer	20
▁opt	20
▁critic	20
▁divide	20
▁acid	20
▁quiet	20
▁Sub	20
▁thousand	20
▁Wi	20
clu	20
▁burn	20
▁February	20
▁direction	20
▁Ru	20
▁football	20
ounce	20
▁San	20
▁album	20
▁&	20
▁declaration	20
▁spirit	20
▁letter	20
▁Many	20
▁guarantee	20
▁obligations	20
▁grand	20
▁edge	19
▁everyone	19
▁independent	19
▁defeat	19
▁college	19
▁distribution	19
▁manufacture	19
▁relative	19
▁damage	19
▁Management	19
▁connect	19
▁sorry	19
▁hu	19
▁depend	19
▁Japanese	19
▁herself	19
▁East	19
▁examination	19
▁clearly	19
OL	19
▁mountain	19
▁distance	19
car	19
▁2011	19
▁2013	19
▁rain	19
col	19
▁lack	19
▁sanction	19
▁battle	19
▁comment	19
gar	19
▁track	19
lock	19
▁influence	19
▁additional	19
▁occupational	19
▁agree	19
▁shop	19
▁Dan	19
▁further	19
▁department	19
▁manage	19
▁mid	19
▁trouble	19
▁sometimes	19
▁cup	19
TER	19
▁potential	19
rin	19
▁explain	19
▁profit	19
▁settle	19
▁overseas	19
▁patients	19
▁lie	19
▁Black	19
▁Paris	19
▁bridge	19
▁dossiers	19
▁ready	19
▁principal	19
▁determined	19
▁guide	19
win	19
▁bear	19
▁prison	19
curr	19
▁challenge	19
▁percent	19
▁electricity	19
▁knowledge	19
▁schedule	19
▁Come	19
▁scientific	19
▁status	19
2016	19
▁Like	19
▁author	19
▁chi	19
▁Miss	19
▁soft	19
scription	19
▁stone	19
ica	19
▁impact	19
▁particular	19
▁counter	19
▁enforcement	19
▁immediately	19
▁channel	19
▁sir	19
▁Planning	19
▁Chi	19
▁truth	18
▁earth	18
▁led	18
▁promote	18
▁marriage	18
▁band	18
▁occur	18
▁animal	18
▁Dis	18
▁arrange	18
book	18
mar	18
▁correspond	18
QD	18
▁Most	18
▁regime	18
▁Ye	18
▁29	18
▁extend	18
▁guard	18
▁parents	18
▁Han	18
ruc	18
▁construct	18
like	18
▁push	18
▁Val	18
▁Comp	18
▁Since	18
▁sources	18
▁Europe	18
▁2017	18
▁domain	18
▁multi	18
▁Act	18
▁player	18
▁satisfy	18
house	18
▁Even	18
▁announce	18
▁cash	18
▁earn	18
▁guess	18
▁link	18
▁completed	18
▁recommend	18
▁dangerous	18
▁23	18
▁housing	18
▁internal	18
â	18
▁warm	18
▁rural	18
▁river	18
▁issuance	18
▁mineral	18
▁drugs	18
▁France	18
▁By	18
plicat	18
▁ministries	18
▁survey	18
▁bus	18
▁daily	18
▁addition	18
▁army	18
wo	18
▁born	18
▁foot	18
▁Instead	18
▁branch	18
▁liquid	18
▁excess	18
▁assist	18
▁strange	18
even	18
▁Che	18
▁allowed	18
▁Republic	18
▁maximum	18
▁catch	18
▁dd	18
▁accident	18
▁trust	18
▁division	18
▁promise	18
▁fixed	18
▁popular	18
▁surface	18
ả	18
▁cooperative	18
▁element	18
▁estate	18
▁suddenly	18
▁achieve	18
▁society	18
▁Earth	18
▁balance	18
▁pattern	18
í	18
▁network	18
▁stress	18
▁crime	18
▁mission	18
▁flight	18
▁bag	18
▁breed	18
▁industry	17
ivity	17
▁daughter	17
▁Ke	17
▁syn	17
▁becoming	17
2005	17
▁handling	17
▁Information	17
▁sexual	17
▁Fe	17
▁shut	17
▁instance	17
q	17
▁weight	17
▁yes	17
▁Sea	17
▁host	17
▁earlier	17
▁Time	17
▁Use	17
▁communication	17
▁wa	17
▁material	17
▁photo	17
▁applied	17
▁touch	17
▁message	17
▁largest	17
▁round	17
▁copy	17
arian	17
▁Although	17
▁See	17
CE	17
▁conflict	17
▁expected	17
▁joint	17
▁reserve	17
▁map	17
▁stopped	17
▁borrow	17
▁Will	17
▁performed	17
40	17
▁flood	17
▁items	17
▁package	17
#	17
▁firm	17
▁permanent	17
▁produced	17
▁Head	17
▁eight	17
▁arrest	17
responsibilities	17
▁Service	17
▁establish	17
▁Right	17
▁African	17
60	17
▁Governor	17
▁technique	17
▁managing	17
▁01	17
ole	17
▁currently	17
▁regional	17
▁require	17
▁vision	17
▁planet	17
▁nine	17
▁bomb	17
▁reveal	16
▁introduce	16
▁Bill	16
▁Thank	16
▁scope	16
▁26	16
▁wage	16
▁Lu	16
▁spent	16
▁station	16
AS	16
▁patient	16
▁minimum	16
5%	16
▁poor	16
▁Africa	16
▁huge	16
▁Development	16
▁lose	16
▁2004	16
▁2006	16
born	16
▁mentioned	16
▁seek	16
▁metal	16
▁analysis	16
▁beautiful	16
▁conclusion	16
▁workers	16
▁signal	16
▁highest	16
▁x	16
▁prior	16
▁leading	16
▁uh	16
▁Certificate	16
▁throughout	16
under	16
▁conference	16
work	16
▁Mark	16
▁Maybe	16
▁stage	16
▁ice	16
▁husband	16
▁certification	16
▁%	16
▁mix	16
▁Bro	16
▁Industry	16
▁website	16
▁Park	16
▁Inspect	16
▁ministerial	16
▁luck	16
▁Construction	16
▁sister	16
▁baby	16
▁although	16
▁examine	16
▁engage	16
▁supposed	16
▁40	16
▁kept	16
▁European	16
▁target	16
stitution	16
▁2008	16
▁testing	16
▁TV	16
▁judge	16
with	16
▁opened	16
▁pressure	16
▁Appendix	16
▁obtain	16
▁failure	16
ế	16
nh	16
▁serve	16
15	16
▁conversation	16
▁green	16
▁trial	16
▁straight	16
▁promotion	16
▁double	16
▁healthy	16
▁America	16
▁respective	16
13	16
▁powerful	16
▁solve	16
▁press	16
▁infection	16
▁female	16
▁boat	16
▁score	16
▁prove	16
US	15
▁reflect	15
▁unless	15
▁revenue	15
▁London	15
▁Tell	15
▁kiss	15
▁supervision	15
▁approve	15
▁determine	15
▁Fund	15
▁operate	15
▁providing	15
count	15
▁express	15
▁Pi	15
▁honor	15
▁TO	15
▁Q	15
▁fair	15
▁fresh	15
▁2007	15
▁2005	15
▁digital	15
▁competence	15
▁quick	15
▁chair	15
▁2000	15
▁bidding	15
▁tank	15
▁brand	15
▁vocational	15
▁behavior	15
▁clothes	15
▁Court	15
▁egg	15
▁Ya	15
▁Luc	15
▁alcohol	15
▁observe	15
▁passed	15
▁Australia	15
▁gold	15
▁throw	15
▁setting	15
▁dollar	15
rum	15
▁govern	15
▁House	15
water	15
▁easily	15
▁content	15
▁Under	15
▁western	15
▁dance	15
▁rank	15
▁extension	15
▁click	15
▁wild	15
▁wanna	15
▁photograph	15
war	15
▁match	15
▁interview	15
▁Gi	15
▁equivalent	15
00,000	15
▁memory	15
▁Egypt	15
▁Great	15
▁finally	15
pper	15
▁install	15
▁violation	15
▁male	15
▁recover	15
▁chief	15
▁section	15
▁speech	15
▁doubt	15
ư	15
▁wound	15
▁grade	15
ino	15
je	15
▁vessel	15
▁consideration	15
▁serving	15
œ	15
▁etc	15
▁adopt	15
▁consult	15
▁Another	15
93	15
▁connection	15
▁guiding	15
▁expenditure	15
▁multiple	15
▁acts	15
▁Science	15
▁registered	15
▁imagine	15
▁extract	15
▁cultural	14
▁wood	14
ñ	14
▁agreed	14
▁harm	14
place	14
▁recent	14
▁storage	14
▁quarter	14
▁fruit	14
▁afraid	14
▁somebody	14
▁trip	14
▁choose	14
▁increasing	14
▁contribution	14
▁display	14
▁transferred	14
▁protest	14
▁alive	14
▁Work	14
▁associated	14
▁2014	14
▁Bra	14
▁summer	14
ok	14
spec	14
▁League	14
owned	14
▁client	14
▁appropriate	14
▁campaign	14
▁repair	14
▁fuel	14
▁appointed	14
▁farm	14
▁Germany	14
▁Soviet	14
▁desire	14
▁exploitation	14
▁Inter	14
▁technological	14
▁fat	14
▁length	14
▁increased	14
86	14
▁Agriculture	14
▁Rural	14
▁muscle	14
▁adjustment	14
▁hour	14
▁attached	14
▁proper	14
▁component	14
▁instruct	14
hood	14
▁ability	14
burg	14
▁married	14
▁According	14
Responsibilities	14
▁crazy	14
▁educational	14
Z	14
▁sample	14
▁Russian	14
▁River	14
▁culture	14
▁agricultural	14
▁neck	14
▁television	14
▁procedure	14
▁range	14
▁assess	14
▁International	14
▁square	14
▁slow	14
▁Labor	14
▁wrote	14
economic	14
▁Foreign	14
▁declare	14
▁expand	14
▁cool	14
2013	14
25	14
▁pair	14
term	14
▁Star	14
▁clause	14
▁dry	14
▁enclosed	14
▁City	14
▁block	14
▁feed	14
▁securities	14
▁artist	13
▁register	13
▁stipulated	13
▁choice	13
▁quantity	13
▁Association	13
▁maintenance	13
▁minor	13
▁returned	13
▁sweet	13
▁roll	13
▁okay	13
▁eventually	13
▁extreme	13
▁essential	13
▁hang	13
▁Army	13
▁III	13
▁expression	13
▁cook	13
ear	13
▁middle	13
▁religious	13
▁Natural	13
▁duty	13
▁cancel	13
bin	13
▁pack	13
▁murder	13
\	13
▁bright	13
2006	13
▁load	13
▁movie	13
▁prevention	13
▁style	13
back	13
▁Keep	13
▁authorized	13
▁hunt	13
▁announced	13
▁larger	13
▁80	13
▁device	13
▁thereof	13
▁County	13
▁couple	13
▁sell	13
▁reaction	13
▁causing	13
▁log	13
▁Internet	13
▁adjust	13
▁complex	13
▁calm	13
▁active	13
▁minute	13
▁Control	13
▁formula	13
▁exhibit	13
▁northern	13
▁remind	13
▁escape	13
▁election	13
▁initial	13
▁Code	13
RI	13
▁Michael	13
▁sustain	13
▁ancient	13
▁lip	13
▁stood	13
▁surprise	13
1999	13
▁opinion	13
▁ownership	13
▁taxpayer	13
▁Lord	13
▁caught	13
▁reached	13
▁auction	13
▁corner	13
▁Plan	13
read	13
▁generation	13
▁investigation	13
▁correct	13
▁disaster	13
▁fit	13
unk	13
▁Jack	13
▁stra	12
▁allowance	12
▁cooperate	12
▁territory	12
▁rent	12
stock	12
▁Justice	12
▁whatever	12
▁airport	12
▁identify	12
▁suspect	12
▁27	12
▁waiting	12
▁Trans	12
▁Ber	12
▁blue	12
▁Before	12
▁commitment	12
▁engine	12
▁permitted	12
organ	12
▁weapon	12
▁Port	12
▁Each	12
zi	12
▁Paul	12
▁entities	12
▁council	12
▁involve	12
▁apartment	12
Â	12
▁salt	12
ku	12
▁prefer	12
▁update	12
▁issuing	12
▁sick	12
▁hum	12
▁mental	12
▁substance	12
▁studied	12
▁Frank	12
▁families	12
▁spread	12
▁duration	12
▁supplies	12
▁technologies	12
▁traditional	12
▁race	12
ack	12
▁hole	12
▁growth	12
▁adult	12
▁bull	12
▁sufficient	12
▁Israel	12
▁mechanism	12
▁vote	12
▁respond	12
▁gather	12
▁shape	12
▁ensuring	12
▁temporary	12
▁task	12
▁transportation	12
▁Center	12
▁restrict	12
▁preparation	12
▁temperature	12
▁global	12
▁moving	12
▁severe	12
▁plus	12
▁fuck	12
▁career	12
▁gain	12
▁fighting	12
▁specify	12
▁eligible	12
▁smart	12
▁regulation	12
▁staff	12
▁35	12
▁Transport	12
▁medicine	12
▁typical	12
2010	12
▁asset	12
▁Technology	12
▁perhaps	12
▁Two	11
▁contribute	11
▁learning	11
▁camp	11
▁Customs	11
▁Super	11
▁pop	11
▁scene	11
▁03	11
▁collective	11
▁tried	11
▁Give	11
▁aware	11
▁affair	11
position	11
▁Year	11
▁2018	11
▁frequent	11
▁symbol	11
ł	11
▁beyond	11
▁sky	11
▁engineer	11
▁medication	11
▁leaving	11
ella	11
▁semi	11
▁sentence	11
▁incident	11
▁discover	11
▁Please	11
▁bird	11
▁manufacturing	11
bar	11
▁transit	11
▁Ministries	11
▁Administration	11
▁bottom	11
▁bottle	11
	11
▁Nor	11
▁psycho	11
logical	11
▁hereof	11
▁Those	11
▁properties	11
▁finish	11
▁goes	11
▁shoot	11
▁assistance	11
▁citizen	11
▁database	11
▁invoice	11
▁tight	11
▁rub	11
▁tomorrow	11
▁occasion	11
▁draft	11
▁horse	11
▁creating	11
ệ	11
▁Project	11
▁scientist	11
▁proceed	11
▁explanation	11
▁recorded	11
Đ	11
▁cooperation	11
▁session	11
▁instructions	11
▁guidelines	11
▁blow	11
▁geo	11
▁Russia	11
▁ball	11
▁software	11
▁Our	11
▁manner	11
▁conformity	11
▁negative	11
▁presence	11
▁VAT	11
▁combat	11
▁anymore	11
▁ratio	11
You	11
▁everybody	11
▁notify	11
lecommunications	11
▁studies	10
▁thus	10
▁freedom	10
▁02	10
▁source	10
▁brief	10
script	10
▁launch	10
▁2001	10
▁refuse	10
ax	10
▁Chief	10
`	10
▁worse	10
▁submitted	10
including	10
TTg	10
▁recognition	10
▁lawyer	10
▁student	10
▁email	10
▁Peter	10
craft	10
▁convert	10
▁lift	10
▁Group	10
power	10
▁decrease	10
▁Form	10
▁constant	10
▁nearly	10
▁2020	10
ô	10
▁flat	10
▁administration	10
▁tonight	10
▁reduction	10
▁newspaper	10
▁Game	10
▁u	10
range	10
▁wave	10
▁selection	10
▁electric	10
▁repeat	10
▁Add	10
▁jump	10
▁nuclear	10
▁flo	10
▁criminal	10
▁followed	10
▁fulfill	10
>	10
▁commission	10
friend	10
▁Tax	10
▁habit	9
▁tourist	9
▁mistake	9
▁finance	9
▁otherwise	9
▁teach	9
▁90	9
▁Once	9
▁compensation	9
▁suitable	9
▁hung	9
87	9
▁Prince	9
▁gift	9
▁minister	9
▁admit	9
▁therefore	9
▁1990	9
▁indicate	9
▁facility	9
related	9
▁servant	9
right	9
▁05	9
based	9
▁seal	9
▁entry	9
▁emergency	9
plan	9
▁withdraw	9
▁finished	9
▁Enterprise	9
▁Resources	9
▁bacteria	9
▁hall	9
▁switch	9
▁commit	9
▁Over	9
▁solid	9
▁District	9
▁competition	9
▁sugar	9
▁climate	9
▁Yahweh	9
▁Island	9
hereinafter	9
▁diver	9
▁rise	9
affiliated	9
▁gentle	9
▁belong	9
▁disappear	9
duce	9
▁wind	9
▁Sam	9
▁dispute	9
▁combine	9
▁criteria	9
▁neighbor	9
▁George	9
ologist	9
▁consequence	9
▁secure	9
▁easy	9
▁novel	9
▁residence	9
▁combination	9
▁sitting	9
▁compliance	9
▁obvious	9
municipal	9
ū	9
ography	9
▁architect	8
▁forget	8
▁committee	8
▁dinner	8
▁private	8
▁signature	8
▁suspend	8
▁easier	8
▁smell	8
▁appearance	8
▁Roman	8
▁frame	8
▁ingredient	8
▁publish	8
▁university	8
▁managed	8
▁Environment	8
▁quarantine	8
▁church	8
▁copies	8
▁journal	8
lov	8
▁permission	8
▁High	8
ctu	8
▁Company	8
▁possess	8
85	8
▁resolution	8
ا	8
▁Syria	8
field	8
▁raw	8
down	8
ö	8
▁putting	8
▁*	8
▁Dar	8
ō	8
▁route	8
−	8
▁consumer	8
▁Fail	8
▁defend	8
name	8
▁advantage	8
▁famous	8
▁Account	8
▁Land	8
+	8
▁dig	7
▁illegal	7
▁standing	7
«	7
»	7
▁label	7
▁twenty	7
▁victim	7
▁slowly	7
▁Education	7
▁Training	7
▁currency	7
▁Have	7
▁primary	7
ợ	7
▁generate	7
▁subsequent	7
bel	7
▁liability	7
°	7
▁variety	7
▁William	7
$	7
▁economy	7
а	7
è	7
▁rescue	7
▁coffee	7
▁opportunity	7
ộ	7
amine	7
▁Windows	7
▁stories	7
▁worry	7
▁Commission	7
=	7
▁diploma	6
▁instrument	6
▁committed	6
▁abroad	6
▁camera	6
▁refund	6
▁Sim	6
▁David	6
▁parent	6
[	6
▁scheme	6
ằ	6
ạ	6
▁association	6
▁railway	6
▁reform	6
▁predict	6
▁gotta	6
▁prince	6
▁universe	6
▁decade	6
▁garden	6
88	6
▁survive	6
♪	6
о	6
с	6
ç	6
known	5
^	5
▁changing	5
▁entity	5
▁applicant	5
▁virus	5
▁protein	5
ề	5
ể	5
ị	5
]	5
α	5
и	5
ń	5
BTC	5
▁rich	5
Á	5
ờ	5
ớ	5
▁strategy	5
▁root	5
▁gate	5
ê	5
н	5
ậ	5
′	5
É	4
„	4
wood	4
ś	4
ل	4
}	4
е	4
л	4
▁School	4
ü	4
ồ	4
▁evaluation	4
¥	4
ã	4
อ	4
б	4
ú	4
九	3
š	3
ā	3
ب	3
ơ	3
@	3
ย	3
่	3
β	3
ï	3
р	3
Г	3
の	3
⁄	3
Ł	3
ì	3
▁error	3
&	3
ę	3
к	3
С	3
‘	3
다	3
七	3
≤	3
ỏ	3
ố	3
信	3
州	3
共	2
±	2
Ś	2
س	2
ت	2
ن	2
ủ	2
ừ	2
ữ	2
ù	2
·	2
ー	2
ド	2
ˈ	2
ɪ	2
้	2
ช	2
า	2
▁twice	2
в	2
片	2
ン	2
▁70	2
ũ	2
ź	2
ầ	2
ự	2
ở	2
비	2
ë	2
ร	2
у	2
д	2
т	2
Р	2
ş	2
|	2
아	2
ứ	2
사	2
이	2
나	2
ă	2
*	2
ổ	2
ụ	2
د	2
ắ	2
瀬	2
戸	2
評	1
產	1
黨	1
评	1
产	1
党	1
Œ	1
̃	1
ش	1
ọ	1
몽	1
고	1
정	1
蒙	1
古	1
井	1
ẻ	1
☆	1
コ	1
ギ	1
ア	1
ス	1
反	1
逆	1
日	1
記	1
ć	1
ɡ	1
ʊ	1
ผ	1
ู	1
ใ	1
ห	1
เ	1
γ	1
Б	1
г	1
「	1
こ	1
世	1
界	1
隅	1
に	1
」	1
渕	1
監	1
督	1
海	1
外	1
渡	1
航	1
を	1
サ	1
ポ	1
ト	1
す	1
る	1
ク	1
ラ	1
ウ	1
フ	1
ァ	1
デ	1
ィ	1
グ	1
が	1
始	1
動	1
热	1
血	1
学	1
院	1
×	1
å	1
_	1
Ō	1
ɒ	1
ː	1
θ	1
ẫ	1
ẹ	1
Í	1
đ	1
ặ	1
ک	1
덕	1
●	1
ğ	1
́	1
ą	1
ы	1
й	1
ʻ	1
Τ	1
	1
잔	1
치	1
μ	1
름	1
워	1
η	1
ű	1
Т	1
ь	1
О	1
м	1
п	1
К	1
명	1
헌	1
왕	1
태	1
후	1
Ÿ	1
巾	1
帽	1
冠	1
式	1
粍	1
固	1
定	1
機	1
銃	1
₩	1
입	1
술	1
야	1
랑	1
걷	1
자	1
누	1
구	1
밀	1
은	1
있	1
을	1
의	1
연	1
애	1
기	1
려	1
≥	1
ỉ	1
ý	1
Ề	1
Ú	1
Ả	1
Ð	1
Ạ	1
Ụ	1
Ủ	1
Ữ	1
ø	1
ễ	1
キ	1
ج	1
خ	1
금	1
곡	1
(	1
ż	1
ē	1
•	1
오	1
늘	1
뭐	1
해	1
そ	1
ば	1
味	1
噌	1
‐	1
Ó	1
ε	1
ο	1
↓	1
→	1
茅	1
ấ	1
針	1
尾	1
早	1
岐	1
£	1
{	1
و	1
ي	1
ة	1
